{
  "version": "1.0",
  "truncation": null,
  "padding": null,
  "added_tokens": [
    {
      "id": 0,
      "content": "[PAD]",
      "single_word": false,
      "lstrip": false,
      "rstrip": false,
      "normalized": false,
      "special": true
    },
    {
      "id": 1,
      "content": "[UNK]",
      "single_word": false,
      "lstrip": false,
      "rstrip": false,
      "normalized": false,
      "special": true
    },
    {
      "id": 2,
      "content": "[CLS]",
      "single_word": false,
      "lstrip": false,
      "rstrip": false,
      "normalized": false,
      "special": true
    },
    {
      "id": 3,
      "content": "[SEP]",
      "single_word": false,
      "lstrip": false,
      "rstrip": false,
      "normalized": false,
      "special": true
    },
    {
      "id": 4,
      "content": "[MASK]",
      "single_word": false,
      "lstrip": false,
      "rstrip": false,
      "normalized": false,
      "special": true
    }
  ],
  "normalizer": null,
  "pre_tokenizer": null,
  "post_processor": null,
  "decoder": null,
  "model": {
    "type": "BPE",
    "dropout": null,
    "unk_token": "[UNK]",
    "continuing_subword_prefix": null,
    "end_of_word_suffix": null,
    "fuse_unk": false,
    "byte_fallback": false,
    "ignore_merges": false,
    "vocab": {
      "[PAD]": 0,
      "[UNK]": 1,
      "[CLS]": 2,
      "[SEP]": 3,
      "[MASK]": 4,
      "\t": 5,
      "\n": 6,
      "\r": 7,
      " ": 8,
      "!": 9,
      "\"": 10,
      "#": 11,
      "$": 12,
      "%": 13,
      "&": 14,
      "'": 15,
      "(": 16,
      ")": 17,
      "*": 18,
      "+": 19,
      ",": 20,
      "-": 21,
      ".": 22,
      "/": 23,
      "0": 24,
      "1": 25,
      "2": 26,
      "3": 27,
      "4": 28,
      "5": 29,
      "6": 30,
      "7": 31,
      "8": 32,
      "9": 33,
      ":": 34,
      ";": 35,
      "<": 36,
      "=": 37,
      ">": 38,
      "?": 39,
      "@": 40,
      "A": 41,
      "B": 42,
      "C": 43,
      "D": 44,
      "E": 45,
      "F": 46,
      "G": 47,
      "H": 48,
      "I": 49,
      "J": 50,
      "K": 51,
      "L": 52,
      "M": 53,
      "N": 54,
      "O": 55,
      "P": 56,
      "Q": 57,
      "R": 58,
      "S": 59,
      "T": 60,
      "U": 61,
      "V": 62,
      "W": 63,
      "X": 64,
      "Y": 65,
      "Z": 66,
      "[": 67,
      "\\": 68,
      "]": 69,
      "^": 70,
      "_": 71,
      "`": 72,
      "a": 73,
      "b": 74,
      "c": 75,
      "d": 76,
      "e": 77,
      "f": 78,
      "g": 79,
      "h": 80,
      "i": 81,
      "j": 82,
      "k": 83,
      "l": 84,
      "m": 85,
      "n": 86,
      "o": 87,
      "p": 88,
      "q": 89,
      "r": 90,
      "s": 91,
      "t": 92,
      "u": 93,
      "v": 94,
      "w": 95,
      "x": 96,
      "y": 97,
      "z": 98,
      "{": 99,
      "|": 100,
      "}": 101,
      "~": 102,
      " ": 103,
      "±": 104,
      "×": 105,
      "Σ": 106,
      " ": 107,
      " ": 108,
      "​": 109,
      "’": 110,
      "“": 111,
      "”": 112,
      "…": 113,
      "←": 114,
      "↑": 115,
      "→": 116,
      "∅": 117,
      "−": 118,
      "√": 119,
      "∞": 120,
      "∩": 121,
      "∪": 122,
      "≈": 123,
      "≠": 124,
      "≤": 125,
      "⊕": 126,
      "⌊": 127,
      "⌋": 128,
      "➝": 129,
      "⟶": 130,
      "一": 131,
      "个": 132,
      "中": 133,
      "介": 134,
      "优": 135,
      "但": 136,
      "先": 137,
      "入": 138,
      "内": 139,
      "到": 140,
      "前": 141,
      "加": 142,
      "匙": 143,
      "向": 144,
      "四": 145,
      "回": 146,
      "围": 147,
      "在": 148,
      "墙": 149,
      "对": 150,
      "应": 151,
      "度": 152,
      "当": 153,
      "往": 154,
      "态": 155,
      "或": 156,
      "所": 157,
      "找": 158,
      "搜": 159,
      "数": 160,
      "新": 161,
      "方": 162,
      "无": 163,
      "时": 164,
      "是": 165,
      "更": 166,
      "最": 167,
      "有": 168,
      "未": 169,
      "此": 170,
      "步": 171,
      "没": 172,
      "法": 173,
      "深": 174,
      "点": 175,
      "状": 176,
      "界": 177,
      "的": 178,
      "索": 179,
      "终": 180,
      "统": 181,
      "者": 182,
      "范": 183,
      "计": 184,
      "访": 185,
      "起": 186,
      "边": 187,
      "过": 188,
      "返": 189,
      "通": 190,
      "量": 191,
      "钥": 192,
      "锁": 193,
      "问": 194,
      "队": 195,
      "，": 196,
      "  ": 197,
      "    ": 198,
      "\r\n": 199,
      "e ": 200,
      "th": 201,
      "        ": 202,
      "s ": 203,
      "in": 204,
      "t ": 205,
      "er": 206,
      "the ": 207,
      ", ": 208,
      "on": 209,
      "an": 210,
      "= ": 211,
      "en": 212,
      "d ": 213,
      "f ": 214,
      "re": 215,
      "ar": 216,
      "or": 217,
      "ti": 218,
      "um": 219,
      "st": 220,
      "al": 221,
      ":\r\n": 222,
      ".\r\n": 223,
      "o ": 224,
      "y ": 225,
      ": ": 226,
      "of ": 227,
      "ing": 228,
      "tion": 229,
      "is ": 230,
      "num": 231,
      "ut": 232,
      "le": 233,
      " the ": 234,
      "ch": 235,
      "ro": 236,
      "se": 237,
      "de": 238,
      "er ": 239,
      "ur": 240,
      "to ": 241,
      "co": 242,
      "pl": 243,
      "            ": 244,
      "ing ": 245,
      "ra": 246,
      "and ": 247,
      "int": 248,
      "n ": 249,
      ". ": 250,
      "a ": 251,
      "at": 252,
      "] ": 253,
      "put": 254,
      "di": 255,
      "Th": 256,
      "put: ": 257,
      "or ": 258,
      "th ": 259,
      "Ex": 260,
      "in ": 261,
      "un": 262,
      "<= ": 263,
      "ma": 264,
      "st ": 265,
      "si": 266,
      "es ": 267,
      "su": 268,
      "ri": 269,
      "ation": 270,
      "am": 271,
      "at ": 272,
      "an ": 273,
      "tur": 274,
      "1 ": 275,
      "ch ": 276,
      "ent": 277,
      ") ": 278,
      "``": 279,
      "qu": 280,
      "ed ": 281,
      "# ": 282,
      "len": 283,
      "- ": 284,
      "im": 285,
      "it": 286,
      "ol": 287,
      "                ": 288,
      "[i": 289,
      "ac": 290,
      "ge": 291,
      "no": 292,
      ")\r\n": 293,
      "wi": 294,
      "nums": 295,
      "if ": 296,
      " = ": 297,
      "+ ": 298,
      "po": 299,
      "retur": 300,
      "m ": 301,
      "]\r\n": 302,
      "10": 303,
      "The ": 304,
      "1,": 305,
      "numb": 306,
      "con": 307,
      "In": 308,
      "es": 309,
      "l ": 310,
      "gh": 311,
      "ou": 312,
      "val": 313,
      "str": 314,
      "en ": 315,
      "are ": 316,
      "ea": 317,
      "for ": 318,
      "arra": 319,
      "fi": 320,
      "um ": 321,
      "leng": 322,
      "ple ": 323,
      "e the ": 324,
      "that ": 325,
      "ist": 326,
      "max": 327,
      "as": 328,
      "= [": 329,
      "Out": 330,
      "Output: ": 331,
      "of the ": 332,
      "ample ": 333,
      "lo": 334,
      "Example ": 335,
      "fro": 336,
      "Input: ": 337,
      "return ": 338,
      "ne": 339,
      "        \r\n": 340,
      "ent ": 341,
      "wh": 342,
      "` ": 343,
      "plan": 344,
      "number ": 345,
      "le ": 346,
      "k ": 347,
      "min": 348,
      "ord": 349,
      "sub": 350,
      "2,": 351,
      "planation": 352,
      "Explanation": 353,
      "coun": 354,
      " \r\n": 355,
      "it ": 356,
      "], ": 357,
      "el": 358,
      "ve ": 359,
      "al ": 360,
      "length ": 361,
      "ution": 362,
      "ter": 363,
      "ul": 364,
      "lem": 365,
      "olution": 366,
      "x ": 367,
      "ce ": 368,
      "mo": 369,
      "cur": 370,
      "ap": 371,
      "can ": 372,
      "```": 373,
      "List": 374,
      "ot": 375,
      "> ": 376,
      "pre": 377,
      "0,": 378,
      "ed": 379,
      "        # ": 380,
      "in the ": 381,
      "**": 382,
      "array ": 383,
      "from ": 384,
      "each ": 385,
      "0\r\n": 386,
      "pro": 387,
      "we ": 388,
      "ere ": 389,
      "iv": 390,
      "ran": 391,
      "2 ": 392,
      "ly ": 393,
      "1, ": 394,
      "ou ": 395,
      "== ": 396,
      "ab": 397,
      "1\r\n": 398,
      "imum ": 399,
      "i ": 400,
      "per": 401,
      "curr": 402,
      "ver": 403,
      "number of ": 404,
      "0 ": 405,
      "sel": 406,
      "[i] ": 407,
      "):\r\n": 408,
      "eg": 409,
      "3,": 410,
      "ec": 411,
      "com": 412,
      "],": 413,
      "li": 414,
      "self": 415,
      "elem": 416,
      "as ": 417,
      "inde": 418,
      "lef": 419,
      "s:\r\n": 420,
      "ex": 421,
      "valu": 422,
      "],[": 423,
      "be ": 424,
      "s.\r\n": 425,
      "tw": 426,
      "p ": 427,
      "-> ": 428,
      "se ": 429,
      "ct": 430,
      "sh": 431,
      "1 <= ": 432,
      "righ": 433,
      "def ": 434,
      "integ": 435,
      "iven ": 436,
      "Explanation: ": 437,
      "by ": 438,
      "cl": 439,
      "for": 440,
      "with ": 441,
      "char": 442,
      "pa": 443,
      "ir": 444,
      "tim": 445,
      "stra": 446,
      "all ": 447,
      "ction": 448,
      "low": 449,
      "<= 10": 450,
      "not ": 451,
      "s = [": 452,
      "node": 453,
      "ad": 454,
      "This ": 455,
      "fin": 456,
      "\",": 457,
      "s, ": 458,
      "s the ": 459,
      "bo": 460,
      "List[": 461,
      "1:\r\n": 462,
      "Con": 463,
      "\",\"": 464,
      "straint": 465,
      "sul": 466,
      "][": 467,
      ". The ": 468,
      "                    ": 469,
      "If ": 470,
      "* ": 471,
      "whi": 472,
      "end": 473,
      "sib": 474,
      "ce": 475,
      "resul": 476,
      "range": 477,
      "string ": 478,
      "be": 479,
      "ass ": 480,
      "count": 481,
      "star": 482,
      "ort ": 483,
      "(self": 484,
      "word": 485,
      "Re": 486,
      "igh": 487,
      "vi": 488,
      "to the ": 489,
      "ing the ": 490,
      "imp": 491,
      ".length ": 492,
      "(self, ": 493,
      "class ": 494,
      ") -> ": 495,
      "ers ": 496,
      "You ": 497,
      "arge": 498,
      "2:\r\n": 499,
      "de ": 500,
      "ter ": 501,
      "yth": 502,
      "fir": 503,
      "col": 504,
      "given ": 505,
      "sum ": 506,
      "range(": 507,
      "Solution": 508,
      "ow": 509,
      "    def ": 510,
      "il": 511,
      "ython": 512,
      "ta": 513,
      "Constraint": 514,
      "array": 515,
      "pos": 516,
      "in range(": 517,
      "sum": 518,
      "t = ": 519,
      "element": 520,
      "Constraints:\r\n": 521,
      "        return ": 522,
      "Example 2:\r\n": 523,
      "Example 1:\r\n": 524,
      "4,": 525,
      "solution": 526,
      " + ": 527,
      "python": 528,
      "class Solution": 529,
      "```\r\n": 530,
      "```python": 531,
      "class Solution:\r\n": 532,
      "```python\r\n": 533,
      "ort": 534,
      "one ": 535,
      "len(": 536,
      "possib": 537,
      "ay": 538,
      "maximum ": 539,
      "[0": 540,
      "two ": 541,
      "charac": 542,
      "n the ": 543,
      "quen": 544,
      "pres": 545,
      "s of ": 546,
      ", and ": 547,
      "ru": 548,
      "integer ": 549,
      "is the ": 550,
      "app": 551,
      "import ": 552,
      "all": 553,
      "We ": 554,
      "up": 555,
      "ty": 556,
      "with": 557,
      " - ": 558,
      "me": 559,
      "< ": 560,
      "let": 561,
      "solution ": 562,
      ", we ": 563,
      "tra": 564,
      "any ": 565,
      "s = ": 566,
      "ke": 567,
      "the": 568,
      "max_": 569,
      "first ": 570,
      "        for ": 571,
      "dist": 572,
      "on ": 573,
      "ll ": 574,
      "string": 575,
      "gri": 576,
      "cul": 577,
      "List[int": 578,
      "-1": 579,
      "2, ": 580,
      "tot": 581,
      "dp": 582,
      "2\r\n": 583,
      "left": 584,
      "possible ": 585,
      "ate ": 586,
      "peration": 587,
      "posi": 588,
      "ge ": 589,
      "            if ": 590,
      "+= ": 591,
      "ces": 592,
      "\" ": 593,
      "3 ": 594,
      "\", ": 595,
      "tre": 596,
      "5,": 597,
      "ic": 598,
      "sw": 599,
      "0, ": 600,
      "typ": 601,
      "ha": 602,
      "dig": 603,
      "par": 604,
      "alcul": 605,
      "right": 606,
      "mov": 607,
      "arr": 608,
      "ff": 609,
      "s\r\n": 610,
      "row": 611,
      "\"\r\n": 612,
      "current ": 613,
      "its ": 614,
      "**: ": 615,
      "gra": 616,
      "index ": 617,
      "index": 618,
      "Retur": 619,
      "oun": 620,
      "            # ": 621,
      "id ": 622,
      "so ": 623,
      "start": 624,
      "mat": 625,
      "sp": 626,
      "minimum ": 627,
      "length": 628,
      "ces ": 629,
      "operation": 630,
      "This solution ": 631,
      "00": 632,
      "5\r\n": 633,
      "iz": 634,
      ". **": 635,
      "ary ": 636,
      "sort": 637,
      "[1,": 638,
      "targe": 639,
      "e\r\n": 640,
      "you ": 641,
      "current": 642,
      "id": 643,
      "d the ": 644,
      "can be ": 645,
      "to": 646,
      "m the ": 647,
      "this ": 648,
      "where ": 649,
      "point": 650,
      "Explanation:\r\n": 651,
      "sequen": 652,
      "You are ": 653,
      "] = ": 654,
      "equ": 655,
      "value ": 656,
      "count ": 657,
      "ct ": 658,
      "em": 659,
      "ore ": 660,
      "node ": 661,
      "which ": 662,
      "].\r\n": 663,
      "cre": 664,
      "s to ": 665,
      "ates ": 666,
      "bin": 667,
      "), ": 668,
      "will ": 669,
      "wor": 670,
      "ci": 671,
      "nums = [": 672,
      "result": 673,
      "n = ": 674,
      "us": 675,
      "s[": 676,
      "List[int]": 677,
      "nums[": 678,
      "typing ": 679,
      "hea": 680,
      "from typing ": 681,
      "from typing import ": 682,
      "0,0,": 683,
      "'s ": 684,
      "repres": 685,
      "ach ": 686,
      "int:\r\n": 687,
      "List\r\n": 688,
      "diff": 689,
      "For ": 690,
      ") -> int:\r\n": 691,
      "ind": 692,
      "only ": 693,
      "from typing import List\r\n": 694,
      "' ": 695,
      "It ": 696,
      "ph": 697,
      "que": 698,
      "quer": 699,
      "no ": 700,
      "use": 701,
      ": int": 702,
      "ffi": 703,
      "can": 704,
      "consi": 705,
      "[i]": 706,
      "position": 707,
      "oo": 708,
      "s that ": 709,
      "grid": 710,
      "is a ": 711,
      "ther ": 712,
      "from the ": 713,
      "ple": 714,
      "current_": 715,
      "there ": 716,
      "answ": 717,
      "has ": 718,
      "ate the ": 719,
      "eigh": 720,
      "have ": 721,
      "ev": 722,
      "tive ": 723,
      "pair": 724,
      "+ 1": 725,
      "element ": 726,
      "elements ": 727,
      "time ": 728,
      "0 <= ": 729,
      "pri": 730,
      "ast ": 731,
      "left ": 732,
      "nex": 733,
      "our": 734,
      "represent": 735,
      ". If ": 736,
      "indi": 737,
      "ame ": 738,
      "You are given ": 739,
      "s and ": 740,
      "Input: nums = [": 741,
      "character": 742,
      "Return the ": 743,
      "cel": 744,
      "s(": 745,
      "i, ": 746,
      "use ": 747,
      "ation ": 748,
      "list ": 749,
      "ach": 750,
      "4\r\n": 751,
      "than ": 752,
      "is": 753,
      "ed to ": 754,
      ", the ": 755,
      "1] ": 756,
      "iti": 757,
      "[i][": 758,
      "secon": 759,
      "sol": 760,
      "            \r\n": 761,
      "gre": 762,
      "such ": 763,
      "ction ": 764,
      "s are ": 765,
      "            return ": 766,
      "ollow": 767,
      "]]\r\n": 768,
      "bu": 769,
      "r\r\n": 770,
      "prefi": 771,
      "with the ": 772,
      "ep": 773,
      "sm": 774,
      "i in range(": 775,
      "du": 776,
      "3\r\n": 777,
      "\\r\r\n": 778,
      "differ": 779,
      "3, ": 780,
      "list": 781,
      "A ": 782,
      "k = ": 783,
      "om": 784,
      "                if ": 785,
      "then ": 786,
      "total ": 787,
      "graph": 788,
      "ase ": 789,
      ".length <= 10": 790,
      "calcul": 791,
      "alse": 792,
      "valid ": 793,
      "right ": 794,
      "j ": 795,
      "e.\r\n": 796,
      "s in ": 797,
      "chec": 798,
      "3:\r\n": 799,
      "ep ": 800,
      ").\r\n": 801,
      "append": 802,
      "ffici": 803,
      "distan": 804,
      "follow": 805,
      "appro": 806,
      "s[i] ": 807,
      "sc": 808,
      "4 ": 809,
      "alle": 810,
      "n - ": 811,
      "+= 1\r\n": 812,
      "while ": 813,
      "rou": 814,
      "equal ": 815,
      "Output: [": 816,
      "binary ": 817,
      "same ": 818,
      "effici": 819,
      "            for ": 820,
      "s: ": 821,
      "Example 3:\r\n": 822,
      " in ": 823,
      "j] ": 824,
      "ob": 825,
      ", it ": 826,
      "There ": 827,
      "fun": 828,
      "cost ": 829,
      ".append": 830,
      "result ": 831,
      "1,2,": 832,
      ".append(": 833,
      ".length": 834,
      "fter ": 835,
      "siz": 836,
      "ity ": 837,
      "number": 838,
      "trac": 839,
      "are": 840,
      "an integer ": 841,
      "plac": 842,
      "twe": 843,
      "tree ": 844,
      "fre": 845,
      "betwe": 846,
      "ks ": 847,
      "conta": 848,
      "new": 849,
      "Ch": 850,
      "character ": 851,
      "e, ": 852,
      "ded ": 853,
      "6,": 854,
      "prob": 855,
      "5 ": 856,
      "act": 857,
      "ence ": 858,
      "s. ": 859,
      "iter": 860,
      "s a ": 861,
      "ke ": 862,
      "ang": 863,
      "]:\r\n": 864,
      "order": 865,
      "Explanation: The ": 866,
      "t the ": 867,
      "target": 868,
      "sequence ": 869,
      "))\r\n": 870,
      "stac": 871,
      "nums[i] ": 872,
      "numbers ": 873,
      "\"ab": 874,
      "and": 875,
      "root": 876,
      "set": 877,
      "min_": 878,
      "self.": 879,
      "et": 880,
      "ase": 881,
      "non": 882,
      "uni": 883,
      "matri": 884,
      "2 = ": 885,
      "letter": 886,
      "op": 887,
      "end ": 888,
      "ear": 889,
      "ori": 890,
      "en the ": 891,
      "heigh": 892,
      "smalle": 893,
      "/ ": 894,
      "max(": 895,
      "way": 896,
      "divi": 897,
      "function ": 898,
      "rema": 899,
      "11": 900,
      "Given ": 901,
      "7,": 902,
      "zer": 903,
      "itial": 904,
      "ere": 905,
      "digit": 906,
      "set ": 907,
      "if the ": 908,
      "])\r\n": 909,
      "1,1,": 910,
      "No": 911,
      "ay ": 912,
      "ed by ": 913,
      "oc": 914,
      "        for i in range(": 915,
      "dire": 916,
      "\"a": 917,
      "total": 918,
      "values ": 919,
      "answer ": 920,
      "comp": 921,
      "heap": 922,
      "emp": 923,
      "ard": 924,
      "find the ": 925,
      "return the ": 926,
      "tru": 927,
      "1 and ": 928,
      "roo": 929,
      "`.\r\n": 930,
      "return": 931,
      "red ": 932,
      "on the ": 933,
      "cor": 934,
      "pu": 935,
      "smallest ": 936,
      "do": 937,
      "Coun": 938,
      "ding ": 939,
      "ve": 940,
      "subarray ": 941,
      "move ": 942,
      "form": 943,
      "..": 944,
      "ate": 945,
      "efficient": 946,
      "1]\r\n": 947,
      "large": 948,
      "   - ": 949,
      "lon": 950,
      "non-": 951,
      "ld ": 952,
      "and the ": 953,
      "1.\r\n": 954,
      "\", \"": 955,
      "nums ": 956,
      "ould ": 957,
      "queri": 958,
      "es the ": 959,
      "subarray": 960,
      "approach ": 961,
      "case ": 962,
      "_sum": 963,
      "od": 964,
      "ther": 965,
      "path ": 966,
      "% ": 967,
      "lin": 968,
      "rough": 969,
      "  # ": 970,
      "!= ": 971,
      "()\r\n": 972,
      "through": 973,
      "        if ": 974,
      "sum of ": 975,
      "vel": 976,
      "ater ": 977,
      "der": 978,
      "word ": 979,
      "\".\r\n": 980,
      "step": 981,
      "[0] ": 982,
      "ir ": 983,
      "track ": 984,
      "sit": 985,
      "nodes ": 986,
      "        def ": 987,
      "our ": 988,
      "x, ": 989,
      "second ": 990,
      "contain": 991,
      "into ": 992,
      ". It ": 993,
      "integers ": 994,
      "for the ": 995,
      "else": 996,
      "St": 997,
      "alse\r\n": 998,
      "tri": 999,
      "need to ": 1000,
      "indices ": 1001,
      "between ": 1002,
      "0:\r\n": 1003,
      "other ": 1004,
      "Calcul": 1005,
      "ty ": 1006,
      "last ": 1007,
      "cu": 1008,
      ".length\r\n": 1009,
      "Fin": 1010,
      "that the ": 1011,
      "most ": 1012,
      "starting ": 1013,
      "spec": 1014,
      "order ": 1015,
      "00\r\n": 1016,
      "1],[": 1017,
      "else:\r\n": 1018,
      "y.\r\n": 1019,
      "tion ": 1020,
      "st_": 1021,
      "pe": 1022,
      "les": 1023,
      "n\r\n": 1024,
      "lower": 1025,
      "consist": 1026,
      "ow ": 1027,
      "Input: s = ": 1028,
      "all the ": 1029,
      "size ": 1030,
      "incre": 1031,
      "tic": 1032,
      "0.\r\n": 1033,
      "an array ": 1034,
      "ag": 1035,
      "one": 1036,
      "Tru": 1037,
      "y, ": 1038,
      "edge": 1039,
      "able ": 1040,
      "                # ": 1041,
      "itializ": 1042,
      "ser": 1043,
      "9\r\n": 1044,
      "of a ": 1045,
      "cell": 1046,
      "score ": 1047,
      "sh ": 1048,
      "queu": 1049,
      "cost": 1050,
      "df": 1051,
      "inter": 1052,
      "both ": 1053,
      "after ": 1054,
      "Not": 1055,
      "substring": 1056,
      "roup": 1057,
      "find": 1058,
      "Node": 1059,
      "range ": 1060,
      "En": 1061,
      "pi": 1062,
      "prefix": 1063,
      "4, ": 1064,
      "est ": 1065,
      "start ": 1066,
      "For each ": 1067,
      "1) ": 1068,
      "ment": 1069,
      "requ": 1070,
      "at the ": 1071,
      "ated ": 1072,
      "2.\r\n": 1073,
      "remov": 1074,
      "D ": 1075,
      "s(self, ": 1076,
      ".length == ": 1077,
      "their ": 1078,
      "form ": 1079,
      "Input: n = ": 1080,
      "zero": 1081,
      "becom": 1082,
      "mul": 1083,
      "_count": 1084,
      "grid ": 1085,
      "sa": 1086,
      "for each ": 1087,
      "('": 1088,
      "ust ": 1089,
      "sorted ": 1090,
      "1 = ": 1091,
      "2] ": 1092,
      "[0,": 1093,
      "                return ": 1094,
      ".length <= ": 1095,
      "ic ": 1096,
      "efficiently ": 1097,
      "OR": 1098,
      "equal to ": 1099,
      "av": 1100,
      "group": 1101,
      "is not ": 1102,
      "6\r\n": 1103,
      "requi": 1104,
      "longe": 1105,
      "loc": 1106,
      "This solution use": 1107,
      "visit": 1108,
      "1], ": 1109,
      "very ": 1110,
      "position ": 1111,
      "es.\r\n": 1112,
      "min(": 1113,
      "next": 1114,
      "eca": 1115,
      "2],[": 1116,
      "distin": 1117,
      "n = len(": 1118,
      "next ": 1119,
      ". This ": 1120,
      "colum": 1121,
      "**: We ": 1122,
      "remain": 1123,
      "bit": 1124,
      "8,": 1125,
      "substring ": 1126,
      "day": 1127,
      "following ": 1128,
      "5, ": 1129,
      "sear": 1130,
      "` and ": 1131,
      "-index": 1132,
      "`k": 1133,
      "[2,": 1134,
      "adj": 1135,
      "colle": 1136,
      "empty ": 1137,
      " and ": 1138,
      "ild": 1139,
      "exam": 1140,
      "cell ": 1141,
      "O(": 1142,
      "there are ": 1143,
      "te": 1144,
      "ener": 1145,
      "greater ": 1146,
      "distance ": 1147,
      "n):\r\n": 1148,
      "You are given a ": 1149,
      "path": 1150,
      "more ": 1151,
      "beca": 1152,
      "` to ": 1153,
      "thre": 1154,
      "of each ": 1155,
      "(0, ": 1156,
      "total_": 1157,
      "def": 1158,
      "proces": 1159,
      "To ": 1160,
      "digit ": 1161,
      "There are ": 1162,
      "int ": 1163,
      "List[List[int]": 1164,
      "root ": 1165,
      "squ": 1166,
      "alind": 1167,
      "conne": 1168,
      "alindro": 1169,
      "clu": 1170,
      "track of the ": 1171,
      "Ali": 1172,
      "`nums": 1173,
      "mid": 1174,
      "ence": 1175,
      "using ": 1176,
      "OR ": 1177,
      "foun": 1178,
      "example": 1179,
      "ei": 1180,
      "1 + ": 1181,
      "neigh": 1182,
      "ates the ": 1183,
      "neighb": 1184,
      "produ": 1185,
      "least ": 1186,
      "termin": 1187,
      "dfs(": 1188,
      "gli": 1189,
      "in a ": 1190,
      "Engli": 1191,
      "Chec": 1192,
      "English ": 1193,
      ": List[int]": 1194,
      "problem": 1195,
      "make ": 1196,
      "largest ": 1197,
      "wind": 1198,
      ": int, ": 1199,
      "corre": 1200,
      "node.": 1201,
      "nam": 1202,
      "frequen": 1203,
      ": int) -> int:\r\n": 1204,
      "target ": 1205,
      "flo": 1206,
      "upd": 1207,
      "d.\r\n": 1208,
      "Output: 2\r\n": 1209,
      "cted ": 1210,
      "with a ": 1211,
      "own ": 1212,
      "bac": 1213,
      "ver ": 1214,
      "n == ": 1215,
      "dition": 1216,
      "cy ": 1217,
      "minimum number of ": 1218,
      "es = [": 1219,
      "sure": 1220,
      "count = ": 1221,
      "add": 1222,
      "ince ": 1223,
      " = [": 1224,
      "lowercase ": 1225,
      "ve the ": 1226,
      "gin": 1227,
      "up ": 1228,
      "they ": 1229,
      "prefix ": 1230,
      "difference ": 1231,
      "// ": 1232,
      "ous ": 1233,
      "s in the ": 1234,
      "ensure": 1235,
      "ese ": 1236,
      "ending ": 1237,
      "you can ": 1238,
      "palindro": 1239,
      "3.\r\n": 1240,
      "g ": 1241,
      "becomes ": 1242,
      "3,4,": 1243,
      "que ": 1244,
      "nee": 1245,
      "keep ": 1246,
      "0-index": 1247,
      ">= ": 1248,
      "s)\r\n": 1249,
      "                        ": 1250,
      "longest ": 1251,
      "tas": 1252,
      "FS": 1253,
      ", return ": 1254,
      "also ": 1255,
      "stru": 1256,
      "king ": 1257,
      "List[int], ": 1258,
      "such that ": 1259,
      "10,": 1260,
      "Initializ": 1261,
      "we can ": 1262,
      "', ": 1263,
      "e that ": 1264,
      "ensures that ": 1265,
      "ga": 1266,
      "high": 1267,
      "rever": 1268,
      "Here": 1269,
      "length of the ": 1270,
      "height": 1271,
      "* (": 1272,
      "subsequence ": 1273,
      "exact": 1274,
      "ctions ": 1275,
      "search ": 1276,
      "<= 105\r\n": 1277,
      "mas": 1278,
      "sig": 1279,
      "1]": 1280,
      "2]\r\n": 1281,
      "play": 1282,
      "ull": 1283,
      "int(": 1284,
      "exactly ": 1285,
      "answer": 1286,
      "ating ": 1287,
      "Calculate the ": 1288,
      "Alice ": 1289,
      "English letter": 1290,
      ".length <= 105\r\n": 1291,
      "multi": 1292,
      "3,4": 1293,
      "less ": 1294,
      "3],[": 1295,
      "core": 1296,
      "cannot ": 1297,
      "sing": 1298,
      "constraint": 1299,
      "-1\r\n": 1300,
      "2], ": 1301,
      "9,": 1302,
      "must ": 1303,
      "sur": 1304,
      "these ": 1305,
      "comput": 1306,
      "spac": 1307,
      "determin": 1308,
      "wise": 1309,
      "new ": 1310,
      "ally ": 1311,
      "Output: 3\r\n": 1312,
      "queries": 1313,
      "ith ": 1314,
      "ed.\r\n": 1315,
      "which is ": 1316,
      "speci": 1317,
      "bi": 1318,
      "d_": 1319,
      "dp[": 1320,
      "[1, ": 1321,
      "at least ": 1322,
      "all possible ": 1323,
      "k\r\n": 1324,
      "Check ": 1325,
      "sum of the ": 1326,
      "\"abc": 1327,
      "0],[": 1328,
      "adjac": 1329,
      "[i][j] ": 1330,
      "dict": 1331,
      "comple": 1332,
      "Return ": 1333,
      "        n = len(": 1334,
      "positive ": 1335,
      "ked ": 1336,
      "spl": 1337,
      "origin": 1338,
      "        while ": 1339,
      ") and ": 1340,
      "If the ": 1341,
      "put ": 1342,
      " is ": 1343,
      "lement": 1344,
      "out ": 1345,
      "through the ": 1346,
      "n, ": 1347,
      "reach": 1348,
      "s[i]": 1349,
      "because ": 1350,
      "In ": 1351,
      "bot": 1352,
      "if": 1353,
      "occurr": 1354,
      "False\r\n": 1355,
      "2 + ": 1356,
      "stor": 1357,
      "gu": 1358,
      ", we can ": 1359,
      "characters ": 1360,
      "0] ": 1361,
      "complex": 1362,
      "Input: s = \"": 1363,
      "ment ": 1364,
      "-= ": 1365,
      "1. **": 1366,
      "2. **": 1367,
      "3]\r\n": 1368,
      "atter": 1369,
      "operations ": 1370,
      ") = ": 1371,
      "pers": 1372,
      "may ": 1373,
      "sion": 1374,
      "should ": 1375,
      "tak": 1376,
      "la": 1377,
      "ove ": 1378,
      "choo": 1379,
      "pop": 1380,
      " in range(": 1381,
      ". We ": 1382,
      "[i - ": 1383,
      "iven the ": 1384,
      "null": 1385,
      "Output: 1\r\n": 1386,
      "edg": 1387,
      "either ": 1388,
      "Each ": 1389,
      "s` ": 1390,
      "Su": 1391,
      "pr": 1392,
      "integer": 1393,
      "match": 1394,
      "to find the ": 1395,
      "diction": 1396,
      "0 and ": 1397,
      "bre": 1398,
      "matrix ": 1399,
      "i = ": 1400,
      "[i][j": 1401,
      "aa": 1402,
      "s. The ": 1403,
      "gram": 1404,
      "s of the ": 1405,
      "inclu": 1406,
      "asing ": 1407,
      "ed_": 1408,
      "For example": 1409,
      "iterates ": 1410,
      "##": 1411,
      "exist": 1412,
      "appear": 1413,
      "hou": 1414,
      "ree": 1415,
      ") - ": 1416,
      "3], ": 1417,
      "goo": 1418,
      "ari": 1419,
      "1 <= nums": 1420,
      "distinct ": 1421,
      "aul": 1422,
      "         ": 1423,
      "inf": 1424,
      ", so ": 1425,
      "ctly ": 1426,
      "there is ": 1427,
      "### ": 1428,
      "pow": 1429,
      "neighbor": 1430,
      "))": 1431,
      "l the ": 1432,
      ": List[int], ": 1433,
      "7\r\n": 1434,
      "s_": 1435,
      "defaul": 1436,
      "Di": 1437,
      "null,": 1438,
      "            else:\r\n": 1439,
      "und": 1440,
      "interval": 1441,
      "remaining ": 1442,
      "3. **": 1443,
      "every ": 1444,
      "perm": 1445,
      "), (": 1446,
      "default": 1447,
      "digits ": 1448,
      "color": 1449,
      "candi": 1450,
      "consider": 1451,
      "lowercase English letter": 1452,
      "6 ": 1453,
      "cy": 1454,
      "chan": 1455,
      "[1,2,": 1456,
      "'s the ": 1457,
      "score": 1458,
      "prev": 1459,
      "#         ": 1460,
      "sing ": 1461,
      "calculates the ": 1462,
      "stack": 1463,
      "0-indexed ": 1464,
      "of length ": 1465,
      "required ": 1466,
      "#         self.": 1467,
      "solve ": 1468,
      "pp": 1469,
      "\"]\r\n": 1470,
      "me ": 1471,
      ".\",\"": 1472,
      "Bob": 1473,
      "unique ": 1474,
      "three ": 1475,
      "hel": 1476,
      "at most ": 1477,
      "(self, nums": 1478,
      "True\r\n": 1479,
      "i < ": 1480,
      "therwise": 1481,
      "defaultdict": 1482,
      "\\(": 1483,
      "matrix": 1484,
      "​​": 1485,
      "new_": 1486,
      "Output: 0\r\n": 1487,
      "comm": 1488,
      "over": 1489,
      "= 0\r\n": 1490,
      "it is ": 1491,
      "enti": 1492,
      "tis": 1493,
      "secu": 1494,
      "vers": 1495,
      "XOR ": 1496,
      "ome ": 1497,
      "`n": 1498,
      "values": 1499,
      "an integer array ": 1500,
      "__": 1501,
      "base": 1502,
      "s is ": 1503,
      "Here's the ": 1504,
      "ard ": 1505,
      "j in range(": 1506,
      "3] ": 1507,
      "e.": 1508,
      "point ": 1509,
      "check ": 1510,
      "cat": 1511,
      "* 10": 1512,
      "satis": 1513,
      "row ": 1514,
      "consecu": 1515,
      "12": 1516,
      "ity": 1517,
      "3,2,": 1518,
      "9 + ": 1519,
      "ce the ": 1520,
      "mar": 1521,
      "0,0,0,0,": 1522,
      "use a ": 1523,
      "-1, ": 1524,
      "ant ": 1525,
      "per ": 1526,
      "<= 109\r\n": 1527,
      "replac": 1528,
      "ally": 1529,
      "key": 1530,
      "does ": 1531,
      "less than ": 1532,
      "ensur": 1533,
      "allow": 1534,
      "child": 1535,
      "minim": 1536,
      "will be ": 1537,
      "fli": 1538,
      "nums2": 1539,
      "array.\r\n": 1540,
      "i + ": 1541,
      "list of ": 1542,
      "Sub": 1543,
      "s (": 1544,
      "] == ": 1545,
      "checks ": 1546,
      "dep": 1547,
      "Output: \"": 1548,
      "`dp": 1549,
      "        max_": 1550,
      "num ": 1551,
      "code": 1552,
      ": List[int]) -> int:\r\n": 1553,
      "mod": 1554,
      "even ": 1555,
      "coin": 1556,
      "in the range ": 1557,
      "defin": 1558,
      "1 <= n ": 1559,
      "Tim": 1560,
      "patter": 1561,
      "s.": 1562,
      ", and the ": 1563,
      "### Explanation:\r\n": 1564,
      "dy": 1565,
      "condition": 1566,
      "as the ": 1567,
      "even": 1568,
      "consists of ": 1569,
      "possible to ": 1570,
      "step ": 1571,
      "frequency ": 1572,
      "store the ": 1573,
      "solve this ": 1574,
      "ud": 1575,
      "ston": 1576,
      "able": 1577,
      ". S": 1578,
      "from colle": 1579,
      "2 <= ": 1580,
      "ext": 1581,
      "mean": 1582,
      "ctions import ": 1583,
      "from collections import ": 1584,
      ")]\r\n": 1585,
      "does not ": 1586,
      "right = ": 1587,
      "pair ": 1588,
      "cd": 1589,
      "nega": 1590,
      "greater than ": 1591,
      "time": 1592,
      "\"b": 1593,
      "ute ": 1594,
      "subsequen": 1595,
      "needed ": 1596,
      "shown ": 1597,
      "ni": 1598,
      "[i], ": 1599,
      "second": 1600,
      "`, ": 1601,
      ": str": 1602,
      ") + ": 1603,
      "]], ": 1604,
      "m, ": 1605,
      "left_": 1606,
      "float": 1607,
      "them ": 1608,
      "integer array ": 1609,
      ". \r\n": 1610,
      "1 to ": 1611,
      "` is ": 1612,
      "clo": 1613,
      "some ": 1614,
      "weigh": 1615,
      "        # Initializ": 1616,
      "times ": 1617,
      "sion ": 1618,
      "gener": 1619,
      "decre": 1620,
      "cont": 1621,
      "work": 1622,
      "bal": 1623,
      "time complex": 1624,
      "After ": 1625,
      "do ": 1626,
      "maximum number of ": 1627,
      "`i": 1628,
      "represents the ": 1629,
      "keep track of the ": 1630,
      "stri": 1631,
      "valid": 1632,
      "moves ": 1633,
      "Counter": 1634,
      "2D ": 1635,
      "true\r\n": 1636,
      "operation ": 1637,
      "(i": 1638,
      "ming ": 1639,
      "parti": 1640,
      "De": 1641,
      "Output: true\r\n": 1642,
      "Tree": 1643,
      "lem ": 1644,
      "[1": 1645,
      "hand": 1646,
      "different ": 1647,
      "direction": 1648,
      "is_": 1649,
      "To solve this ": 1650,
      "', '": 1651,
      "4.\r\n": 1652,
      "complet": 1653,
      "List[List[int]]": 1654,
      "namic ": 1655,
      "lar": 1656,
      "combin": 1657,
      "implement": 1658,
      "height ": 1659,
      "- **": 1660,
      "edge ": 1661,
      "board": 1662,
      "contains ": 1663,
      "calculate the ": 1664,
      "over ": 1665,
      "input ": 1666,
      "[i + ": 1667,
      "+ 1):\r\n": 1668,
      "Note that ": 1669,
      "problem ": 1670,
      "Al": 1671,
      "age": 1672,
      "den": 1673,
      "consecutive ": 1674,
      "0]\r\n": 1675,
      "k.\r\n": 1676,
      "repe": 1677,
      "rans": 1678,
      "conver": 1679,
      "product ": 1680,
      "0 to ": 1681,
      "unique": 1682,
      "-10": 1683,
      "item": 1684,
      "previ": 1685,
      "parent": 1686,
      "ways to ": 1687,
      "For example, ": 1688,
      "inu": 1689,
      "ences ": 1690,
      "is to ": 1691,
      "equal": 1692,
      "read": 1693,
      "ore": 1694,
      "short": 1695,
      "fact": 1696,
      "wise ": 1697,
      "ts ": 1698,
      ") for ": 1699,
      "optim": 1700,
      "brea": 1701,
      "coord": 1702,
      "maxim": 1703,
      "This solution uses a ": 1704,
      "window ": 1705,
      "person ": 1706,
      "rect": 1707,
      "ses ": 1708,
      "count_": 1709,
      "e if ": 1710,
      "nums1": 1711,
      "used ": 1712,
      "back": 1713,
      ")):\r\n": 1714,
      "xi": 1715,
      "case": 1716,
      "ar ": 1717,
      "We can ": 1718,
      "strings ": 1719,
      "Output: 4\r\n": 1720,
      "ulo ": 1721,
      "-b": 1722,
      "Ad": 1723,
      "sum(": 1724,
      "swap": 1725,
      "Output: 1": 1726,
      "It can be ": 1727,
      "Iter": 1728,
      "permut": 1729,
      "rectang": 1730,
      "go": 1731,
      "cursi": 1732,
      "key ": 1733,
      "way ": 1734,
      "above ": 1735,
      "'.\r\n": 1736,
      "has a ": 1737,
      "stud": 1738,
      "for a ": 1739,
      "[j": 1740,
      "a, ": 1741,
      ". Th": 1742,
      "left = ": 1743,
      "ate(": 1744,
      "y the ": 1745,
      "On": 1746,
      "[\"": 1747,
      "day ": 1748,
      "returns ": 1749,
      "bea": 1750,
      "lim": 1751,
      "bool": 1752,
      "                    if ": 1753,
      "left, ": 1754,
      "program": 1755,
      "fter": 1756,
      "chang": 1757,
      "i, j": 1758,
      "None": 1759,
      "Sum": 1760,
      "than": 1761,
      "es\r\n": 1762,
      ", return the ": 1763,
      "sed ": 1764,
      "Op": 1765,
      "nums)\r\n": 1766,
      "== 0:\r\n": 1767,
      ": int) -> ": 1768,
      "box": 1769,
      "sible ": 1770,
      "without ": 1771,
      "original ": 1772,
      "balan": 1773,
      "_ in range(": 1774,
      "a string ": 1775,
      "s: str": 1776,
      "adjacent ": 1777,
      "-= 1\r\n": 1778,
      "b ": 1779,
      "since ": 1780,
      "degre": 1781,
      "good ": 1782,
      "amoun": 1783,
      "words": 1784,
      "ways ": 1785,
      "namic program": 1786,
      "y-": 1787,
      "- 1": 1788,
      "final ": 1789,
      "odd ": 1790,
      "5]\r\n": 1791,
      "`k` ": 1792,
      "cle": 1793,
      "sent": 1794,
      "val ": 1795,
      "roup ": 1796,
      "expres": 1797,
      "right_": 1798,
      "single ": 1799,
      "run": 1800,
      "x = ": 1801,
      ", we need to ": 1802,
      "keep": 1803,
      "botto": 1804,
      "Iterate ": 1805,
      "5.\r\n": 1806,
      "cap": 1807,
      "dynamic program": 1808,
      "coordin": 1809,
      "t of ": 1810,
      "unti": 1811,
      "letter ": 1812,
      "jum": 1813,
      "remove ": 1814,
      "points ": 1815,
      "achi": 1816,
      "visited": 1817,
      "modulo ": 1818,
      ") % ": 1819,
      "using the ": 1820,
      "compon": 1821,
      "DFS": 1822,
      "bb": 1823,
      "order.\r\n": 1824,
      "multiple ": 1825,
      "dictionary ": 1826,
      "acc": 1827,
      "        # S": 1828,
      "than the ": 1829,
      "You can ": 1830,
      "ate a ": 1831,
      "'a": 1832,
      "MO": 1833,
      "trans": 1834,
      "get ": 1835,
      "first": 1836,
      "result\r\n": 1837,
      "works ": 1838,
      "total number of ": 1839,
      "lowercase English letters.\r\n": 1840,
      "To solve this problem": 1841,
      "bool:\r\n": 1842,
      "mak": 1843,
      "2,2,": 1844,
      "continu": 1845,
      "distance": 1846,
      "` and `": 1847,
      "9 ": 1848,
      "tivel": 1849,
      "desc": 1850,
      "ing a ": 1851,
      "[i] = ": 1852,
      "ild ": 1853,
      "0000": 1854,
      "resulting ": 1855,
      "max(max_": 1856,
      "mid ": 1857,
      "1,0,": 1858,
      "inf'": 1859,
      "float('": 1860,
      "previous ": 1861,
      "gori": 1862,
      "approach": 1863,
      "seg": 1864,
      "through ": 1865,
      "Pa": 1866,
      "add ": 1867,
      "find ": 1868,
      "heapq": 1869,
      "<= 100\r\n": 1870,
      "value of ": 1871,
      "Find the ": 1872,
      "TreeNode": 1873,
      "jo": 1874,
      "k the ": 1875,
      "else ": 1876,
      "column ": 1877,
      "based ": 1878,
      "would ": 1879,
      "            while ": 1880,
      "spon": 1881,
      "gorith": 1882,
      "- The ": 1883,
      "elif ": 1884,
      "fini": 1885,
      "but ": 1886,
      "edges ": 1887,
      "6, ": 1888,
      " = 0\r\n": 1889,
      "            for j in range(": 1890,
      "common ": 1891,
      "fu": 1892,
      "travers": 1893,
      "indices": 1894,
      "2 and ": 1895,
      "count the ": 1896,
      "\"],[": 1897,
      "i\r\n": 1898,
      "eng": 1899,
      "List[str": 1900,
      "-1.\r\n": 1901,
      "have the ": 1902,
      "to_": 1903,
      "List[int]:\r\n": 1904,
      "query": 1905,
      "shortest ": 1906,
      "4. **": 1907,
      "les ": 1908,
      "There is ": 1909,
      "MOD": 1910,
      "group ": 1911,
      "out": 1912,
      "8\r\n": 1913,
      "Po": 1914,
      "c ": 1915,
      "Output: f": 1916,
      "Bob ": 1917,
      "top": 1918,
      "use the ": 1919,
      "prefix_sum": 1920,
      "square": 1921,
      "hal": 1922,
      "1. ": 1923,
      "umer": 1924,
      "Output: false\r\n": 1925,
      "Val": 1926,
      "ary": 1927,
      "divis": 1928,
      "[3,": 1929,
      "negative ": 1930,
      "ince the ": 1931,
      "vow": 1932,
      "square ": 1933,
      "time complexity ": 1934,
      "perform": 1935,
      "binary search ": 1936,
      "queue": 1937,
      "pic": 1938,
      "wher": 1939,
      "Explanation: \r\n": 1940,
      "tree": 1941,
      "7.\r\n": 1942,
      "y = ": 1943,
      "2 * ": 1944,
      "O(n": 1945,
      "dynamic programming ": 1946,
      "age ": 1947,
      "your ": 1948,
      "1 - ": 1949,
      "        # C": 1950,
      "\" and ": 1951,
      "an array of ": 1952,
      "bl": 1953,
      "lexi": 1954,
      "inta": 1955,
      "ect": 1956,
      "Finally": 1957,
      "mon": 1958,
      "sele": 1959,
      "Co": 1960,
      "enumer": 1961,
      "small": 1962,
      "approach ensures that ": 1963,
      "-1,": 1964,
      "many ": 1965,
      "event": 1966,
      "correspon": 1967,
      "enumerate(": 1968,
      "get": 1969,
      "when ": 1970,
      "array is ": 1971,
      "choose ": 1972,
      "3 + ": 1973,
      "abs(": 1974,
      "+ 1)\r\n": 1975,
      "queue ": 1976,
      "delet": 1977,
      "befor": 1978,
      "us ": 1979,
      "count of ": 1980,
      "between the ": 1981,
      "'1": 1982,
      "sk": 1983,
      "s):\r\n": 1984,
      ", c": 1985,
      "1 = [": 1986,
      "1 <= nums[i] ": 1987,
      "s of length ": 1988,
      "ful": 1989,
      "alread": 1990,
      "algorith": 1991,
      "cograph": 1992,
      "100": 1993,
      "prime ": 1994,
      "7 ": 1995,
      "ort the ": 1996,
      "lexicograph": 1997,
      "All ": 1998,
      "Up": 1999,
      "reach ": 2000,
      "mainta": 2001,
      "log": 2002,
      "This solution works ": 2003,
      "obta": 2004,
      "grid = [": 2005,
      "count = 0\r\n": 2006,
      "ing_": 2007,
      "value": 2008,
      "shif": 2009,
      "sorted": 2010,
      "lock": 2011,
      "next_": 2012,
      "4],[": 2013,
      "query ": 2014,
      "ation of the ": 2015,
      "n and ": 2016,
      "ed as ": 2017,
      "constru": 2018,
      "minut": 2019,
      "[0][": 2020,
      "form the ": 2021,
      "last_": 2022,
      "denot": 2023,
      ".e.": 2024,
      "[0, ": 2025,
      "'0": 2026,
      ") to ": 2027,
      "True": 2028,
      "print(": 2029,
      "ly": 2030,
      "tional": 2031,
      "num in ": 2032,
      "side ": 2033,
      "The number of ": 2034,
      ".length <= 100\r\n": 2035,
      "This solution uses ": 2036,
      "up to ": 2037,
      "how ": 2038,
      "[i]\r\n": 2039,
      "<= 1000\r\n": 2040,
      "found ": 2041,
      "already ": 2042,
      "Upd": 2043,
      "plic": 2044,
      "ation of ": 2045,
      "stack ": 2046,
      "\"],[\"": 2047,
      "Non": 2048,
      "fru": 2049,
      "rot": 2050,
      "answer is ": 2051,
      "column": 2052,
      "childr": 2053,
      "lexicographic": 2054,
      "`s": 2055,
      "where the ": 2056,
      "ip": 2057,
      "op ": 2058,
      "ting ": 2059,
      "at index ": 2060,
      "val = ": 2061,
      "1 <= s": 2062,
      "fter the ": 2063,
      "(1, ": 2064,
      "sect": 2065,
      "code ": 2066,
      "Input: grid = [": 2067,
      "], k = ": 2068,
      "price ": 2069,
      "You are given a 0-indexed ": 2070,
      "add(": 2071,
      "sign": 2072,
      "8 ": 2073,
      "fore": 2074,
      "has": 2075,
      "s with ": 2076,
      "level": 2077,
      "10\r\n": 2078,
      "meet": 2079,
      "23": 2080,
      "99": 2081,
      "Wh": 2082,
      "times": 2083,
      ". If the ": 2084,
      "iterate ": 2085,
      "1)": 2086,
      "inn": 2087,
      "to store the ": 2088,
      "* n\r\n": 2089,
      "indic": 2090,
      "graph[": 2091,
      "root = [": 2092,
      "ide": 2093,
      "respec": 2094,
      "**: For each ": 2095,
      "city ": 2096,
      "= \"": 2097,
      "Input: root = [": 2098,
      "counter": 2099,
      "        # Calculate the ": 2100,
      "we return ": 2101,
      "vel ": 2102,
      "a, b": 2103,
      "Optional": 2104,
      "float('inf'": 2105,
      "now": 2106,
      "cost of ": 2107,
      "Given the ": 2108,
      "att": 2109,
      "# print(": 2110,
      "freq": 2111,
      "or equal to ": 2112,
      "1: ": 2113,
      "e a ": 2114,
      "**:\r\n": 2115,
      "palindrom": 2116,
      "task": 2117,
      "shown that ": 2118,
      "_index": 2119,
      "aver": 2120,
      "   ": 2121,
      "string.\r\n": 2122,
      "d\r\n": 2123,
      "                for ": 2124,
      "count\r\n": 2125,
      "Choo": 2126,
      "line ": 2127,
      "split ": 2128,
      ".\",\".\",\"": 2129,
      "reverse": 2130,
      "smaller ": 2131,
      "2: ": 2132,
      "thir": 2133,
      "bound": 2134,
      ". It then ": 2135,
      "increasing ": 2136,
      "] + ": 2137,
      "Input: nums = [1,2,": 2138,
      "close": 2139,
      "strictly ": 2140,
      "[j] ": 2141,
      "fri": 2142,
      "Explanation: There are ": 2143,
      "target = ": 2144,
      "graph ": 2145,
      "ger ": 2146,
      "4]\r\n": 2147,
      "be the ": 2148,
      "recursi": 2149,
      "or the ": 2150,
      "always ": 2151,
      "cho": 2152,
      "possible": 2153,
      "efficient ": 2154,
      "returns the ": 2155,
      "lead": 2156,
      "absol": 2157,
      "ce.\r\n": 2158,
      "component": 2159,
      "vowel": 2160,
      "False": 2161,
      "room": 2162,
      "window": 2163,
      "1][": 2164,
      "2) ": 2165,
      "initi": 2166,
      "leet": 2167,
      "dest": 2168,
      "k <= ": 2169,
      "medi": 2170,
      "absolute ": 2171,
      "5],[": 2172,
      "led ": 2173,
      "that can be ": 2174,
      "        # F": 2175,
      "form a ": 2176,
      "'\r\n": 2177,
      "7, ": 2178,
      "        dp": 2179,
      "ant": 2180,
      "dif": 2181,
      "if it ": 2182,
      "color ": 2183,
      "visited ": 2184,
      "2. ": 2185,
      "Pro": 2186,
      "ail": 2187,
      "gi": 2188,
      "lea": 2189,
      "divisible ": 2190,
      "connect": 2191,
      "Use ": 2192,
      "uti": 2193,
      "arrays ": 2194,
      "until ": 2195,
      "1]]\r\n": 2196,
      "cir": 2197,
      "sim": 2198,
      "s = 0\r\n": 2199,
      "follows:\r\n": 2200,
      "text": 2201,
      "0 or ": 2202,
      "len(nums": 2203,
      "ket": 2204,
      "top ": 2205,
      "remaind": 2206,
      "Star": 2207,
      "':\r\n": 2208,
      "k, ": 2209,
      "of": 2210,
      "suffi": 2211,
      "that is ": 2212,
      "= []\r\n": 2213,
      "        return result\r\n": 2214,
      "them": 2215,
      "binary tree ": 2216,
      "defaultdict(": 2217,
      "val\r\n": 2218,
      "from 0 to ": 2219,
      "exce": 2220,
      "[0]": 2221,
      "area ": 2222,
      "power ": 2223,
      "))  # ": 2224,
      "caten": 2225,
      "approach:\r\n": 2226,
      "3 = ": 2227,
      "BFS": 2228,
      "et ": 2229,
      "cover": 2230,
      "        # Iterate ": 2231,
      "i and ": 2232,
      "i - ": 2233,
      "linked ": 2234,
      "factor": 2235,
      "of size ": 2236,
      "it's ": 2237,
      "zero ": 2238,
      "        for i in range(1, ": 2239,
      "-by-": 2240,
      "[-1": 2241,
      "pas": 2242,
      "}\r\n": 2243,
      "th-": 2244,
      "an empty ": 2245,
      "**: The ": 2246,
      "equal to the ": 2247,
      "push": 2248,
      "...": 2249,
      "step-by-": 2250,
      "peo": 2251,
      "change": 2252,
      "corresponding ": 2253,
      "0)\r\n": 2254,
      "Ar": 2255,
      "Num": 2256,
      "cn": 2257,
      "ating the ": 2258,
      "2,3,": 2259,
      "special ": 2260,
      "step-by-step ": 2261,
      "[x": 2262,
      "bit ": 2263,
      "d, ": 2264,
      "ry ": 2265,
      "10 ": 2266,
      "are the ": 2267,
      "sol.": 2268,
      "2]": 2269,
      "cour": 2270,
      "ame": 2271,
      "not in ": 2272,
      "right\r\n": 2273,
      "occur": 2274,
      "occurrences ": 2275,
      "divisible by ": 2276,
      "Of": 2277,
      "ing of ": 2278,
      "rang": 2279,
      "ally, ": 2280,
      "needed to ": 2281,
      "        # Initialize the ": 2282,
      "Per": 2283,
      "ba": 2284,
      "mer": 2285,
      "rib": 2286,
      "head ": 2287,
      "nodes in the ": 2288,
      "Optional[": 2289,
      "[4,": 2290,
      ". The `": 2291,
      "within the ": 2292,
      "part": 2293,
      "require": 2294,
      "third ": 2295,
      "fe": 2296,
      "given the ": 2297,
      "otherwise": 2298,
      "to a ": 2299,
      "1,3,": 2300,
      "from 1 to ": 2301,
      "place ": 2302,
      "_count[": 2303,
      "required to ": 2304,
      "ates": 2305,
      "node.\r\n": 2306,
      "sequence of ": 2307,
      "trip": 2308,
      "connected ": 2309,
      "ball": 2310,
      "nums.\r\n": 2311,
      "s, and ": 2312,
      "sum is ": 2313,
      "s[i] = [": 2314,
      "satisf": 2315,
      "sli": 2316,
      "tho": 2317,
      "tive": 2318,
      "appl": 2319,
      "<= 104\r\n": 2320,
      "board ": 2321,
      "is the number of ": 2322,
      "tree.\r\n": 2323,
      "buil": 2324,
      "avo": 2325,
      "pattern": 2326,
      "subsequences ": 2327,
      "-1 ": 2328,
      "s) ": 2329,
      "ct the ": 2330,
      "heap ": 2331,
      "set of ": 2332,
      "\"], ": 2333,
      "Operation": 2334,
      "inser": 2335,
      "have a ": 2336,
      "partition": 2337,
      "List[List[int]]) -> int:\r\n": 2338,
      "\"0": 2339,
      "& ": 2340,
      "50\r\n": 2341,
      "Ma": 2342,
      "memo": 2343,
      "student": 2344,
      "# print(sol.": 2345,
      "leading ": 2346,
      "'.": 2347,
      "(`": 2348,
      "mask ": 2349,
      "* 104\r\n": 2350,
      "means ": 2351,
      "beauti": 2352,
      "k: int) -> int:\r\n": 2353,
      "se the ": 2354,
      ", which ": 2355,
      "left\r\n": 2356,
      "(i.e.": 2357,
      "(x": 2358,
      "ong ": 2359,
      "subtree ": 2360,
      "approach to ": 2361,
      "task ": 2362,
      "All the ": 2363,
      "way to ": 2364,
      "Otherwise": 2365,
      "            max_": 2366,
      "s, the ": 2367,
      ") -> bool:\r\n": 2368,
      "take ": 2369,
      "cc": 2370,
      "     ": 2371,
      "fit ": 2372,
      "        for i in range(n):\r\n": 2373,
      "player ": 2374,
      "P ": 2375,
      "ok": 2376,
      "map": 2377,
      ") -> List[int]:\r\n": 2378,
      "' and ": 2379,
      "left and ": 2380,
      ".length <= 1000\r\n": 2381,
      "more than ": 2382,
      "make the ": 2383,
      "heapq.": 2384,
      "[1] ": 2385,
      ", you ": 2386,
      "bitwise ": 2387,
      "determine the ": 2388,
      "            current_": 2389,
      "                \r\n": 2390,
      "This approach ensures that ": 2391,
      "starting from ": 2392,
      "it.\r\n": 2393,
      "result.append(": 2394,
      "            for i in range(": 2395,
      "space ": 2396,
      "overl": 2397,
      "initial ": 2398,
      "].append(": 2399,
      "length of ": 2400,
      "contain ": 2401,
      "e that the ": 2402,
      "+ 1\r\n": 2403,
      "array\r\n": 2404,
      ".length == 2\r\n": 2405,
      "constraints.\r\n": 2406,
      "ful ": 2407,
      "        # Cre": 2408,
      "before ": 2409,
      "'t ": 2410,
      "1].\r\n": 2411,
      "2n": 2412,
      "man": 2413,
      "Output: 5\r\n": 2414,
      "ed by the ": 2415,
      "to keep track of the ": 2416,
      "        # If ": 2417,
      "i <= ": 2418,
      "(self, s: str": 2419,
      "complete ": 2420,
      "Valu": 2421,
      "how many ": 2422,
      "lexicographically ": 2423,
      "in `": 2424,
      "To solve this problem, we need to ": 2425,
      "cach": 2426,
      "another ": 2427,
      ". For each ": 2428,
      "diag": 2429,
      "[0] = ": 2430,
      ", we return ": 2431,
      "corn": 2432,
      "subarrays ": 2433,
      "satisfi": 2434,
      "decreasing ": 2435,
      "] += 1\r\n": 2436,
      "list.\r\n": 2437,
      "minimum": 2438,
      "0.": 2439,
      "1)\r\n": 2440,
      "ure": 2441,
      "ater": 2442,
      "        return max_": 2443,
      "solve the ": 2444,
      "such that the ": 2445,
      "do not ": 2446,
      "hour": 2447,
      "ing.\r\n": 2448,
      "wid": 2449,
      "== '": 2450,
      "been ": 2451,
      "true if ": 2452,
      "avail": 2453,
      "found": 2454,
      "`dp` ": 2455,
      "It can be shown that ": 2456,
      "bottom": 2457,
      "heapq.heap": 2458,
      "6.\r\n": 2459,
      "An": 2460,
      "Pre": 2461,
      "s by ": 2462,
      "side": 2463,
      "es a ": 2464,
      "as follows:\r\n": 2465,
      "break\r\n": 2466,
      "redu": 2467,
      "0 + ": 2468,
      "                    # ": 2469,
      "                    return ": 2470,
      "string is ": 2471,
      "This solution efficiently ": 2472,
      "should be ": 2473,
      "per function ": 2474,
      "(i, j": 2475,
      "        result ": 2476,
      ". You ": 2477,
      "concaten": 2478,
      "In the ": 2479,
      "length = ": 2480,
      "prime": 2481,
      "Hence": 2482,
      "Se": 2483,
      "el ": 2484,
      "init": 2485,
      "Step ": 2486,
      "`n` ": 2487,
      "__init": 2488,
      "unique.\r\n": 2489,
      "__init__": 2490,
      "4 + ": 2491,
      "5], ": 2492,
      "cent": 2493,
      "sour": 2494,
      "child ": 2495,
      "str:\r\n": 2496,
      "    def min": 2497,
      "where each ": 2498,
      "grid[": 2499,
      "team": 2500,
      "midd": 2501,
      "bisect": 2502,
      "house": 2503,
      "optimal ": 2504,
      "lab": 2505,
      "You are also ": 2506,
      "achiev": 2507,
      "algorithm ": 2508,
      "s.append(": 2509,
      "s for ": 2510,
      "1 <": 2511,
      "elements in the ": 2512,
      "must be ": 2513,
      "ont": 2514,
      "sorted_": 2515,
      "grid[i][j] ": 2516,
      "iterates through the ": 2517,
      "returns `": 2518,
      "join": 2519,
      "4] ": 2520,
      "happ": 2521,
      "initializ": 2522,
      "num_": 2523,
      ") // ": 2524,
      "prefix_": 2525,
      "house ": 2526,
      "there is no ": 2527,
      "(n": 2528,
      ".val ": 2529,
      "ly.\r\n": 2530,
      "ties ": 2531,
      "Output: 6\r\n": 2532,
      "0,1,": 2533,
      "(self, n": 2534,
      "Com": 2535,
      "x n ": 2536,
      "Conver": 2537,
      "You are given an integer array ": 2538,
      "build": 2539,
      "distinct": 2540,
      "check if ": 2541,
      "2)": 2542,
      "2)\r\n": 2543,
      "mis": 2544,
      "other": 2545,
      "robo": 2546,
      "                else:\r\n": 2547,
      "expl": 2548,
      "    def max": 2549,
      "guar": 2550,
      "backtrac": 2551,
      "Arra": 2552,
      "Numb": 2553,
      ".add(": 2554,
      "j - ": 2555,
      "num = ": 2556,
      "count += 1\r\n": 2557,
      "non-empty ": 2558,
      "specifi": 2559,
      "([": 2560,
      "0], ": 2561,
      "Sort": 2562,
      "false": 2563,
      "sti": 2564,
      "old": 2565,
      "cess": 2566,
      "consist ": 2567,
      "compute the ": 2568,
      "split": 2569,
      "occurrence ": 2570,
      "from collections import defaultdict": 2571,
      "respectivel": 2572,
      ".next": 2573,
      ") == ": 2574,
      "subset": 2575,
      "we have ": 2576,
      "far": 2577,
      "oriz": 2578,
      "        # The ": 2579,
      "prices": 2580,
      "appears ": 2581,
      "jump": 2582,
      "have the same ": 2583,
      "\"1": 2584,
      "dur": 2585,
      "re ": 2586,
      "> 0:\r\n": 2587,
      "    def find": 2588,
      "within ": 2589,
      "2, 3, ": 2590,
      "pointer ": 2591,
      "reach the ": 2592,
      "__init__(self, ": 2593,
      "that": 2594,
      "ill": 2595,
      "Return the number of ": 2596,
      "Count the ": 2597,
      "there are no ": 2598,
      "change ": 2599,
      "keeps ": 2600,
      "1st ": 2601,
      "5 + ": 2602,
      "`x": 2603,
      "ward": 2604,
      "fil": 2605,
      "tern": 2606,
      "maximum possible ": 2607,
      "            # Check ": 2608,
      "at least one ": 2609,
      "limit": 2610,
      "You are also given ": 2611,
      "tigu": 2612,
      "Input: arr": 2613,
      "char in ": 2614,
      "ize the ": 2615,
      ".length, ": 2616,
      "cust": 2617,
      "Here's the implement": 2618,
      "At ": 2619,
      "\\) ": 2620,
      "= (": 2621,
      "1,4,": 2622,
      "[0])\r\n": 2623,
      "part ": 2624,
      "You are given two ": 2625,
      "x, y": 2626,
      "One ": 2627,
      "Update the ": 2628,
      "2nd ": 2629,
      "--": 2630,
      "1] = ": 2631,
      "n <= ": 2632,
      "contigu": 2633,
      "extra": 2634,
      "end of the ": 2635,
      "ensuring ": 2636,
      "flip": 2637,
      " = 1": 2638,
      "Output: -1\r\n": 2639,
      "odd": 2640,
      "diagon": 2641,
      ".\\r\r\n": 2642,
      "ros": 2643,
      "roun": 2644,
      "dec": 2645,
      "m == ": 2646,
      "-1):\r\n": 2647,
      "element in the ": 2648,
      "mask": 2649,
      "exactly one ": 2650,
      "This solution works by ": 2651,
      "0]]\r\n": 2652,
      "cle ": 2653,
      "dis": 2654,
      "sort()\r\n": 2655,
      "only one ": 2656,
      "duplic": 2657,
      "tical ": 2658,
      "MOD\r\n": 2659,
      "divisor": 2660,
      "car": 2661,
      "obstac": 2662,
      "        n = len(nums)\r\n": 2663,
      "n.\r\n": 2664,
      "        # Check ": 2665,
      "node, ": 2666,
      "Resul": 2667,
      "energ": 2668,
      "pair of ": 2669,
      "based on the ": 2670,
      "average ": 2671,
      "ante": 2672,
      "exp": 2673,
      "pairs ": 2674,
      "Given a ": 2675,
      "(0, 0": 2676,
      "destin": 2677,
      "`. The ": 2678,
      "e(": 2679,
      "giv": 2680,
      "| ": 2681,
      "initial": 2682,
      "result = ": 2683,
      "into a ": 2684,
      "stones ": 2685,
      "accord": 2686,
      "custom": 2687,
      "seen": 2688,
      "coul": 2689,
      "for _ in range(": 2690,
      "][c": 2691,
      "represent ": 2692,
      "edges": 2693,
      "server": 2694,
      "product": 2695,
      "guarante": 2696,
      "_to_": 2697,
      "gcd": 2698,
      "ance": 2699,
      "level ": 2700,
      "\" -> ": 2701,
      "sorted in ": 2702,
      "segment": 2703,
      "Choose ": 2704,
      "3].\r\n": 2705,
      "Uni": 2706,
      "es, ": 2707,
      "palindrome": 2708,
      "avoid ": 2709,
      "This approach ensures that we ": 2710,
      "1 << ": 2711,
      "contiguous ": 2712,
      "dat": 2713,
      "land": 2714,
      "sy": 2715,
      "abc": 2716,
      "added ": 2717,
      "type ": 2718,
      "worker": 2719,
      "permutation": 2720,
      "orizont": 2721,
      "2].\r\n": 2722,
      "3]": 2723,
      "AN": 2724,
      "[5,": 2725,
      "dow": 2726,
      "vari": 2727,
      "→ ": 2728,
      "Str": 2729,
      "cannot be ": 2730,
      "`i` ": 2731,
      "maximum": 2732,
      "could ": 2733,
      "=0, ": 2734,
      "Fir": 2735,
      "stat": 2736,
      ". Finally": 2737,
      "1 is ": 2738,
      "two": 2739,
      "lower ": 2740,
      "paren": 2741,
      "Return the minimum number of ": 2742,
      "process ": 2743,
      "25": 2744,
      "horizont": 2745,
      "ima": 2746,
      "lam": 2747,
      "ster": 2748,
      "is either ": 2749,
      "                current_": 2750,
      "` function ": 2751,
      "k = 2\r\n": 2752,
      "empty": 2753,
      "consisting of ": 2754,
      "edges = [": 2755,
      "cycle": 2756,
      "Array": 2757,
      "n:\r\n": 2758,
      "stic": 2759,
      "we": 2760,
      "not": 2761,
      "dp[i][j": 2762,
      "pile": 2763,
      "may be ": 2764,
      ".pop": 2765,
      "4], ": 2766,
      "he": 2767,
      "are not ": 2768,
      "as a ": 2769,
      "Explanation: We can ": 2770,
      "back ": 2771,
      "Time": 2772,
      "de the ": 2773,
      "moun": 2774,
      "positive integer ": 2775,
      "null,null,": 2776,
      "(self, nums: List[int]) -> int:\r\n": 2777,
      "        # Create a ": 2778,
      "robot ": 2779,
      "Sear": 2780,
      "of all ": 2781,
      "2 is ": 2782,
      "by the ": 2783,
      "-1]\r\n": 2784,
      "        if not ": 2785,
      "1],[1,": 2786,
      "idea ": 2787,
      "leetcode": 2788,
      "32": 2789,
      "3: ": 2790,
      "No ": 2791,
      "Qu": 2792,
      "Tra": 2793,
      "ad ": 2794,
      "table ": 2795,
      "in_": 2796,
      "2 - ": 2797,
      "s = [[1,": 2798,
      "[0]\r\n": 2799,
      "move the ": 2800,
      "elements in ": 2801,
      "j < ": 2802,
      "vely ": 2803,
      "This solution uses dynamic programming ": 2804,
      "beg": 2805,
      "four ": 2806,
      "so": 2807,
      "# De": 2808,
      "proper": 2809,
      "nums is ": 2810,
      "#     ": 2811,
      "5] ": 2812,
      "An ": 2813,
      "card": 2814,
      "# class ": 2815,
      "subtre": 2816,
      "\",\"b": 2817,
      "            if not ": 2818,
      "neede": 2819,
      "depth ": 2820,
      "generated ": 2821,
      "finition ": 2822,
      "# Definition ": 2823,
      "#     def ": 2824,
      "=None": 2825,
      "Bu": 2826,
      "DP ": 2827,
      "^ ": 2828,
      "fit": 2829,
      "        min_": 2830,
      "            elif ": 2831,
      "                max_": 2832,
      "nums:\r\n": 2833,
      "words ": 2834,
      "upper": 2835,
      "#         self.val = ": 2836,
      "frequency of each ": 2837,
      "weight": 2838,
      "children": 2839,
      "from collections import defaultdict\r\n": 2840,
      "#     def __init__(self, ": 2841,
      "'b": 2842,
      "). ": 2843,
      ")` ": 2844,
      "m = ": 2845,
      "- We ": 2846,
      "impossible to ": 2847,
      "nums[0] ": 2848,
      "starts ": 2849,
      "triang": 2850,
      "join(": 2851,
      "any number of ": 2852,
      "000": 2853,
      "track of ": 2854,
      "increment": 2855,
      "cells ": 2856,
      "in the range [1, ": 2857,
      "count the number of ": 2858,
      "diff ": 2859,
      "middle ": 2860,
      "=None):\r\n": 2861,
      "lay": 2862,
      "arrang": 2863,
      "es to ": 2864,
      "words = [": 2865,
      "    def count": 2866,
      "minimum cost ": 2867,
      "s that can be ": 2868,
      "large ": 2869,
      "1):\r\n": 2870,
      "Mo": 2871,
      "[:": 2872,
      "e. ": 2873,
      "5,6": 2874,
      "), len(": 2875,
      "room ": 2876,
      "non-decreasing ": 2877,
      "prev_": 2878,
      "through each ": 2879,
      "idea is to ": 2880,
      "fac": 2881,
      "red": 2882,
      "arri": 2883,
      "simul": 2884,
      ") is ": 2885,
      "ous": 2886,
      "val=0, ": 2887,
      "is the maximum ": 2888,
      "            # If ": 2889,
      "sequence": 2890,
      "set to ": 2891,
      "(self, nums: List[int], ": 2892,
      "keeps track of the ": 2893,
      "AND ": 2894,
      "#         self.val = val\r\n": 2895,
      "#     def __init__(self, val=0, ": 2896,
      "20": 2897,
      "Bo": 2898,
      "mi": 2899,
      "ying ": 2900,
      "ong": 2901,
      "d = ": 2902,
      "deque": 2903,
      "[i-1": 2904,
      "arr[i] ": 2905,
      "n - 1\r\n": 2906,
      "set(": 2907,
      "using a ": 2908,
      "sorted(": 2909,
      "(i.e., ": 2910,
      "\"c": 2911,
      "1:": 2912,
      "Tri": 2913,
      "Your ": 2914,
      "]` ": 2915,
      "game ": 2916,
      "ency ": 2917,
      "of the current ": 2918,
      "number is ": 2919,
      "show": 2920,
      "there is a ": 2921,
      "power": 2922,
      "closest ": 2923,
      "(2, ": 2924,
      "[2, ": 2925,
      "mes": 2926,
      "was ": 2927,
      "altern": 2928,
      "nums and ": 2929,
      "rule": 2930,
      "moving ": 2931,
      "only of ": 2932,
      "[i].length\r\n": 2933,
      "checking ": 2934,
      "binary represent": 2935,
      "s. It ": 2936,
      "        def dfs(": 2937,
      "Note": 2938,
      "1 <= nums.length <= 105\r\n": 2939,
      "\\( ": 2940,
      "beautiful ": 2941,
      "3. ": 2942,
      "4].\r\n": 2943,
      "k-": 2944,
      "k:\r\n": 2945,
      "get the ": 2946,
      "assign": 2947,
      "\" is ": 2948,
      "representing the ": 2949,
      "List[List[int]], ": 2950,
      "neighbor ": 2951,
      "i + 1, ": 2952,
      "Since ": 2953,
      "j, ": 2954,
      "j = ": 2955,
      "once ": 2956,
      "asc": 2957,
      "Output: 2": 2958,
      "ely ": 2959,
      "        # Find the ": 2960,
      "has the ": 2961,
      "--> ": 2962,
      "Here ": 2963,
      "To": 2964,
      "us the ": 2965,
      "want ": 2966,
      "yi": 2967,
      "ones ": 2968,
      "store ": 2969,
      "ali": 2970,
      "at each ": 2971,
      "10^": 2972,
      "ends ": 2973,
      "elements of ": 2974,
      "start, ": 2975,
      "check": 2976,
      "size": 2977,
      ": str, ": 2978,
      "3r": 2979,
      "water ": 2980,
      "separ": 2981,
      "10, ": 2982,
      "ight ": 2983,
      "        for i, ": 2984,
      "000\r\n": 2985,
      "values of ": 2986,
      "* (n ": 2987,
      "candies ": 2988,
      "entire ": 2989,
      "1 <= n <= ": 2990,
      "Cost": 2991,
      "left and right ": 2992,
      "s2": 2993,
      "subtra": 2994,
      "perform ": 2995,
      "tree is ": 2996,
      "erefore": 2997,
      "correct ": 2998,
      "original": 2999,
      "inclusi": 3000,
      "0,0,0,0,0,0,0,0,": 3001,
      "balanc": 3002,
      "th-first ": 3003,
      ",\r\n": 3004,
      "ST": 3005,
      "alse ": 3006,
      "in any ": 3007,
      "mapp": 3008,
      "nums2 = ": 3009,
      "head": 3010,
      "            return 0\r\n": 3011,
      "if the current ": 3012,
      "candid": 3013,
      "help": 3014,
      "less than or equal to ": 3015,
      "2]]\r\n": 3016,
      "7]\r\n": 3017,
      "regi": 3018,
      "stone ": 3019,
      "dition ": 3020,
      "ite": 3021,
      "nums1 = [": 3022,
      "ough": 3023,
      "s in a ": 3024,
      "s(self, nums": 3025,
      "2],[2,": 3026,
      "length of the longest ": 3027,
      "​​​​": 3028,
      "checks if ": 3029,
      "valid_": 3030,
      "2D integer array ": 3031,
      "capac": 3032,
      "Optional[TreeNode": 3033,
      "Dist": 3034,
      "s**: ": 3035,
      "101": 3036,
      "count[": 3037,
      "pairs of ": 3038,
      "number\r\n": 3039,
      "queries = [": 3040,
      "combination": 3041,
      "DFS ": 3042,
      "List[str]": 3043,
      "blu": 3044,
      "now ": 3045,
      "people ": 3046,
      "triplet": 3047,
      "')\r\n": 3048,
      "Word": 3049,
      "down ": 3050,
      "win": 3051,
      "x\r\n": 3052,
      "into the ": 3053,
      ", where ": 3054,
      "to be ": 3055,
      "ator": 3056,
      "ap ": 3057,
      "ListNode": 3058,
      "3,3,": 3059,
      "1 <= k <= ": 3060,
      "3 and ": 3061,
      "parent ": 3062,
      "ement": 3063,
      "are:\r\n": 3064,
      "directed ": 3065,
      "Node.val ": 3066,
      "leading zero": 3067,
      "th-first search ": 3068,
      "mone": 3069,
      "r, c": 3070,
      "10**": 3071,
      "element is ": 3072,
      "Given a string ": 3073,
      "You are given a string ": 3074,
      "helper function ": 3075,
      "indicates ": 3076,
      "ever": 3077,
      "in-": 3078,
      "inv": 3079,
      "times.\r\n": 3080,
      "s = []\r\n": 3081,
      "formed ": 3082,
      "   - We ": 3083,
      "node.right": 3084,
      "continue\r\n": 3085,
      "consist of ": 3086,
      "mounta": 3087,
      "Since the ": 3088,
      "bits ": 3089,
      "ck": 3090,
      "job": 3091,
      "state ": 3092,
      "profit ": 3093,
      "number of ways to ": 3094,
      "low ": 3095,
      "value of the ": 3096,
      "Pair": 3097,
      "_cach": 3098,
      "lru": 3099,
      "ences": 3100,
      "umul": 3101,
      "ation**: We ": 3102,
      ") if ": 3103,
      "ack ": 3104,
      "whe": 3105,
      "one of the ": 3106,
      ". If it ": 3107,
      "set()\r\n": 3108,
      "descending ": 3109,
      "memoiz": 3110,
      "lru_cach": 3111,
      "3]]\r\n": 3112,
      "8, ": 3113,
      "[]\r\n": 3114,
      "after the ": 3115,
      "twi": 3116,
      "rest ": 3117,
      ". In ": 3118,
      "a given ": 3119,
      "m x n ": 3120,
      "Incre": 3121,
      "= [0] ": 3122,
      "result is ": 3123,
      ", we can use a ": 3124,
      "over each ": 3125,
      "sentence": 3126,
      "time complexity of ": 3127,
      "obtain": 3128,
      "hash": 3129,
      "4 = ": 3130,
      "stam": 3131,
      "] - ": 3132,
      "es of ": 3133,
      "nums[i]": 3134,
      "Output: [1,": 3135,
      "        # Step ": 3136,
      "box ": 3137,
      "5,6,": 3138,
      "larger ": 3139,
      "Fro": 3140,
      "`, we ": 3141,
      "false ": 3142,
      "wri": 3143,
      "+ 1, ": 3144,
      ") -> str:\r\n": 3145,
      "It is ": 3146,
      "0 <= nums[i] ": 3147,
      "% 2 ": 3148,
      "update the ": 3149,
      "prefix sum": 3150,
      "considered ": 3151,
      "2.": 3152,
      "Let": 3153,
      "us to ": 3154,
      "2,1,": 3155,
      "],\r\n": 3156,
      "s, return ": 3157,
      "solution:\r\n": 3158,
      "arr[": 3159,
      "1111": 3160,
      "substrings ": 3161,
      "want to ": 3162,
      "((": 3163,
      "bloc": 3164,
      "r][c": 3165,
      "s.length\r\n": 3166,
      "109 + ": 3167,
      "profit": 3168,
      "1, and ": 3169,
      "rows ": 3170,
      "spe": 3171,
      "s[j": 3172,
      "1] + ": 3173,
      "\"aa": 3174,
      "odd_": 3175,
      "palindrome ": 3176,
      "3,4]\r\n": 3177,
      "convert": 3178,
      "construct": 3179,
      "When ": 3180,
      "Start ": 3181,
      "Tw": 3182,
      "[root": 3183,
      "ines": 3184,
      "seat": 3185,
      "ure ": 3186,
      "ation:\r\n": 3187,
      "cess ": 3188,
      "character in the ": 3189,
      "Count ": 3190,
      "Note that the ": 3191,
      "over the ": 3192,
      "rectangle": 3193,
      "ascending ": 3194,
      "Bin": 3195,
      "city": 3196,
      "eve ": 3197,
      "== 1:\r\n": 3198,
      "ility ": 3199,
      "present ": 3200,
      "equi": 3201,
      "uses ": 3202,
      "uses a ": 3203,
      "steps ": 3204,
      "highest ": 3205,
      "allows ": 3206,
      "maintain": 3207,
      "shift": 3208,
      "None, ": 3209,
      "9, ": 3210,
      "ack": 3211,
      "for all ": 3212,
      "<= 106\r\n": 3213,
      "len(s": 3214,
      "row and ": 3215,
      "removing ": 3216,
      "'a' ": 3217,
      "For the ": 3218,
      "bc": 3219,
      "bd": 3220,
      "ball ": 3221,
      "bag": 3222,
      "der ": 3223,
      "        total_": 3224,
      "n + 1):\r\n": 3225,
      "provi": 3226,
      "forma": 3227,
      "first_": 3228,
      "s = \"": 3229,
      "queries ": 3230,
      "subsequence of ": 3231,
      "Here's the step-by-step ": 3232,
      "segment ": 3233,
      "O(n) ": 3234,
      "'.join(": 3235,
      "        result = []\r\n": 3236,
      "bisect_": 3237,
      "backtrack": 3238,
      "parenthe": 3239,
      "3rd ": 3240,
      "(DFS": 3241,
      "-2,": 3242,
      "Move ": 3243,
      "calle": 3244,
      "tup": 3245,
      "        current_": 3246,
      "ance ": 3247,
      "plo": 3248,
      "Explanation: We ": 3249,
      "takes ": 3250,
      "taken ": 3251,
      "Counter(": 3252,
      "rectangle ": 3253,
      "amount of ": 3254,
      "modulo 109 + ": 3255,
      "sliding ": 3256,
      "_count = ": 3257,
      "ban": 3258,
      "bri": 3259,
      "y_": 3260,
      "reque": 3261,
      ". A ": 3262,
      "in each ": 3263,
      "number in the ": 3264,
      "lement ": 3265,
      "adding ": 3266,
      "dp(": 3267,
      ". If no ": 3268,
      "The number of nodes in the ": 3269,
      "Here is the ": 3270,
      "11,": 3271,
      "Sw": 3272,
      "ef": 3273,
      "i)\r\n": 3274,
      "s consists of ": 3275,
      ". Each ": 3276,
      "        # Di": 3277,
      "hav": 3278,
      "Time ": 3279,
      "Counter\r\n": 3280,
      "queue.append(": 3281,
      "otherwise.\r\n": 3282,
      "\", and ": 3283,
      "land ": 3284,
      "s[i": 3285,
      "of its ": 3286,
      "ing to the ": 3287,
      "ite ": 3288,
      "ell": 3289,
      "ed, ": 3290,
      "    def minimum": 3291,
      "operations.\r\n": 3292,
      "Return the maximum ": 3293,
      "nums becomes ": 3294,
      "tic ": 3295,
      "they are ": 3296,
      ") % MOD\r\n": 3297,
      "1.": 3298,
      "1's ": 3299,
      "9.\r\n": 3300,
      "; ": 3301,
      "leav": 3302,
      "rank": 3303,
      "elements.\r\n": 3304,
      "distrib": 3305,
      "represents a ": 3306,
      "score of ": 3307,
      "repeat": 3308,
      "Add ": 3309,
      "expression": 3310,
      "15": 3311,
      "tiv": 3312,
      "alph": 3313,
      "Initi": 3314,
      "prov": 3315,
      "apping ": 3316,
      "element in ": 3317,
      "keep track of ": 3318,
      "stones": 3319,
      "used to ": 3320,
      "would be ": 3321,
      "        # Fil": 3322,
      "LC": 3323,
      "b = ": 3324,
      "ist ": 3325,
      "s.length <= ": 3326,
      "ones": 3327,
      "numer": 3328,
      "who ": 3329,
      "x + ": 3330,
      "        # Count the ": 3331,
      "Input: nums = [1,": 3332,
      "person": 3333,
      "from collections import Counter\r\n": 3334,
      "degree ": 3335,
      "\t\r\n": 3336,
      "0 = ": 3337,
      "Leng": 3338,
      "ques": 3339,
      "itself": 3340,
      "of the array ": 3341,
      "need ": 3342,
      "1 <= m, ": 3343,
      "ffer": 3344,
      "list(": 3345,
      "placed ": 3346,
      "Given an integer array ": 3347,
      "Find ": 3348,
      "jump ": 3349,
      "There is no ": 3350,
      "Max": 3351,
      "called ": 3352,
      "le the ": 3353,
      "num\r\n": 3354,
      "1 (": 3355,
      "log ": 3356,
      "* n ": 3357,
      "length\r\n": 3358,
      "Return the minimum ": 3359,
      "\"aaa": 3360,
      "containing ": 3361,
      "greater than the ": 3362,
      "expression ": 3363,
      "palindromic ": 3364,
      "chos": 3365,
      "width ": 3366,
      "false.\r\n": 3367,
      "1` ": 3368,
      "5. **": 3369,
      "go ": 3370,
      "        count = 0\r\n": 3371,
      "s where ": 3372,
      ", or ": 3373,
      "encounter": 3374,
      "robot": 3375,
      "in enumerate(": 3376,
      "                            ": 3377,
      "s, we ": 3378,
      "increas": 3379,
      "`nums` ": 3380,
      "marked ": 3381,
      "Add the ": 3382,
      ".next\r\n": 3383,
      "_map": 3384,
      "pt": 3385,
      "turn": 3386,
      "from": 3387,
      "exclu": 3388,
      "addition": 3389,
      "string\r\n": 3390,
      ".length <= 104\r\n": 3391,
      "adjacency ": 3392,
      "sentence ": 3393,
      "still ": 3394,
      "Result": 3395,
      "(1,": 3396,
      "[3, ": 3397,
      "ai, ": 3398,
      "ho": 3399,
      "rece": 3400,
      "at a ": 3401,
      "is the minimum ": 3402,
      "        for num in ": 3403,
      "            # Update the ": 3404,
      "operation, ": 3405,
      "            return False\r\n": 3406,
      "buc": 3407,
      "list)\r\n": 3408,
      "n - 1, ": 3409,
      "numbered ": 3410,
      "reverse ": 3411,
      "pattern ": 3412,
      "achieve ": 3413,
      "corner ": 3414,
      "10**9 + ": 3415,
      "()": 3416,
      "BST": 3417,
      "`(": 3418,
      "e_": 3419,
      "pea": 3420,
      "ye": 3421,
      "in word": 3422,
      "Input: words = [": 3423,
      "        return count\r\n": 3424,
      "node = ": 3425,
      "price": 3426,
      "student ": 3427,
      "limit ": 3428,
      "fruit": 3429,
      "float('inf')\r\n": 3430,
      "Use a ": 3431,
      ") // 2\r\n": 3432,
      "16": 3433,
      "2):\r\n": 3434,
      "AA": 3435,
      "Follow": 3436,
      "r ": 3437,
      "ward ": 3438,
      "] != ": 3439,
      "quent ": 3440,
      "3,1,": 3441,
      "to the right ": 3442,
      "s of size ": 3443,
      "            # Calculate the ": 3444,
      "tok": 3445,
      "distances ": 3446,
      "_sum = ": 3447,
      "TreeNode:\r\n": 3448,
      "of_": 3449,
      "building": 3450,
      "explore ": 3451,
      "Search ": 3452,
      "1\",\"": 3453,
      "block": 3454,
      "wa": 3455,
      ", then ": 3456,
      "2,4,": 3457,
      "value\r\n": 3458,
      "][n": 3459,
      "left=": 3460,
      "usage": 3461,
      "list\r\n": 3462,
      "interse": 3463,
      "finding the ": 3464,
      "difference between the ": 3465,
      "-1, -1):\r\n": 3466,
      "half": 3467,
      "You are given a 0-indexed integer array ": 3468,
      "cnt": 3469,
      "beginn": 3470,
      "modulo 109 + 7.\r\n": 3471,
      "13": 3472,
      "2] = ": 3473,
      "Python": 3474,
      "base ": 3475,
      "ew": 3476,
      "slo": 3477,
      "teg": 3478,
      "is \"": 3479,
      "road": 3480,
      "and then ": 3481,
      "or more ": 3482,
      "upper ": 3483,
      "prefix sum ": 3484,
      "#         self.right = ": 3485,
      "#         self.left = ": 3486,
      "for a binary tree ": 3487,
      "GC": 3488,
      "bas": 3489,
      "j + ": 3490,
      "s from ": 3491,
      "cha": 3492,
      "and a ": 3493,
      "ator ": 3494,
      "returne": 3495,
      "of the same ": 3496,
      "sum = ": 3497,
      "directly ": 3498,
      "('a": 3499,
      "s[i].length == 2\r\n": 3500,
      "weight ": 3501,
      "worker ": 3502,
      "beaut": 3503,
      "coordinates ": 3504,
      "recursively ": 3505,
      "leaf ": 3506,
      "available ": 3507,
      "Union": 3508,
      "# class TreeNode:\r\n": 3509,
      "# Definition for a binary tree ": 3510,
      "# Definition for a binary tree node.\r\n": 3511,
      "20,": 3512,
      "After the ": 3513,
      "dp ": 3514,
      "lc": 3515,
      "s[i][": 3516,
      "an\r\n": 3517,
      "difi": 3518,
      "in this ": 3519,
      "ols ": 3520,
      "1000": 3521,
      "in the same ": 3522,
      "[0], ": 3523,
      "5,4,": 3524,
      "atest ": 3525,
      "because the ": 3526,
      "sign ": 3527,
      "depth": 3528,
      "half ": 3529,
      "Number": 3530,
      "Quer": 3531,
      "None, right": 3532,
      "sliding window ": 3533,
      "alphab": 3534,
      "left=None, right": 3535,
      "Tot": 3536,
      "| = ": 3537,
      "al_": 3538,
      "num)\r\n": 3539,
      "lever": 3540,
      "que\r\n": 3541,
      "fig": 3542,
      "loop ": 3543,
      "Input: nums1 = [": 3544,
      "ord(": 3545,
      "s, return the ": 3546,
      "mem": 3547,
      "row, ": 3548,
      "cand": 3549,
      "s that are ": 3550,
      "replace ": 3551,
      "#     def __init__(self, val=0, left=None, right": 3552,
      "Note: ": 3553,
      "#         self.right = right\r\n": 3554,
      "#         self.left = left\r\n": 3555,
      "')": 3556,
      "15,": 3557,
      "500\r\n": 3558,
      "ll": 3559,
      "tt": 3560,
      "        self.": 3561,
      "        m, ": 3562,
      "is defin": 3563,
      "under": 3564,
      "making ": 3565,
      "ght": 3566,
      "node\r\n": 3567,
      "owever": 3568,
      "            # If the ": 3569,
      "count += ": 3570,
      "' or ": 3571,
      "can_": 3572,
      "order\r\n": 3573,
      "Given two ": 3574,
      "123": 3575,
      "recursive ": 3576,
      "requirement": 3577,
      "satisfy the ": 3578,
      "building ": 3579,
      "data ": 3580,
      "#     def __init__(self, val=0, left=None, right=None):\r\n": 3581,
      "1]:\r\n": 3582,
      "Col": 3583,
      "gic": 3584,
      "men": 3585,
      ": List[List[int]]) -> int:\r\n": 3586,
      "modifi": 3587,
      "arr ": 3588,
      "index i ": 3589,
      "nums[j": 3590,
      "1,2,3,4,": 3591,
      "[0,1,": 3592,
      "        # Sort the ": 3593,
      ". Finally, it ": 3594,
      "helps in ": 3595,
      "        m, n = len(": 3596,
      "2, and ": 3597,
      "just ": 3598,
      "zz": 3599,
      "ans\r\n": 3600,
      "to its ": 3601,
      "a valid ": 3602,
      "of the ith ": 3603,
      "        # Conver": 3604,
      "next = ": 3605,
      "buy ": 3606,
      "ed by a ": 3607,
      "returned ": 3608,
      "... ": 3609,
      "2],[1,": 3610,
      "difference between ": 3611,
      "chosen ": 3612,
      "10**9 + 7\r\n": 3613,
      "leverag": 3614,
      "?\r\n": 3615,
      "\\text": 3616,
      "        an": 3617,
      "condition ": 3618,
      "necess": 3619,
      "** ": 3620,
      "abo": 3621,
      "i == ": 3622,
      "ilar": 3623,
      "\", k = ": 3624,
      "arr2": 3625,
      "), (0, ": 3626,
      "is a contiguous ": 3627,
      "number.\r\n": 3628,
      "non-negative ": 3629,
      "starting from the ": 3630,
      "                return False\r\n": 3631,
      "`k`": 3632,
      ", return it ": 3633,
      "Alice and ": 3634,
      "pop(": 3635,
      "), (1, ": 3636,
      "unique_": 3637,
      "\" and \"": 3638,
      "thod ": 3639,
      "First ": 3640,
      "\\text{": 3641,
      "_index ": 3642,
      "sort ": 3643,
      "- 1, ": 3644,
      "nums, ": 3645,
      "Output: 7\r\n": 3646,
      "[1,1,": 3647,
      "with the same ": 3648,
      "due ": 3649,
      "domin": 3650,
      "[i - 1][": 3651,
      "interval ": 3652,
      "remainder": 3653,
      "them.\r\n": 3654,
      "defaultdict(list)\r\n": 3655,
      "allows us to ": 3656,
      "et the ": 3657,
      "y\r\n": 3658,
      "ane": 3659,
      "rac": 3660,
      ") * ": 3661,
      "it to the ": 3662,
      "i += 1\r\n": 3663,
      "time, ": 3664,
      "method ": 3665,
      "move": 3666,
      "arr1": 3667,
      "value is ": 3668,
      "nums[j] ": 3669,
      "'s a ": 3670,
      "total cost ": 3671,
      "consists ": 3672,
      "ment the ": 3673,
      "divisor ": 3674,
      "remainder ": 3675,
      "->": 3676,
      "6]\r\n": 3677,
      "7],[": 3678,
      ":\\r\r\n": 3679,
      "However": 3680,
      "once": 3681,
      "seq": 3682,
      "to efficiently ": 3683,
      "] and ": 3684,
      "nums.length\r\n": 3685,
      "10.\r\n": 3686,
      "peri": 3687,
      "sum += ": 3688,
      "left()\r\n": 3689,
      "right:\r\n": 3690,
      "difference": 3691,
      "   - If ": 3692,
      "serv": 3693,
      "push(": 3694,
      "heal": 3695,
      "Binary ": 3696,
      "tuple": 3697,
      "ols import ": 3698,
      "12,": 3699,
      "[node": 3700,
      "`j": 3701,
      "s[0] ": 3702,
      "infin": 3703,
      "= max(max_": 3704,
      "dele": 3705,
      "to the next ": 3706,
      "prices ": 3707,
      "digits.\r\n": 3708,
      "1,1,1,": 3709,
      "Count": 3710,
      "x, n": 3711,
      "finds the ": 3712,
      "checks if the ": 3713,
      "boxes ": 3714,
      "occurrences of each ": 3715,
      "ploye": 3716,
      "Siz": 3717,
      "_of_": 3718,
      "res": 3719,
      "rearrang": 3720,
      "action": 3721,
      "[i] - ": 3722,
      "value.\r\n": 3723,
      "gram ": 3724,
      "sort(": 3725,
      "\"aab": 3726,
      "become ": 3727,
      "BFS ": 3728,
      ".sort()\r\n": 3729,
      "Ke": 3730,
      "ip ": 3731,
      "s**: We ": 3732,
      "xi, ": 3733,
      "{}\r\n": 3734,
      "s to the ": 3735,
      "to make ": 3736,
      " = Solution": 3737,
      "Inde": 3738,
      "[i] is the ": 3739,
      "3 <= ": 3740,
      "current = ": 3741,
      "This solution iterates ": 3742,
      ", it returns `": 3743,
      "large, return it ": 3744,
      "player": 3745,
      "positive integers ": 3746,
      "minimiz": 3747,
      "degree": 3748,
      " = Solution()\r\n": 3749,
      "0)": 3750,
      "3) ": 3751,
      "m):\r\n": 3752,
      "tex": 3753,
      "u, ": 3754,
      "ves ": 3755,
      ": Optional[TreeNode": 3756,
      "# Example ": 3757,
      "Input: num = ": 3758,
      "i != ": 3759,
      "s, it ": 3760,
      "an integer k": 3761,
      "search": 3762,
      "O(1) ": 3763,
      "traversal ": 3764,
      "pick ": 3765,
      "friend": 3766,
      "(self, n: int, ": 3767,
      "usage:\r\n": 3768,
      "# Example usage:\r\n": 3769,
      "Fun": 3770,
      "[1], ": 3771,
      "x_": 3772,
      "ying the ": 3773,
      "pli": 3774,
      ". Otherwise": 3775,
      "at any ": 3776,
      "ture ": 3777,
      "k - ": 3778,
      "all elements ": 3779,
      "add the ": 3780,
      "index = ": 3781,
      "1],[0,": 3782,
      ".length <= 2": 3783,
      "min(min_": 3784,
      "O(n ": 3785,
      "subsequence": 3786,
      ") + (": 3787,
      "shortest path ": 3788,
      "meeting": 3789,
      "iterate through the ": 3790,
      "        dp = [": 3791,
      "..., ": 3792,
      "Prefi": 3793,
      "source ": 3794,
      "that:\r\n": 3795,
      "String": 3796,
      "Two ": 3797,
      "''.join(": 3798,
      "19": 3799,
      "table": 3800,
      "deque\r\n": 3801,
      "s, so ": 3802,
      "counts the ": 3803,
      "first and ": 3804,
      "consider ": 3805,
      "triple": 3806,
      "thresh": 3807,
      "Path": 3808,
      "lambd": 3809,
      "false otherwise.\r\n": 3810,
      "\"]]\r\n": 3811,
      "ose ": 3812,
      "tice ": 3813,
      "round": 3814,
      "seen ": 3815,
      "in descending ": 3816,
      "qual": 3817,
      "                result.append(": 3818,
      " = [0] ": 3819,
      "[i] + ": 3820,
      "This code ": 3821,
      "on a ": 3822,
      "index of the ": 3823,
      "0,0,0,": 3824,
      "        # Initialize ": 3825,
      "repeated ": 3826,
      "balance ": 3827,
      "bottom ": 3828,
      "finish": 3829,
      "friend ": 3830,
      "(x, y": 3831,
      "18": 3832,
      "cros": 3833,
      "ding the ": 3834,
      "jk": 3835,
      "xor": 3836,
      "            graph[": 3837,
      "main ": 3838,
      "ed from ": 3839,
      "nums[i + ": 3840,
      "pot": 3841,
      "for i in range(": 3842,
      "perform the ": 3843,
      "        return True\r\n": 3844,
      "any two ": 3845,
      "3 is ": 3846,
      "value in the ": 3847,
      "), where ": 3848,
      "positions ": 3849,
      ". If there are ": 3850,
      "distances": 3851,
      "root.": 3852,
      "Calculate ": 3853,
      "piec": 3854,
      "node.left": 3855,
      "arith": 3856,
      ". So ": 3857,
      "2D array ": 3858,
      "occurs ": 3859,
      "#\",\"": 3860,
      "14": 3861,
      "year": 3862,
      "ti ": 3863,
      "map ": 3864,
      "an un": 3865,
      "that are ": 3866,
      "whose ": 3867,
      "ed\r\n": 3868,
      "compres": 3869,
      "Remove the ": 3870,
      "such a ": 3871,
      "Given an array of ": 3872,
      "\"abcd": 3873,
      "key=": 3874,
      "1 <= n <= 105\r\n": 3875,
      "None\r\n": 3876,
      "bottom-": 3877,
      "represent the ": 3878,
      "Let's ": 3879,
      "5].\r\n": 3880,
      "x < ": 3881,
      "3,5,": 3882,
      "paint": 3883,
      "time.\r\n": 3884,
      "s: List[List[int]]) -> int:\r\n": 3885,
      "root: Optional[TreeNode": 3886,
      "bitmask ": 3887,
      "ensures that the ": 3888,
      "3],[2,": 3889,
      "Subarray": 3890,
      "even_": 3891,
      "changes ": 3892,
      "full ": 3893,
      "respectively.\r\n": 3894,
      "messa": 3895,
      "memoization ": 3896,
      "(2,": 3897,
      "22": 3898,
      "sta": 3899,
      "of `": 3900,
      "colo": 3901,
      "a = ": 3902,
      "math": 3903,
      "char ": 3904,
      "Recursi": 3905,
      "have to ": 3906,
      "characters.\r\n": 3907,
      "subarray is ": 3908,
      "size of the ": 3909,
      "Return true if ": 3910,
      "MOD = ": 3911,
      "suffix ": 3912,
      "missing ": 3913,
      "consists only of ": 3914,
      "(num": 3915,
      ")] ": 3916,
      "Try ": 3917,
      "ake ": 3918,
      "br": 3919,
      "clock": 3920,
      "fa": 3921,
      "- 1\r\n": 3922,
      "ect ": 3923,
      "1 <= word": 3924,
      "ctionary ": 3925,
      "trail": 3926,
      "tree, ": 3927,
      "direction ": 3928,
      "remove the ": 3929,
      "floor": 3930,
      "runn": 3931,
      "children ": 3932,
      "from 0 to n - ": 3933,
      "10^9 + ": 3934,
      "returned.\r\n": 3935,
      "large, return it modulo 109 + 7.\r\n": 3936,
      "MOD = 10**9 + 7\r\n": 3937,
      ":  # ": 3938,
      "Base ": 3939,
      "cut": 3940,
      "nan\r\n": 3941,
      "s1": 3942,
      "enco": 3943,
      "ply ": 3944,
      "ation.\r\n": 3945,
      "modu": 3946,
      "from `": 3947,
      "1, 2, ": 3948,
      "                    break\r\n": 3949,
      "right, ": 3950,
      "employe": 3951,
      "cities ": 3952,
      "' to ": 3953,
      "0 <= i < ": 3954,
      "left to ": 3955,
      "island": 3956,
      "total of ": 3957,
      "remaining_": 3958,
      "computes the ": 3959,
      ": int) -> bool:\r\n": 3960,
      "Point": 3961,
      "minutes ": 3962,
      "extra ": 3963,
      "ough ": 3964,
      "'c": 3965,
      "', and ": 3966,
      "0].\r\n": 3967,
      "33": 3968,
      "[n": 3969,
      "stre": 3970,
      "] > ": 3971,
      "dist ": 3972,
      ") or ": 3973,
      "x and ": 3974,
      "[i] = [": 3975,
      "with an ": 3976,
      "array, ": 3977,
      "solution is ": 3978,
      "moves": 3979,
      "nums[2] ": 3980,
      "There is a ": 3981,
      "take the ": 3982,
      "cycle ": 3983,
      "depth-first search ": 3984,
      "defines a ": 3985,
      "excep": 3986,
      "diagonal": 3987,
      ".pop()\r\n": 3988,
      "balanced ": 3989,
      "stamp": 3990,
      "        # Dictionary ": 3991,
      "cri": 3992,
      "est": 3993,
      "hour ": 3994,
      "tu": 3995,
      "ust": 3996,
      ", (": 3997,
      "ority ": 3998,
      ": List[List[int]]": 3999,
      "] indicates ": 4000,
      "among ": 4001,
      "an m x n ": 4002,
      "1 -> ": 4003,
      "nums[i": 4004,
      "0 (": 4005,
      "with value ": 4006,
      "node's ": 4007,
      "s, where ": 4008,
      "elements\r\n": 4009,
      "You are given an array ": 4010,
      "are: ": 4011,
      "deriv": 4012,
      "convert ": 4013,
      "For example, if ": 4014,
      "pass": 4015,
      "heapq.heappush(": 4016,
      "region": 4017,
      "money ": 4018,
      "Sum ": 4019,
      "[1]": 4020,
      "]. ": 4021,
      "]. The ": 4022,
      "        result = ": 4023,
      "chni": 4024,
      "<= nums[i] ": 4025,
      "1 * ": 4026,
      "1 < ": 4027,
      "start = ": 4028,
      "will be the ": 4029,
      "5 * 104\r\n": 4030,
      "answer may be ": 4031,
      "root of a ": 4032,
      "exists ": 4033,
      "It can be prov": 4034,
      "based on ": 4035,
      "team ": 4036,
      "Here's the implementation of the ": 4037,
      "energy ": 4038,
      "a\"\r\n": 4039,
      "bar": 4040,
      "flow": 4041,
      "gard": 4042,
      "r, ": 4043,
      "v in ": 4044,
      "xy": 4045,
      "t is ": 4046,
      "old ": 4047,
      "streng": 4048,
      "are unique.\r\n": 4049,
      "subset ": 4050,
      "Explanation:": 4051,
      "with_": 4052,
      "s[j] ": 4053,
      "current_sum": 4054,
      ", it means ": 4055,
      "union": 4056,
      "true": 4057,
      "                return 0\r\n": 4058,
      "distance between ": 4059,
      "`nums2": 4060,
      "0-indexed": 4061,
      "struction": 4062,
      "In this ": 4063,
      "integer.\r\n": 4064,
      "linked list ": 4065,
      "solve the problem": 4066,
      "Follow ": 4067,
      "(1": 4068,
      "Every ": 4069,
      "Me": 4070,
      "dx, ": 4071,
      "eled ": 4072,
      "winn": 4073,
      "        MOD = 10**9 + 7\r\n": 4074,
      "] < ": 4075,
      "unit": 4076,
      "made ": 4077,
      "suit": 4078,
      "an edge ": 4079,
      "nums1 and ": 4080,
      "string `s": 4081,
      "    def maximum": 4082,
      "sorting ": 4083,
      "node is ": 4084,
      "result.\r\n": 4085,
      "second_": 4086,
      "sol = Solution()\r\n": 4087,
      "Input: n = 3, ": 4088,
      ": List[int]) -> List[int]:\r\n": 4089,
      "handle": 4090,
      "swap ": 4091,
      "solve the problem ": 4092,
      "decim": 4093,
      "[2] ": 4094,
      "ee": 4095,
      "four": 4096,
      "n)]\r\n": 4097,
      "restri": 4098,
      "stop": 4099,
      "y in ": 4100,
      "play ": 4101,
      "at indices ": 4102,
      "plant": 4103,
      "vertic": 4104,
      "[1,0,": 4105,
      "s: List[int]": 4106,
      "return\r\n": 4107,
      "pix": 4108,
      "determine ": 4109,
      "choose the ": 4110,
      "integers.\r\n": 4111,
      "appear ": 4112,
      "entif": 4113,
      "coins ": 4114,
      ". Then": 4115,
      "ip(": 4116,
      "labeled ": 4117,
      "initially ": 4118,
      "        for num in nums:\r\n": 4119,
      "3 - ": 4120,
      "`num": 4121,
      "`. This ": 4122,
      "evalu": 4123,
      "kth ": 4124,
      "s.length <= 105\r\n": 4125,
      "then the ": 4126,
      "once.\r\n": 4127,
      "ans ": 4128,
      "            total_": 4129,
      "rat": 4130,
      "] * ": 4131,
      "k is ": 4132,
      "apple": 4133,
      "index\r\n": 4134,
      "grid.\r\n": 4135,
      "0 <= n": 4136,
      "Output: [\"": 4137,
      "iterating ": 4138,
      "contains the ": 4139,
      "at most one ": 4140,
      "mark": 4141,
      "tively ": 4142,
      "traversal": 4143,
      "select ": 4144,
      "delete ": 4145,
      "course": 4146,
      "Hence, the ": 4147,
      "potenti": 4148,
      "10^9 + 7": 4149,
      "Follow up": 4150,
      "\"\"\r\n": 4151,
      "//": 4152,
      "7], ": 4153,
      "8]\r\n": 4154,
      ":i": 4155,
      "rin": 4156,
      "ron": 4157,
      "s ": 4158,
      "ug": 4159,
      "wall": 4160,
      ": The ": 4161,
      "of these ": 4162,
      "best ": 4163,
      "so that ": 4164,
      "match ": 4165,
      "calculation": 4166,
      "4 and ": 4167,
      "numbers.\r\n": 4168,
      "ther the ": 4169,
      "updates the ": 4170,
      "[i - 1] ": 4171,
      ": str) -> int:\r\n": 4172,
      "traverse the ": 4173,
      "The number of nodes in the tree is ": 4174,
      "lambda ": 4175,
      "\" + ": 4176,
      "), and ": 4177,
      "6],[": 4178,
      "B ": 4179,
      "Min": 4180,
      "\\).\r\n": 4181,
      "_count ": 4182,
      "`max_": 4183,
      "zip(": 4184,
      "end the ": 4185,
      "ing, ": 4186,
      "# sol = Solution()\r\n": 4187,
      "loop": 4188,
      "need": 4189,
      "it to ": 4190,
      "visi": 4191,
      "\" (": 4192,
      "length, ": 4193,
      "nums[1] ": 4194,
      "s: List[int], ": 4195,
      "numberOf": 4196,
      "itera": 4197,
      "1],[2,": 4198,
      "days ": 4199,
      "1 + 1 + ": 4200,
      "n == grid": 4201,
      "3,4],[": 4202,
      "[i][j] = ": 4203,
      "allowed to ": 4204,
      "2 <= n ": 4205,
      "amount": 4206,
      "course ": 4207,
      "stick": 4208,
      "separat": 4209,
      "helper function `": 4210,
      "token": 4211,
      "depth-first search (DFS": 4212,
      "X\",\"": 4213,
      "ties": 4214,
      "state": 4215,
      "roll": 4216,
      "des ": 4217,
      "            min_": 4218,
      "min-": 4219,
      "cture": 4220,
      ". The idea is to ": 4221,
      "index, ": 4222,
      "7,8,": 4223,
      "Here's a ": 4224,
      "dictionary": 4225,
      "left, right = ": 4226,
      "output ": 4227,
      "queue:\r\n": 4228,
      "denotes the ": 4229,
      "median ": 4230,
      "alice": 4231,
      "request": 4232,
      "handles the ": 4233,
      "-2": 4234,
      "By ": 4235,
      "a\",\"": 4236,
      "c in ": 4237,
      "is:\r\n": 4238,
      "try ": 4239,
      "us, ": 4240,
      "| + ": 4241,
      "umm": 4242,
      "es are ": 4243,
      "ed the ": 4244,
      "ed in the ": 4245,
      "sorts the ": 4246,
      "characters in ": 4247,
      "with the maximum ": 4248,
      "order of the ": 4249,
      "queue.": 4250,
      "verse the ": 4251,
      "black ": 4252,
      "connected component": 4253,
      "according": 4254,
      "alternating ": 4255,
      "Here's the step-by-step approach:\r\n": 4256,
      "-th ": 4257,
      "8.\r\n": 4258,
      "Ap": 4259,
      "Case": 4260,
      "`left": 4261,
      "her": 4262,
      "  ": 4263,
      "en that ": 4264,
      "0 is ": 4265,
      "she ": 4266,
      "boo": 4267,
      "ight": 4268,
      "ket ": 4269,
      "s: List[List[int]], ": 4270,
      "formul": 4271,
      "into two ": 4272,
      "List[List[int]]:\r\n": 4273,
      "because it ": 4274,
      "[j]": 4275,
      "Input: arr = ": 4276,
      "item ": 4277,
      "Alice and Bob ": 4278,
      "B\",\"": 4279,
      "cli": 4280,
      "dumm": 4281,
      "there": 4282,
      "inver": 4283,
      "rel": 4284,
      "st, ": 4285,
      "and its ": 4286,
      "ation**: ": 4287,
      "ed in ": 4288,
      "sub-": 4289,
      "2 to ": 4290,
      "Remove ": 4291,
      "    def is": 4292,
      "        return ans\r\n": 4293,
      ". If a ": 4294,
      "Input: nums = [2,": 4295,
      "ation is ": 4296,
      "greatest ": 4297,
      "character in ": 4298,
      "5 and ": 4299,
      "Notice ": 4300,
      "aga": 4301,
      "score is ": 4302,
      "find(": 4303,
      "s(self, n": 4304,
      "techni": 4305,
      "updating the ": 4306,
      "stack.append(": 4307,
      "in the range [0, ": 4308,
      "handle ": 4309,
      ": int) -> List[int]:\r\n": 4310,
      "coordinate ": 4311,
      "defaultdict(int": 4312,
      "few": 4313,
      "satisfies the ": 4314,
      "This approach ensures that we efficiently ": 4315,
      "minimum cost to ": 4316,
      "Length": 4317,
      "colored ": 4318,
      "4. ": 4319,
      "Pri": 4320,
      "agram ": 4321,
      "j\r\n": 4322,
      "m\r\n": 4323,
      "sen": 4324,
      "th the ": 4325,
      "] -= 1\r\n": 4326,
      "quic": 4327,
      "easi": 4328,
      "array and ": 4329,
      "compar": 4330,
      "cto": 4331,
      "shap": 4332,
      "being ": 4333,
      "You are given an array of ": 4334,
      "functo": 4335,
      "There are no ": 4336,
      "stack[-1": 4337,
      "-bit ": 4338,
      "circul": 4339,
      "destination": 4340,
      "basket": 4341,
      "Total ": 4342,
      "key=lambda ": 4343,
      "(0,": 4344,
      "-1:\r\n": 4345,
      ".com": 4346,
      "1\"\r\n": 4347,
      "Div": 4348,
      "On ": 4349,
      "i.\r\n": 4350,
      "know": 4351,
      "off": 4352,
      "pq": 4353,
      "tow": 4354,
      "in nums": 4355,
      "ed at ": 4356,
      "[i] == ": 4357,
      "bob": 4358,
      "counts ": 4359,
      "words[i] ": 4360,
      "(self, root: Optional[TreeNode": 4361,
      "element\r\n": 4362,
      "string, ": 4363,
      "5,5,": 4364,
      "points.\r\n": 4365,
      "represents ": 4366,
      "actu": 4367,
      "order of ": 4368,
      "server ": 4369,
      "head = [": 4370,
      "tive_": 4371,
      "heapq.heappop(": 4372,
      "        # Fill the ": 4373,
      "log n": 4374,
      "deletion": 4375,
      "1).\r\n": 4376,
      "Element": 4377,
      "done ": 4378,
      "ies": 4379,
      "col ": 4380,
      "1, 1, ": 4381,
      "like ": 4382,
      "1 <= k ": 4383,
      "This solution iterates through the ": 4384,
      "build ": 4385,
      "right - ": 4386,
      "ded by ": 4387,
      "target.\r\n": 4388,
      "for the current ": 4389,
      "processing ": 4390,
      "In one ": 4391,
      ", return the number of ": 4392,
      "This solution works as follows:\r\n": 4393,
      "fruit ": 4394,
      "0 or 1.\r\n": 4395,
      "those ": 4396,
      "space complex": 4397,
      "Sorted": 4398,
      "guaranteed ": 4399,
      "added to the ": 4400,
      "[i-1][": 4401,
      "| + |": 4402,
      "\")\r\n": 4403,
      "(1 << ": 4404,
      "[neighbor": 4405,
      "_id": 4406,
      "nor": 4407,
      "sort the ": 4408,
      "ves": 4409,
      "xx": 4410,
      "x: ": 4411,
      "ange": 4412,
      "endi": 4413,
      "if it is ": 4414,
      "exist ": 4415,
      "value, ": 4416,
      "If we ": 4417,
      "two integers ": 4418,
      "so far": 4419,
      "s[1] ": 4420,
      "has an ": 4421,
      "have been ": 4422,
      "Input: nums = [4,": 4423,
      "and\r\n": 4424,
      "Differ": 4425,
      "greater than or equal to ": 4426,
      "mid = (": 4427,
      "Value": 4428,
      "ensuring that ": 4429,
      "* (n + 1)\r\n": 4430,
      "Initially, ": 4431,
      "trailing ": 4432,
      "nums1 and nums": 4433,
      "0] = ": 4434,
      "45": 4435,
      "`) ": 4436,
      "sam": 4437,
      "stea": 4438,
      "le.\r\n": 4439,
      "or equal to the ": 4440,
      "acce": 4441,
      " = \"": 4442,
      "[i] <= ": 4443,
      "format": 4444,
      "s = [[0,": 4445,
      "node:\r\n": 4446,
      "ill ": 4447,
      ", we return the ": 4448,
      "represented as ": 4449,
      "Given an integer ": 4450,
      "word = ": 4451,
      "cost\r\n": 4452,
      "avor": 4453,
      "` to `": 4454,
      "spaces ": 4455,
      "values(": 4456,
      "transaction": 4457,
      "time complexity is ": 4458,
      "power of ": 4459,
      "people": 4460,
      "edges = [[0,": 4461,
      "speed ": 4462,
      "Here is the implement": 4463,
      "GCD ": 4464,
      "Here's a step-by-step ": 4465,
      "13,": 4466,
      "1  # ": 4467,
      "BB": 4468,
      "t = [": 4469,
      "= 1\r\n": 4470,
      "= deque": 4471,
      "ord ": 4472,
      "ory ": 4473,
      "lect ": 4474,
      "            self.": 4475,
      "or not ": 4476,
      "an adjacency ": 4477,
      "ity.\r\n": 4478,
      "str(": 4479,
      "each": 4480,
      "x - ": 4481,
      "vertical ": 4482,
      "with cost ": 4483,
      "time\r\n": 4484,
      "which is the ": 4485,
      "character\r\n": 4486,
      "binary string ": 4487,
      "min_heap": 4488,
      "        def is_": 4489,
      "s(self, s: str": 4490,
      "paths ": 4491,
      "0],[0,": 4492,
      "considering ": 4493,
      ". Since ": 4494,
      "goal": 4495,
      "accumul": 4496,
      "describ": 4497,
      "ected ": 4498,
      "overlapping ": 4499,
      "(self, s: str, ": 4500,
      "-3,": 4501,
      "As ": 4502,
      "Hel": 4503,
      "l, ": 4504,
      "s)": 4505,
      "a new ": 4506,
      "] is ": 4507,
      "in graph[": 4508,
      "at time ": 4509,
      "m and ": 4510,
      "2 (": 4511,
      "\",\"c": 4512,
      "view": 4513,
      "(self, grid": 4514,
      "sum.\r\n": 4515,
      "so the ": 4516,
      "sequences ": 4517,
      "Output: [0,": 4518,
      "direct": 4519,
      "pile ": 4520,
      "mid\r\n": 4521,
      "correctly ": 4522,
      "Return an array ": 4523,
      "candies": 4524,
      "do the ": 4525,
      "until the ": 4526,
      "dictionary to ": 4527,
      "top-": 4528,
      "redund": 4529,
      "additional ": 4530,
      "explore all possible ": 4531,
      "due to the ": 4532,
      "26": 4533,
      "[u": 4534,
      "ak": 4535,
      "a\", ": 4536,
      "fl": 4537,
      "The input ": 4538,
      "plan:\r\n": 4539,
      "        # If the ": 4540,
      "before": 4541,
      "colli": 4542,
      "pointers ": 4543,
      "ement ": 4544,
      "is a valid ": 4545,
      "Output: []\r\n": 4546,
      "target:\r\n": 4547,
      "order traversal ": 4548,
      "find_": 4549,
      "frequency": 4550,
      "3,4], ": 4551,
      "3],[1,": 4552,
      ", so the ": 4553,
      "partition ": 4554,
      "over all possible ": 4555,
      "product of ": 4556,
      "maximiz": 4557,
      "        # Sort ": 4558,
      "shift ": 4559,
      "overlap": 4560,
      "image ": 4561,
      "blue ": 4562,
      "beauty ": 4563,
      "jkstra": 4564,
      "defaultdict(int)\r\n": 4565,
      "redundant ": 4566,
      "1])\r\n": 4567,
      "3)": 4568,
      "5 = ": 4569,
      "[0,0,": 4570,
      "`)": 4571,
      "bel": 4572,
      "brac": 4573,
      "were ": 4574,
      "water": 4575,
      "th, ": 4576,
      "        else:\r\n": 4577,
      "er.\r\n": 4578,
      "rela": 4579,
      "secre": 4580,
      "and only ": 4581,
      "1 if ": 4582,
      "Output: 10\r\n": 4583,
      "pref": 4584,
      "Explanation: One ": 4585,
      "][y": 4586,
      "        return False\r\n": 4587,
      "integer arrays ": 4588,
      "any other ": 4589,
      "you will ": 4590,
      "is: ": 4591,
      "letters ": 4592,
      "Node ": 4593,
      "players ": 4594,
      "popleft()\r\n": 4595,
      "Substring": 4596,
      "merg": 4597,
      "' and '": 4598,
      "available": 4599,
      "`x` ": 4600,
      "This solution works by first ": 4601,
      "generated such that ": 4602,
      "ong the ": 4603,
      "inclusive": 4604,
      "equival": 4605,
      "suitable ": 4606,
      "queue.popleft()\r\n": 4607,
      "0) ": 4608,
      "3, and ": 4609,
      "ID": 4610,
      "So ": 4611,
      "c = ": 4612,
      "nes": 4613,
      "te ": 4614,
      "road ": 4615,
      ". You are also given ": 4616,
      "ity, ": 4617,
      "10],[": 4618,
      "ase the ": 4619,
      ". The key ": 4620,
      "counter ": 4621,
      "sum_": 4622,
      "-1]": 4623,
      "start_": 4624,
      "This solution first ": 4625,
      "you are ": 4626,
      "[i]:\r\n": 4627,
      "element of ": 4628,
      "ed to be ": 4629,
      "differences ": 4630,
      "stack = ": 4631,
      "trib": 4632,
      "Input: n = 5, ": 4633,
      "[1, 2, ": 4634,
      "For example, the ": 4635,
      "flipp": 4636,
      "items(": 4637,
      "obtain ": 4638,
      "minutes": 4639,
      "merge": 4640,
      "Input: arr = [": 4641,
      "round ": 4642,
      "mountain ": 4643,
      "backtrack(": 4644,
      "1 <= m, n <= ": 4645,
      "modified ": 4646,
      "0th ": 4647,
      "Pl": 4648,
      "`target": 4649,
      "mb": 4650,
      "pass ": 4651,
      "son": 4652,
      "v ": 4653,
      "            dp": 4654,
      "where": 4655,
      "each other": 4656,
      "not be ": 4657,
      "implement ": 4658,
      "ers of ": 4659,
      "is the sum of the ": 4660,
      "s and the ": 4661,
      "list and ": 4662,
      "list, ": 4663,
      "1,1,1,1,": 4664,
      "linear": 4665,
      "groups ": 4666,
      "is not a ": 4667,
      "flip ": 4668,
      "contains only ": 4669,
      "factor ": 4670,
      ") for _ in range(": 4671,
      "component ": 4672,
      "queue = deque": 4673,
      "deleting ": 4674,
      "possible.\r\n": 4675,
      "Comp": 4676,
      "Buil": 4677,
      "block ": 4678,
      "arithme": 4679,
      "(3, ": 4680,
      "4]]\r\n": 4681,
      "Gra": 4682,
      "Now": 4683,
      "[k": 4684,
      "gam": 4685,
      "name ": 4686,
      "ored ": 4687,
      "arrange": 4688,
      "ory": 4689,
      "is found": 4690,
      "maz": 4691,
      "sition": 4692,
      "1 or ": 4693,
      "if they ": 4694,
      "k + 1": 4695,
      "subtree": 4696,
      "node):\r\n": 4697,
      "nodes are ": 4698,
      "possibly ": 4699,
      "up the ": 4700,
      "index.\r\n": 4701,
      "from the `": 4702,
      "left + ": 4703,
      "list is ": 4704,
      "A subarray ": 4705,
      "s[i] == ": 4706,
      "frequent ": 4707,
      "removed ": 4708,
      "following condition": 4709,
      "minimum number of operations ": 4710,
      "special": 4711,
      "Both ": 4712,
      "receiv": 4713,
      "relative ": 4714,
      "24": 4715,
      "As": 4716,
      "dd": 4717,
      "flower": 4718,
      "s for each ": 4719,
      "= max(": 4720,
      "enem": 4721,
      "aliz": 4722,
      ". After ": 4723,
      "atch": 4724,
      "mail": 4725,
      "                elif ": 4726,
      "Input: head = [": 4727,
      "k == ": 4728,
      "from functo": 4729,
      "2 * 10": 4730,
      "import heapq": 4731,
      "\" are ": 4732,
      "create a ": 4733,
      "left += 1\r\n": 4734,
      "efficiently": 4735,
      "substring of ": 4736,
      "Alice": 4737,
      "frequenci": 4738,
      "update ": 4739,
      "up to the ": 4740,
      "struc": 4741,
      "10,10,": 4742,
      "dp[n": 4743,
      "it is possible to ": 4744,
      "frequency of ": 4745,
      "permutation ": 4746,
      "happines": 4747,
      "uppercase ": 4748,
      "question": 4749,
      "Build the ": 4750,
      "from functools import ": 4751,
      "import heapq\r\n": 4752,
      "5]]\r\n": 4753,
      "Cour": 4754,
      "Row": 4755,
      "]))  # ": 4756,
      "eff": 4757,
      "k):\r\n": 4758,
      "s).\r\n": 4759,
      "since the ": 4760,
      "ve.\r\n": 4761,
      "encode": 4762,
      "stoc": 4763,
      "devi": 4764,
      ". You can ": 4765,
      "a and ": 4766,
      ") / ": 4767,
      "post": 4768,
      "ord('a": 4769,
      "x is ": 4770,
      "modif": 4771,
      "i + 1": 4772,
      "s = [\"": 4773,
      ". The function ": 4774,
      "present": 4775,
      "append ": 4776,
      "3 * ": 4777,
      "5,2,": 4778,
      "can't ": 4779,
      "Return the maximum number of ": 4780,
      "calculated ": 4781,
      "an integer k.\r\n": 4782,
      "values of the ": 4783,
      "formed by ": 4784,
      "Alice can ": 4785,
      ", we can use ": 4786,
      "\\(10^9 + 7": 4787,
      "visited.add(": 4788,
      "List[str], ": 4789,
      "maintain a ": 4790,
      "Optional[ListNode": 4791,
      "lexicographically smallest ": 4792,
      "source": 4793,
      "Here's the implementation:\r\n": 4794,
      "horizontal ": 4795,
      "However, ": 4796,
      "key=lambda x: ": 4797,
      "(BFS": 4798,
      "0: ": 4799,
      "7 + ": 4800,
      "9]\r\n": 4801,
      "Fri": 4802,
      "Score": 4803,
      "`s` ": 4804,
      "dro": 4805,
      "foo": 4806,
      "hatt": 4807,
      "py": 4808,
      "x-": 4809,
      "ses the ": 4810,
      "n + 1": 4811,
      "oub": 4812,
      "Output: 3": 4813,
      "loo": 4814,
      "ular ": 4815,
      "book": 4816,
      "to the left ": 4817,
      "element.\r\n": 4818,
      "        return total_": 4819,
      "is the length of the ": 4820,
      "points": 4821,
      "node in the ": 4822,
      "work ": 4823,
      "            return True\r\n": 4824,
      "k = 1\r\n": 4825,
      "function": 4826,
      "divide ": 4827,
      "true.\r\n": 4828,
      "`nums1": 4829,
      "] == 0:\r\n": 4830,
      "[1][": 4831,
      "swaps ": 4832,
      "keeping ": 4833,
      "modulo \\(10^9 + 7": 4834,
      "skill": 4835,
      "len(nums)):\r\n": 4836,
      "capacity ": 4837,
      "from_": 4838,
      "gical ": 4839,
      "bottom-right ": 4840,
      "It can be proven that ": 4841,
      "11 ": 4842,
      "15\r\n": 4843,
      "6 = ": 4844,
      "c, ": 4845,
      "e-": 4846,
      "        @": 4847,
      "enough ": 4848,
      "is even": 4849,
      "rid": 4850,
      "ed with ": 4851,
      "ed as the ": 4852,
      "                while ": 4853,
      "val)\r\n": 4854,
      "ash": 4855,
      "in the array ": 4856,
      "Explanation: You can ": 4857,
      "both the ": 4858,
      "                    queue.append(": 4859,
      "words, ": 4860,
      "travel ": 4861,
      "**: This ": 4862,
      "equation": 4863,
      "[i]` ": 4864,
      "current_sum ": 4865,
      "event ": 4866,
      "You are given an integer ": 4867,
      "Input: n = 4, ": 4868,
      "longest": 4869,
      "ensure ": 4870,
      "minimize the ": 4871,
      "Determin": 4872,
      "repeating ": 4873,
      "equals ": 4874,
      "True)\r\n": 4875,
      "obstacle": 4876,
      "This solution uses dynamic programming to ": 4877,
      "shows the ": 4878,
      ". If no such ": 4879,
      "] indicates that ": 4880,
      ".is": 4881,
      "cup": 4882,
      "da": 4883,
      "ly, ": 4884,
      "q ": 4885,
      "} ": 4886,
      "input": 4887,
      "remo": 4888,
      "station": 4889,
      "unction ": 4890,
      "[i].\r\n": 4891,
      "of the two ": 4892,
      "2 are ": 4893,
      "verte": 4894,
      "below": 4895,
      "toge": 4896,
      "pointer": 4897,
      "list to ": 4898,
      "Output: [2,": 4899,
      "1,2,3,": 4900,
      "earli": 4901,
      "does": 4902,
      "   - For each ": 4903,
      "sum of all ": 4904,
      "_count\r\n": 4905,
      ". This is ": 4906,
      "1]], ": 4907,
      "less than the ": 4908,
      "determine if ": 4909,
      "        while left ": 4910,
      "s` function ": 4911,
      "matches ": 4912,
      "1 <= nums.length <= ": 4913,
      ", so we return ": 4914,
      "from collections import deque\r\n": 4915,
      "break": 4916,
      "maximize the ": 4917,
      "        # Function ": 4918,
      "bitwise AND ": 4919,
      "ously ": 4920,
      "in any order.\r\n": 4921,
      "depth-first search (DFS) ": 4922,
      "Ty": 4923,
      "piv": 4924,
      "same": 4925,
      "= 2\r\n": 4926,
      "alC": 4927,
      "radi": 4928,
      "                min_": 4929,
      "                continue\r\n": 4930,
      "max ": 4931,
      "Output: 8\r\n": 4932,
      "k and ": 4933,
      "k in range(": 4934,
      "in the `": 4935,
      "number of valid ": 4936,
      "                    max_": 4937,
      "element, ": 4938,
      "len(word": 4939,
      "within a ": 4940,
      "on day ": 4941,
      "operations to ": 4942,
      "[i])\r\n": 4943,
      "elements are ": 4944,
      "A and ": 4945,
      "smallest": 4946,
      "start and ": 4947,
      "There are n ": 4948,
      "reachable ": 4949,
      "find a ": 4950,
      "            for j in range(n):\r\n": 4951,
      "split the ": 4952,
      "task is to ": 4953,
      "bitwise OR ": 4954,
      "                    return False\r\n": 4955,
      "occurrence of ": 4956,
      "s(self, nums: List[int]) -> int:\r\n": 4957,
      "Follow up: ": 4958,
      "'A": 4959,
      ".e. ": 4960,
      "4: ": 4961,
      "Dec": 4962,
      "Gener": 4963,
      "On the ": 4964,
      " \\r\r\n": 4965,
      "        left, right = ": 4966,
      "ing\r\n": 4967,
      "Therefore": 4968,
      "ation\r\n": 4969,
      ") <= ": 4970,
      "Indi": 4971,
      "val, ": 4972,
      "assum": 4973,
      "Output: 9\r\n": 4974,
      "in the first ": 4975,
      "ability ": 4976,
      "0 - ": 4977,
      ". The solution ": 4978,
      "tag": 4979,
      "t = \"": 4980,
      "            # Add the ": 4981,
      "length.\r\n": 4982,
      "where `": 4983,
      "s to be ": 4984,
      "characters in the ": 4985,
      "with the current ": 4986,
      "        for i in range(len(": 4987,
      "processed ": 4988,
      ", return -1.\r\n": 4989,
      "higher ": 4990,
      "houses ": 4991,
      "considering the ": 4992,
      "check if the ": 4993,
      "categ": 4994,
      ". Therefore": 4995,
      "None:\r\n": 4996,
      "amount ": 4997,
      "performing ": 4998,
      "circle": 4999,
      "th-First ": 5000,
      "insert": 5001,
      "Secon": 5002,
      "according to the ": 5003,
      "node.right)\r\n": 5004,
      "        # Count the frequency of each ": 5005,
      ")  # ": 5006,
      "66": 5007,
      "6 + ": 5008,
      "= ": 5009,
      "car ": 5010,
      "nea": 5011,
      "r = ": 5012,
      "        nums": 5013,
      "n // ": 5014,
      "+ nums[": 5015,
      "10]\r\n": 5016,
      "array of ": 5017,
      "we cannot ": 5018,
      "Explanation: In this ": 5019,
      "nodes.\r\n": 5020,
      "You may ": 5021,
      "sum\r\n": 5022,
      "is the same ": 5023,
      "        for char in ": 5024,
      "row\r\n": 5025,
      "' is ": 5026,
      "k = 3\r\n": 5027,
      "4 <= ": 5028,
      "s: List[str]": 5029,
      "2 = \"": 5030,
      "longer ": 5031,
      "edges:\r\n": 5032,
      "0],[0,0,": 5033,
      "Only ": 5034,
      "select": 5035,
      "get_": 5036,
      "indicating ": 5037,
      "Given the constraint": 5038,
      "destination ": 5039,
      "dp[i][j] = ": 5040,
      "provided ": 5041,
      "\", and \"": 5042,
      "running ": 5043,
      "decimal ": 5044,
      "iteratively ": 5045,
      "accept": 5046,
      "redundant calculation": 5047,
      "'z": 5048,
      "(n - ": 5049,
      "-2, ": 5050,
      "1. The ": 5051,
      "Lef": 5052,
      "[char": 5053,
      "[4, ": 5054,
      "ax": 5055,
      "dol": 5056,
      "t.\r\n": 5057,
      "stop ": 5058,
      "ing:\r\n": 5059,
      ") > ": 5060,
      "nums[i]\r\n": 5061,
      "look": 5062,
      "we are ": 5063,
      "perform a ": 5064,
      "values.\r\n": 5065,
      "4,2,": 5066,
      "operations:\r\n": 5067,
      "head\r\n": 5068,
      "such that:\r\n": 5069,
      "                # If ": 5070,
      "pie": 5071,
      "                return True\r\n": 5072,
      ". We can ": 5073,
      "s.sort()\r\n": 5074,
      "equal.\r\n": 5075,
      "above approach:\r\n": 5076,
      "reverse=": 5077,
      "len(nums) - ": 5078,
      "* n for _ in range(": 5079,
      "pixel": 5080,
      "th-First Search ": 5081,
      "'ll ": 5082,
      "(0-indexed": 5083,
      "Be": 5084,
      "II": 5085,
      "Now ": 5086,
      "[6,": 5087,
      "`).\r\n": 5088,
      "ck ": 5089,
      "don": 5090,
      "oper": 5091,
      "pen": 5092,
      "s**: For each ": 5093,
      "tane": 5094,
      "ware": 5095,
      "        graph": 5096,
      "insi": 5097,
      "stored ": 5098,
      "to avoid ": 5099,
      "plit ": 5100,
      "            mid = (": 5101,
      "                        if ": 5102,
      "The first ": 5103,
      "we need to ": 5104,
      "boun": 5105,
      "][k": 5106,
      "maximum score ": 5107,
      "position\r\n": 5108,
      "grid[0])\r\n": 5109,
      "0 <= Node.val ": 5110,
      "priority ": 5111,
      "cost = ": 5112,
      "7,7,": 5113,
      "path from ": 5114,
      "most frequent ": 5115,
      "Input: s = \"abc": 5116,
      "is not possible to ": 5117,
      "addres": 5118,
      "        n = len(s)\r\n": 5119,
      "gues": 5120,
      "choosing ": 5121,
      ". Since the ": 5122,
      "generate ": 5123,
      "Given the root of a ": 5124,
      "window\r\n": 5125,
      "similar": 5126,
      "m == grid": 5127,
      "two-": 5128,
      "properties ": 5129,
      "Union-": 5130,
      "fourth ": 5131,
      "structure ": 5132,
      "piece ": 5133,
      "0]": 5134,
      "6], ": 5135,
      "Heigh": 5136,
      "Man": 5137,
      "`Counter": 5138,
      "fra": 5139,
      "pec": 5140,
      "r + ": 5141,
      "slow": 5142,
      "s. If ": 5143,
      "test ": 5144,
      "ui, ": 5145,
      "want": 5146,
      "x.\r\n": 5147,
      "ree ": 5148,
      "er of ": 5149,
      "ature": 5150,
      "suc": 5151,
      ") in ": 5152,
      "proj": 5153,
      "verse ": 5154,
      "0 else ": 5155,
      "force ": 5156,
      "with memoization ": 5157,
      "char_": 5158,
      "\",\"0": 5159,
      "counted ": 5160,
      ", and then ": 5161,
      "-1` ": 5162,
      "5,3,": 5163,
      "This solution calculates the ": 5164,
      "s[left": 5165,
      "calculating the ": 5166,
      ", it is ": 5167,
      "values in the ": 5168,
      "edges[i] = [": 5169,
      "2],[0,": 5170,
      "correct": 5171,
      "last": 5172,
      "s.add(": 5173,
      "workers ": 5174,
      "optimiz": 5175,
      "mid + 1\r\n": 5176,
      "[x][y": 5177,
      "\" -> \"": 5178,
      "image": 5179,
      "whether ": 5180,
      "ai, bi": 5181,
      "text ": 5182,
      "passeng": 5183,
      "        # Function to ": 5184,
      "Union-Find ": 5185,
      "(r, c": 5186,
      "2. The ": 5187,
      "2), ": 5188,
      "9], ": 5189,
      "batter": 5190,
      "p = ": 5191,
      "sing the ": 5192,
      "s.length == ": 5193,
      "ange ": 5194,
      "num + ": 5195,
      "to reach ": 5196,
      "dimen": 5197,
      "es and ": 5198,
      "of the first ": 5199,
      "when the ": 5200,
      "` that ": 5201,
      "length = 0\r\n": 5202,
      "array to ": 5203,
      "compa": 5204,
      "Explanation: There is no ": 5205,
      "string \"": 5206,
      "given constraints.\r\n": 5207,
      "sum, ": 5208,
      "        return ''.join(": 5209,
      "ally.\r\n": 5210,
      "            if i ": 5211,
      "nums[right": 5212,
      "with the smallest ": 5213,
      "true ": 5214,
      "   - `": 5215,
      "_sum\r\n": 5216,
      ". It can be ": 5217,
      "edges.\r\n": 5218,
      "found.\r\n": 5219,
      "1 + 2 + ": 5220,
      "subsequence is ": 5221,
      "consider the ": 5222,
      "visited:\r\n": 5223,
      "1 <= s.length <= 105\r\n": 5224,
      "has_": 5225,
      "boundary ": 5226,
      "Process ": 5227,
      "duplicate ": 5228,
      "down": 5229,
      "variable ": 5230,
      "0,0,0,0,0,0,0,0,0,0,0,0,0,0,0,0,": 5231,
      "home": 5232,
      "making it ": 5233,
      "an undirected ": 5234,
      "encoded ": 5235,
      "solve the problem of ": 5236,
      "s: List[int]) -> int:\r\n": 5237,
      "visit ": 5238,
      "n == grid[i].length\r\n": 5239,
      "circular ": 5240,
      "space complexity ": 5241,
      "arithmetic ": 5242,
      "vertex ": 5243,
      "peci": 5244,
      "\": ": 5245,
      "(\"": 5246,
      "2).\r\n": 5247,
      "2) = ": 5248,
      "Sli": 5249,
      "[2": 5250,
      "`. If ": 5251,
      "eat ": 5252,
      "fur": 5253,
      "fea": 5254,
      "n't ": 5255,
      "pe ": 5256,
      "s2 ": 5257,
      "s1 = ": 5258,
      "y < ": 5259,
      "                return\r\n": 5260,
      " = defaultdict(list)\r\n": 5261,
      "100000": 5262,
      "1, y": 5263,
      "all other ": 5264,
      "two adjacent ": 5265,
      "is the smallest ": 5266,
      "0, 1, ": 5267,
      "            # Find the ": 5268,
      "time = ": 5269,
      "representing ": 5270,
      ", it returns ": 5271,
      "s. This ": 5272,
      "target\r\n": 5273,
      "numbers are ": 5274,
      "collect": 5275,
      "difference is ": 5276,
      "answer.\r\n": 5277,
      "        while queue:\r\n": 5278,
      "nifi": 5279,
      "`, which ": 5280,
      "handle the ": 5281,
      "- 1)\r\n": 5282,
      "before the ": 5283,
      "1 <= nums[i] <= 109\r\n": 5284,
      "231 - ": 5285,
      "linked list.\r\n": 5286,
      "distinct.\r\n": 5287,
      "        # Check if ": 5288,
      "could be ": 5289,
      "            if not node:\r\n": 5290,
      "simultane": 5291,
      "mountain": 5292,
      "hash ": 5293,
      "From ": 5294,
      "Swap ": 5295,
      "bucket": 5296,
      "triplet ": 5297,
      "clockwise ": 5298,
      "encoded": 5299,
      "dimension": 5300,
      "1'": 5301,
      "Dep": 5302,
      "Pic": 5303,
      "b\r\n": 5304,
      "dc": 5305,
      "here ": 5306,
      "jth ": 5307,
      "lu": 5308,
      "s can be ": 5309,
      "stand": 5310,
      "of them ": 5311,
      "to each ": 5312,
      "] += ": 5313,
      "                left = ": 5314,
      "                i += 1\r\n": 5315,
      "nums[i - ": 5316,
      "pos ": 5317,
      "10 + ": 5318,
      "contrib": 5319,
      "        return min_": 5320,
      "binary": 5321,
      "nums[left": 5322,
      "grid), len(": 5323,
      "subarray.\r\n": 5324,
      "signifi": 5325,
      "n, where ": 5326,
      "neighbor, ": 5327,
      "common": 5328,
      "continues ": 5329,
      "fully ": 5330,
      "], k = 2\r\n": 5331,
      "strictly increasing ": 5332,
      "exceed": 5333,
      "        for i in range(1, n):\r\n": 5334,
      "diagonal ": 5335,
      "32-bit ": 5336,
      "'b' ": 5337,
      "binary representation of ": 5338,
      "twice ": 5339,
      "wait": 5340,
      "figure ": 5341,
      "Function": 5342,
      "perform the following ": 5343,
      "flowers ": 5344,
      "potential ": 5345,
      "Graph": 5346,
      "grid), len(grid[0])\r\n": 5347,
      "1), (": 5348,
      "Bit": 5349,
      "Cre": 5350,
      "Find": 5351,
      "Jum": 5352,
      "Mar": 5353,
      "Par": 5354,
      "a\" ": 5355,
      "aster": 5356,
      "ig": 5357,
      "kn": 5358,
      "omin": 5359,
      "ry": 5360,
      "        i = ": 5361,
      "s as ": 5362,
      "s all ": 5363,
      "ans.append(": 5364,
      "rec": 5365,
      "stree": 5366,
      "plus ": 5367,
      "diagram ": 5368,
      "acros": 5369,
      "conson": 5370,
      "file ": 5371,
      "x in ": 5372,
      "ed. ": 5373,
      "2 -> ": 5374,
      "by their ": 5375,
      "in range(1, ": 5376,
      "4,4,": 5377,
      "maximum value ": 5378,
      "right.\r\n": 5379,
      "query, ": 5380,
      "\"abab": 5381,
      "ate_": 5382,
      "at the current ": 5383,
      ".length == 3\r\n": 5384,
      ", return true if ": 5385,
      "if:\r\n": 5386,
      "matches the ": 5387,
      "score\r\n": 5388,
      "capit": 5389,
      "selected ": 5390,
      ".\",\".\",\".\",\"": 5391,
      "center": 5392,
      "grid[r][c": 5393,
      "parentheses ": 5394,
      "consists only of lowercase English letters.\r\n": 5395,
      "(self, root: Optional[TreeNode]": 5396,
      "Here is the implementation of the ": 5397,
      "The input is ": 5398,
      "jkstra's ": 5399,
      "'*": 5400,
      "': ": 5401,
      "2^": 5402,
      "4]": 5403,
      ">> ": 5404,
      "Ev": 5405,
      "[a": 5406,
      "`mid": 5407,
      "eet": 5408,
      "hold": 5409,
      "x:\r\n": 5410,
      "  - ": 5411,
      "ref": 5412,
      "ary.\r\n": 5413,
      "set = ": 5414,
      "            result.append(": 5415,
      ") < ": 5416,
      "ess": 5417,
      "0 -> ": 5418,
      "strateg": 5419,
      "s, we can ": 5420,
      ") -> List[List[int]]:\r\n": 5421,
      "    def num": 5422,
      "    def get": 5423,
      "any of the ": 5424,
      "so we return ": 5425,
      "you need to ": 5426,
      "nums[k": 5427,
      "grid[0][": 5428,
      "elements is ": 5429,
      "represented by ": 5430,
      "greater": 5431,
      "s[i] is the ": 5432,
      "place the ": 5433,
      "Calculation": 5434,
      "To solve the problem of ": 5435,
      "heights[": 5436,
      "stack.pop()\r\n": 5437,
      "Here's the complete ": 5438,
      "ensure that ": 5439,
      ": str) -> bool:\r\n": 5440,
      "valid.\r\n": 5441,
      "height of the ": 5442,
      "permutation of ": 5443,
      "List[str]:\r\n": 5444,
      "meeting ": 5445,
      "circle ": 5446,
      "occurrences of ": 5447,
      "label": 5448,
      "respectively": 5449,
      "gcd(": 5450,
      "is either 0 or 1.\r\n": 5451,
      "writt": 5452,
      "; otherwise": 5453,
      "module ": 5454,
      "tuple ": 5455,
      "strength ": 5456,
      "Now, ": 5457,
      "effec": 5458,
      ".items(": 5459,
      "15 ": 5460,
      "30": 5461,
      "3] = ": 5462,
      "Lim": 5463,
      "[3] ": 5464,
      "`count": 5465,
      "     - ": 5466,
      "anti": 5467,
      "sted ": 5468,
      "an array.\r\n": 5469,
      "1 == ": 5470,
      "                total_": 5471,
      "                right = ": 5472,
      "ution ": 5473,
      "1 <= words": 5474,
      "travel": 5475,
      "-1)": 5476,
      "row in ": 5477,
      "too ": 5478,
      "island ": 5479,
      "calculate ": 5480,
      "nums[i] - ": 5481,
      "push ": 5482,
      "        if len(": 5483,
      "at the same ": 5484,
      "**: We use a ": 5485,
      "`nums`": 5486,
      "gain ": 5487,
      "* (n - ": 5488,
      "        while i < ": 5489,
      "Dijkstra's ": 5490,
      "-1, 0": 5491,
      "means the ": 5492,
      "[1] = ": 5493,
      "group of ": 5494,
      "denoting the ": 5495,
      "times:\r\n": 5496,
      "a, b in ": 5497,
      "strictly increas": 5498,
      "(self, s: str) -> int:\r\n": 5499,
      "corner": 5500,
      "width": 5501,
      "specific ": 5502,
      "during the ": 5503,
      "gives ": 5504,
      "gives the ": 5505,
      "variable": 5506,
      "diff = ": 5507,
      "invol": 5508,
      "repeated": 5509,
      "itself.\r\n": 5510,
      "Prefix ": 5511,
      "equivalent ": 5512,
      "keeping track of the ": 5513,
      "Decre": 5514,
      "'B": 5515,
      "4th ": 5516,
      "AB": 5517,
      "[r][c": 5518,
      "_max": 5519,
      "call ": 5520,
      "favor": 5521,
      "he ": 5522,
      "hol": 5523,
      "e = ": 5524,
      "        total": 5525,
      "        visited ": 5526,
      "sed": 5527,
      "The maximum ": 5528,
      "number in ": 5529,
      "rank ": 5530,
      "perf": 5531,
      "s = [1,": 5532,
      "s, which ": 5533,
      "end, ": 5534,
      "-1] ": 5535,
      "types of ": 5536,
      "move, ": 5537,
      "minimum possible ": 5538,
      "operation.\r\n": 5539,
      "you have ": 5540,
      "open": 5541,
      "cut ": 5542,
      "order and ": 5543,
      "                # If the ": 5544,
      "very large, return it modulo 109 + 7.\r\n": 5545,
      ". This approach ensures that ": 5546,
      "adjust": 5547,
      "reversed ": 5548,
      "matrix = [": 5549,
      "None)\r\n": 5550,
      "multiple of ": 5551,
      "binary search to find the ": 5552,
      "1 <= nums[i] <= ": 5553,
      "9999": 5554,
      "Explanation: There are no ": 5555,
      "cnt ": 5556,
      "reduc": 5557,
      "customer": 5558,
      "sorted in non-decreasing ": 5559,
      "left and right subtre": 5560,
      "candy ": 5561,
      "A subarray is a contiguous ": 5562,
      "dama": 5563,
      "alCut": 5564,
      "written ": 5565,
      "\"].\r\n": 5566,
      "(0": 5567,
      ".next = ": 5568,
      "110": 5569,
      "21": 5570,
      "4) ": 5571,
      "Day": 5572,
      "`: ": 5573,
      "doub": 5574,
      "j]\r\n": 5575,
      "        queue = deque": 5576,
      "invalid ": 5577,
      "one.\r\n": 5578,
      "alk ": 5579,
      "nums of length ": 5580,
      "- T": 5581,
      "immedi": 5582,
      "const": 5583,
      "= [1,": 5584,
      "from each ": 5585,
      "[i] is ": 5586,
      "                    for ": 5587,
      "word.\r\n": 5588,
      "max_heap": 5589,
      "5,1,": 5590,
      "sorting the ": 5591,
      "queen": 5592,
      "1] and ": 5593,
      "bud": 5594,
      "j += 1\r\n": 5595,
      "2 = [": 5596,
      "word is ": 5597,
      "position in the ": 5598,
      "name": 5599,
      "3],[4,": 5600,
      "including ": 5601,
      "2 <= nums": 5602,
      "-109 ": 5603,
      "goes ": 5604,
      "goal ": 5605,
      "monster": 5606,
      "Update ": 5607,
      "smaller than ": 5608,
      "Starting ": 5609,
      "given the constraints.\r\n": 5610,
      "-1 if ": 5611,
      "initialize ": 5612,
      "customer ": 5613,
      "sorted in ascending ": 5614,
      "assigned ": 5615,
      "lru_cache(": 5616,
      "rank[root": 5617,
      "Input: words = [\"": 5618,
      "        # Convert the ": 5619,
      "health ": 5620,
      "except ": 5621,
      "        # Dictionary to store the ": 5622,
      "units of ": 5623,
      "hattan ": 5624,
      "nearest ": 5625,
      "reverse=True)\r\n": 5626,
      "m == grid.length\r\n": 5627,
      "Graph ": 5628,
      "'+": 5629,
      "'X": 5630,
      ".values(": 5631,
      "2]], ": 5632,
      "Ed": 5633,
      "Pu": 5634,
      "[v": 5635,
      "eat": 5636,
      "fron": 5637,
      "lan": 5638,
      "mut": 5639,
      "s[i]\r\n": 5640,
      "x)\r\n": 5641,
      ", which is ": 5642,
      "= set()\r\n": 5643,
      "store": 5644,
      "in one ": 5645,
      "at position ": 5646,
      "1 in ": 5647,
      "ell ": 5648,
      "can only ": 5649,
      "each element ": 5650,
      "2 * 104\r\n": 5651,
      "1, c": 5652,
      "1 <= queries": 5653,
      "                    current_": 5654,
      "string by ": 5655,
      "words[": 5656,
      "    def numberOf": 5657,
      "sums ": 5658,
      "        return max(": 5659,
      "meet the ": 5660,
      "identif": 5661,
      "fficul": 5662,
      "character.\r\n": 5663,
      "s are unique.\r\n": 5664,
      "4 * ": 5665,
      "Char": 5666,
      "6,7,": 5667,
      "root\r\n": 5668,
      "end of ": 5669,
      "collect ": 5670,
      "make a ": 5671,
      "bread": 5672,
      "appear in ": 5673,
      "0-indexed integer array ": 5674,
      "going ": 5675,
      "], k = 3\r\n": 5676,
      "beautiful": 5677,
      "Traverse the ": 5678,
      "s(self, nums: List[int], ": 5679,
      "= [0] * n\r\n": 5680,
      "Swap": 5681,
      "operation, you can ": 5682,
      "`j` ": 5683,
      "first and last ": 5684,
      "message ": 5685,
      "formula ": 5686,
      "fewer ": 5687,
      "linear ": 5688,
      "significan": 5689,
      ".count": 5690,
      "3. The ": 5691,
      "Day ": 5692,
      "aab": 5693,
      "dx": 5694,
      "gc": 5695,
      "tr": 5696,
      "w ": 5697,
      ", but ": 5698,
      "on.\r\n": 5699,
      "is used to ": 5700,
      "deci": 5701,
      "n + ": 5702,
      "n where ": 5703,
      "                break\r\n": 5704,
      " = 0, ": 5705,
      "es:\r\n": 5706,
      "max-": 5707,
      "= [\"": 5708,
      "number of distinct ": 5709,
      "1 <= m ": 5710,
      "forward ": 5711,
      "with n ": 5712,
      "s = [[": 5713,
      ". The time complexity is ": 5714,
      "best_": 5715,
      "word1": 5716,
      "        return [": 5717,
      "right` ": 5718,
      "You are given the ": 5719,
      "value in ": 5720,
      "only the ": 5721,
      "has been ": 5722,
      "1] - ": 5723,
      "different": 5724,
      "graph.\r\n": 5725,
      "character is ": 5726,
      "numbers in the ": 5727,
      "largest": 5728,
      "        if n == ": 5729,
      "for the first ": 5730,
      "1) and ": 5731,
      "distance = ": 5732,
      "connect ": 5733,
      "adding the ": 5734,
      "multiple": 5735,
      "multipli": 5736,
      "n, return the ": 5737,
      "s_to_": 5738,
      "allowed ": 5739,
      "Delet": 5740,
      "To solve this problem ": 5741,
      "Output: 12\r\n": 5742,
      "O(n^": 5743,
      "-1,-1,": 5744,
      "rotated ": 5745,
      "level_": 5746,
      "        # Iterate over each ": 5747,
      "energy": 5748,
      "palindrome.\r\n": 5749,
      "constructs the ": 5750,
      "bisect_left": 5751,
      "distribut": 5752,
      "table\r\n": 5753,
      ". If there are multiple ": 5754,
      "node.left)\r\n": 5755,
      "Notice that ": 5756,
      "Manhattan ": 5757,
      "street ": 5758,
      "-inf'": 5759,
      "2), (": 5760,
      "Could ": 5761,
      "Play": 5762,
      "Sort the ": 5763,
      "\\)": 5764,
      "e\",\"": 5765,
      ", you can ": 5766,
      "ans[": 5767,
      "states ": 5768,
      ": List[List[int]], ": 5769,
      "det": 5770,
      "to any ": 5771,
      "a list of ": 5772,
      "Input: point": 5773,
      "subset of ": 5774,
      "2 in ": 5775,
      "== len(": 5776,
      "                    continue\r\n": 5777,
      "sible": 5778,
      "< n\r\n": 5779,
      "used": 5780,
      "from the first ": 5781,
      "list `": 5782,
      "s[i] <= ": 5783,
      "binary tree, ": 5784,
      "!= 0:\r\n": 5785,
      "computed ": 5786,
      "0],[1,": 5787,
      "score.\r\n": 5788,
      "conditions.\r\n": 5789,
      "seconds.\r\n": 5790,
      "denomin": 5791,
      "changing the ": 5792,
      "balance": 5793,
      "float('-inf'": 5794,
      "performing the ": 5795,
      "statement": 5796,
      "parenthese": 5797,
      "ai, b": 5798,
      "Recursive ": 5799,
      "The number of nodes in the tree is in the range [1, ": 5800,
      "again": 5801,
      "quick": 5802,
      "actual ": 5803,
      "right - left ": 5804,
      "where:\r\n": 5805,
      "lookup": 5806,
      "231 - 1\r\n": 5807,
      "lru_cache(None)\r\n": 5808,
      "\"10": 5809,
      "(root": 5810,
      "5]": 5811,
      "9],[": 5812,
      "X ": 5813,
      "`, the ": 5814,
      "by": 5815,
      "bul": 5816,
      "fall": 5817,
      "fold": 5818,
      "gg": 5819,
      "        stack = ": 5820,
      "ti, ": 5821,
      "utt": 5822,
      "to get ": 5823,
      "ately ": 5824,
      "turn ": 5825,
      "constra": 5826,
      "Inser": 5827,
      "= [2,": 5828,
      "Output: [1,2,": 5829,
      "self ": 5830,
      "example ": 5831,
      "low, ": 5832,
      "You have ": 5833,
      "is the only ": 5834,
      "thest ": 5835,
      "        for u, ": 5836,
      "            if len(": 5837,
      "point.\r\n": 5838,
      "s[right": 5839,
      "nums[3] ": 5840,
      "characters are ": 5841,
      "with the first ": 5842,
      "non-overlapping ": 5843,
      "approach to find the ": 5844,
      "between two ": 5845,
      "increment ": 5846,
      "dfs` function ": 5847,
      "substrings of ": 5848,
      "collection": 5849,
      "longest common ": 5850,
      "tasks ": 5851,
      "s. The `": 5852,
      "Times": 5853,
      "cases are ": 5854,
      "left, right": 5855,
      "boxes": 5856,
      "prime factor": 5857,
      "Otherwise, ": 5858,
      "specified ": 5859,
      "fill": 5860,
      "part of the ": 5861,
      "obstacle ": 5862,
      "needed.\r\n": 5863,
      "Since the answer may be ": 5864,
      "beginning ": 5865,
      "        # Convert ": 5866,
      "math.": 5867,
      "technique ": 5868,
      "SortedList": 5869,
      "guaranteed that ": 5870,
      "Determine the ": 5871,
      "Could you ": 5872,
      "\". ": 5873,
      "0's ": 5874,
      "a\r\n": 5875,
      "k)\r\n": 5876,
      "lit": 5877,
      "mou": 5878,
      "nx, n": 5879,
      "t\r\n": 5880,
      "v, ": 5881,
      "thod": 5882,
      "aroun": 5883,
      "tile": 5884,
      "y + ": 5885,
      "num, ": 5886,
      "ply the ": 5887,
      "it\r\n": 5888,
      "term": 5889,
      "        # Build the ": 5890,
      "counting the ": 5891,
      "to the current ": 5892,
      "    def longest": 5893,
      "tail": 5894,
      "4,1,": 5895,
      "leftmost ": 5896,
      "arr)\r\n": 5897,
      "index i = ": 5898,
      "minimum and ": 5899,
      "value = ": 5900,
      "only lowercase English letters.\r\n": 5901,
      "query.\r\n": 5902,
      "has no ": 5903,
      "free ": 5904,
      "max(0, ": 5905,
      "largest_": 5906,
      "Ener": 5907,
      "1) = ": 5908,
      "2],[3,": 5909,
      "total_sum ": 5910,
      ": List[int]) -> bool:\r\n": 5911,
      "with a time complexity of ": 5912,
      ") - ord('a": 5913,
      "intervals ": 5914,
      "in the range [": 5915,
      "\"bc": 5916,
      ": str) -> str:\r\n": 5917,
      ": int) -> str:\r\n": 5918,
      "transforma": 5919,
      "Cost ": 5920,
      "give ": 5921,
      "increments the ": 5922,
      "(self, nums: List[int], k: int) -> int:\r\n": 5923,
      "rules:\r\n": 5924,
      "yiel": 5925,
      "Distance": 5926,
      "rest of the ": 5927,
      "Base case": 5928,
      "Explanation: ": 5929,
      "\" + \"": 5930,
      "Helper function ": 5931,
      "dollar": 5932,
      "two-pointer ": 5933,
      "(inclusive": 5934,
      "50": 5935,
      "8 + ": 5936,
      "RL": 5937,
      "_list": 5938,
      "gen": 5939,
      "is, ": 5940,
      "s[i], ": 5941,
      "us, the ": 5942,
      "well": 5943,
      "int the ": 5944,
      "urr": 5945,
      "math ": 5946,
      "moiz": 5947,
      "from index ": 5948,
      "as it ": 5949,
      "exec": 5950,
      "with `": 5951,
      "lowest ": 5952,
      "word\r\n": 5953,
      "Represent": 5954,
      "4,5,": 5955,
      "met": 5956,
      "            if nums[i] ": 5957,
      "trees ": 5958,
      "swapp": 5959,
      "**: If ": 5960,
      "operations\r\n": 5961,
      "[1,3,": 5962,
      "count in ": 5963,
      "                if not ": 5964,
      ".length <= 10\r\n": 5965,
      "s[i] = ": 5966,
      "        for i in range(m):\r\n": 5967,
      "   - The ": 5968,
      "   - If the ": 5969,
      "need to be ": 5970,
      "removing the ": 5971,
      "zeros": 5972,
      "constraints ": 5973,
      ") and (": 5974,
      "include ": 5975,
      "including the ": 5976,
      "4],[2,": 5977,
      "1 <= s.length <= ": 5978,
      "meets the ": 5979,
      "average": 5980,
      "Input: nums = [1,2,3,4,": 5981,
      "median": 5982,
      "not in visited:\r\n": 5983,
      "Hence, ": 5984,
      "center ": 5985,
      "backtracking ": 5986,
      "ensuring that the ": 5987,
      "Your task is to ": 5988,
      "having ": 5989,
      "figur": 5990,
      "underlin": 5991,
      "counts the number of ": 5992,
      "Memoiz": 5993,
      "Plac": 5994,
      "Course": 5995,
      "astero": 5996,
      "constraint ": 5997,
      "(-": 5998,
      "(the ": 5999,
      "(possibly ": 6000,
      ".split": 6001,
      "1), ": 6002,
      "2*": 6003,
      ":]\r\n": 6004,
      "[5, ": 6005,
      "`0": 6006,
      "ative ": 6007,
      "b)\r\n": 6008,
      "s1 and ": 6009,
      "x][n": 6010,
      "deque ": 6011,
      "            new_": 6012,
      "            left_": 6013,
      "            count = 0\r\n": 6014,
      "a single ": 6015,
      "a positive integer ": 6016,
      "1 for ": 6017,
      "olo": 6018,
      "nums.length ": 6019,
      "nums[i], ": 6020,
      "fix": 6021,
      "never ": 6022,
      "        # Helper function ": 6023,
      "ship ": 6024,
      "][col": 6025,
      "tain ": 6026,
      "dp[i - 1][": 6027,
      "izz": 6028,
      "you cannot ": 6029,
      "s to avoid ": 6030,
      "left corner ": 6031,
      "j and ": 6032,
      "4 is ": 6033,
      "numbers\r\n": 6034,
      "end = ": 6035,
      "\", \"c": 6036,
      "last element ": 6037,
      "cell.\r\n": 6038,
      "prefix of ": 6039,
      "brevi": 6040,
      "mark ": 6041,
      "        # Initialize a ": 6042,
      "changing ": 6043,
      "stack and ": 6044,
      "        # Iterate through the ": 6045,
      "applying the ": 6046,
      "needed": 6047,
      "triangle": 6048,
      "* (n + 1": 6049,
      "subtract ": 6050,
      "% 2 == 0:\r\n": 6051,
      "numbered from 0 to n - ": 6052,
      "        m, n = len(grid), len(grid[0])\r\n": 6053,
      "), (0, -1": 6054,
      "), (1, 0": 6055,
      "xi, yi": 6056,
      "do the following ": 6057,
      "implement this ": 6058,
      "deleting some ": 6059,
      "accepted.\r\n": 6060,
      "quickly ": 6061,
      "(a, b": 6062,
      "20\r\n": 6063,
      "4:\r\n": 6064,
      "6] ": 6065,
      "App": 6066,
      "Jo": 6067,
      "[index": 6068,
      "f(": 6069,
      "n))\r\n": 6070,
      "sr": 6071,
      "uf": 6072,
      "al.\r\n": 6073,
      "n is ": 6074,
      ". For example, ": 6075,
      "The": 6076,
      "enter": 6077,
      "- At ": 6078,
      "if and only ": 6079,
      "The total ": 6080,
      "configur": 6081,
      "= [[": 6082,
      "los": 6083,
      "k < ": 6084,
      "> 0 and ": 6085,
      "ed. The ": 6086,
      "        # Return the ": 6087,
      "from math ": 6088,
      "i to ": 6089,
      "s = [1,2,": 6090,
      "node]:\r\n": 6091,
      "word2": 6092,
      "taking ": 6093,
      "[0]:\r\n": 6094,
      "< right:\r\n": 6095,
      ", we calculate the ": 6096,
      "2, y": 6097,
      "            if num ": 6098,
      "\", s": 6099,
      "This solution defines a ": 6100,
      "position.\r\n": 6101,
      "+ 1))\r\n": 6102,
      "A substring ": 6103,
      "s in each ": 6104,
      "observ": 6105,
      "division ": 6106,
      "\"a\",\"b": 6107,
      "subarray of ": 6108,
      "subarrays of ": 6109,
      "saf": 6110,
      "ensures that we ": 6111,
      "3],[3,": 6112,
      "out of the ": 6113,
      "items ": 6114,
      "algorithm": 6115,
      "suffix": 6116,
      "exceed ": 6117,
      "balls ": 6118,
      "And": 6119,
      "            # Check if ": 6120,
      "customers ": 6121,
      "ancestor": 6122,
      "[::": 6123,
      "​​​​​​": 6124,
      "question ": 6125,
      "encountered ": 6126,
      "1 <= words[i]": 6127,
      "xyz": 6128,
      "secret ": 6129,
      "available_": 6130,
      "        @lru_cache(None)\r\n": 6131,
      "repeatedly ": 6132,
      "x][ny": 6133,
      "from math import ": 6134,
      "'L": 6135,
      "():\r\n": 6136,
      ".0000": 6137,
      "1`": 6138,
      "12 ": 6139,
      "4-": 6140,
      "8], ": 6141,
      "AT": 6142,
      "For": 6143,
      "Fli": 6144,
      "Let ": 6145,
      "[2], ": 6146,
      "_, ": 6147,
      "_with_": 6148,
      "`[": 6149,
      "agram": 6150,
      "cumul": 6151,
      "rt": 6152,
      "son ": 6153,
      "s[i + ": 6154,
      "}, ": 6155,
      "        row": 6156,
      "        sorted_": 6157,
      "erequi": 6158,
      ", current_": 6159,
      "only.\r\n": 6160,
      "any": 6161,
      "rover": 6162,
      "to find ": 6163,
      ". Note that ": 6164,
      "an element ": 6165,
      "itself ": 6166,
      "oly": 6167,
      "if a ": 6168,
      "m - ": 6169,
      "Input: ma": 6170,
      "orders ": 6171,
      "x == ": 6172,
      "0,2,": 6173,
      "version ": 6174,
      "number of operations ": 6175,
      "(self, arr": 6176,
      "maximum sum ": 6177,
      "is the sum of ": 6178,
      "minimum time ": 6179,
      "] = True\r\n": 6180,
      "count how many ": 6181,
      "create ": 6182,
      "For i = ": 6183,
      "n - 1 ": 6184,
      "s: List[List[int]]": 6185,
      ", it calculates the ": 6186,
      ", it returns the ": 6187,
      "s. We ": 6188,
      "target, ": 6189,
      "numbers in ": 6190,
      "option": 6191,
      "_sum = 0\r\n": 6192,
      "word in ": 6193,
      "x, y, ": 6194,
      "x, y = ": 6195,
      "1],[1,1,": 6196,
      "increment the ": 6197,
      "-indexed ": 6198,
      "Initialization**: We ": 6199,
      "arily ": 6200,
      "prev = ": 6201,
      "means that ": 6202,
      "does not contain ": 6203,
      "coordinates": 6204,
      "            for j in range(1, ": 6205,
      "ected": 6206,
      "_index = ": 6207,
      "it's not ": 6208,
      "`dp` array ": 6209,
      "Any ": 6210,
      ". You may ": 6211,
      "(nx, n": 6212,
      "neighbor in graph[": 6213,
      "region ": 6214,
      "Maximum ": 6215,
      "Python ": 6216,
      "recursive function ": 6217,
      "above.\r\n": 6218,
      "infinite ": 6219,
      "relation": 6220,
      "left + right": 6221,
      "minimum and maximum ": 6222,
      "erequisit": 6223,
      "\"11": 6224,
      "'9": 6225,
      "30\r\n": 6226,
      "4] = ": 6227,
      "7] ": 6228,
      "Curr": 6229,
      "bab": 6230,
      "carr": 6231,
      "mp": 6232,
      "s += 1\r\n": 6233,
      "ended ": 6234,
      "or\r\n": 6235,
      "stone": 6236,
      "of them.\r\n": 6237,
      "see if ": 6238,
      "a 2D integer array ": 6239,
      "- If ": 6240,
      "[i+": 6241,
      "if we ": 6242,
      "e the first ": 6243,
      "Input: word = ": 6244,
      "Input: matrix = [": 6245,
      "minute ": 6246,
      "in the sorted ": 6247,
      "from left to ": 6248,
      "sell ": 6249,
      "shor": 6250,
      "1 <= arr": 6251,
      "pai": 6252,
      "paw": 6253,
      "(self, num": 6254,
      "        return dfs(": 6255,
      "s of a ": 6256,
      "all(": 6257,
      "-1)\r\n": 6258,
      "result)\r\n": 6259,
      "user": 6260,
      ". If there is no ": 6261,
      "Return the maximum possible ": 6262,
      "1] == ": 6263,
      "following:\r\n": 6264,
      "track the ": 6265,
      "s. Each ": 6266,
      "Explanation: The longest ": 6267,
      "other words, ": 6268,
      "ages ": 6269,
      ".length == n\r\n": 6270,
      "`k`.\r\n": 6271,
      "[2,1,": 6272,
      "largest possible ": 6273,
      "node.children": 6274,
      "lowercase letter": 6275,
      "queries:\r\n": 6276,
      "0],[2,": 6277,
      "positive integer": 6278,
      "matching ": 6279,
      "exists.\r\n": 6280,
      "appears in ": 6281,
      ", so we ": 6282,
      "dictionary to store the ": 6283,
      "build the ": 6284,
      "insert ": 6285,
      "(self, n: int) -> int:\r\n": 6286,
      "2, 3, 4, ": 6287,
      "down, ": 6288,
      "wee": 6289,
      "subtract": 6290,
      "candidate ": 6291,
      "capacity": 6292,
      "lru_cache\r\n": 6293,
      "brick": 6294,
      "intersection": 6295,
      "alphabet": 6296,
      "xi, y": 6297,
      "an edge between ": 6298,
      "s(self, n: int, ": 6299,
      "So the ": 6300,
      "from functools import lru_cache\r\n": 6301,
      "Explanation: In this example": 6302,
      "constant ": 6303,
      "low, high": 6304,
      "0  # ": 6305,
      "17": 6306,
      "::": 6307,
      "Palindro": 6308,
      "Sim": 6309,
      "[3,2,": 6310,
      "ct = ": 6311,
      "est_": 6312,
      "gl": 6313,
      "ive ": 6314,
      "i.e.": 6315,
      "k_": 6316,
      "k]\r\n": 6317,
      "lang": 6318,
      "m)]\r\n": 6319,
      "nth ": 6320,
      "ot ": 6321,
      "sor": 6322,
      "s` to ": 6323,
      "        left = ": 6324,
      "iner": 6325,
      "inorder": 6326,
      "inside ": 6327,
      "reward": 6328,
      ". By ": 6329,
      "a total of ": 6330,
      "unit ": 6331,
      "an even ": 6332,
      "                result": 6333,
      "                count += 1\r\n": 6334,
      "nums1 ": 6335,
      "10 = ": 6336,
      "10], ": 6337,
      "ess ": 6338,
      "ght ": 6339,
      "        # Start ": 6340,
      "profi": 6341,
      "abbrevi": 6342,
      "verti": 6343,
      "sell": 6344,
      "as many ": 6345,
      "Explanation: It is ": 6346,
      "irr": 6347,
      "Replace ": 6348,
      "to the result ": 6349,
      ") -> List[str]:\r\n": 6350,
      "You must ": 6351,
      "elements, ": 6352,
      "        return -1\r\n": 6353,
      "[0..": 6354,
      "            if current_": 6355,
      "so that the ": 6356,
      "iden": 6357,
      "results of ": 6358,
      "[i].length == 2\r\n": 6359,
      "is a subsequence of ": 6360,
      "pairs (": 6361,
      "elements from the ": 6362,
      "representing a ": 6363,
      "            return -1\r\n": 6364,
      "j <= ": 6365,
      "sizes ": 6366,
      "6,2,": 6367,
      "set:\r\n": 6368,
      "digit\r\n": 6369,
      "digits, ": 6370,
      "        for i in range(n - ": 6371,
      "smallest possible ": 6372,
      "dot ": 6373,
      "efficiently.\r\n": 6374,
      "long ": 6375,
      "line": 6376,
      "                # Check ": 6377,
      "Input: n = 2, ": 6378,
      "group.\r\n": 6379,
      "make all ": 6380,
      "updated ": 6381,
      "n == nums.length\r\n": 6382,
      "structure": 6383,
      "prerequisit": 6384,
      "decreas": 6385,
      "ballo": 6386,
      "Output: 15\r\n": 6387,
      "first.\r\n": 6388,
      "To solve this problem, we can use a ": 6389,
      "Position": 6390,
      "float('inf')] ": 6391,
      "more than one ": 6392,
      "concatenated ": 6393,
      "larger than ": 6394,
      "slot": 6395,
      "Let's implement this ": 6396,
      "iterating through the ": 6397,
      "Indices": 6398,
      "        nums.sort()\r\n": 6399,
      "Given the constraints, ": 6400,
      "The input is generated such that ": 6401,
      "Base case: ": 6402,
      "\"ac": 6403,
      "\"],\r\n": 6404,
      "'e": 6405,
      ".sort(": 6406,
      "1. We ": 6407,
      "500": 6408,
      "5000\r\n": 6409,
      "O\",\"": 6410,
      "Roo": 6411,
      "[p": 6412,
      "_length": 6413,
      "cer": 6414,
      "hen": 6415,
      "j)\r\n": 6416,
      "nat": 6417,
      "pack": 6418,
      "sou": 6419,
      "ting the ": 6420,
      "win ": 6421,
      "        direction": 6422,
      "onto the ": 6423,
      "enari": 6424,
      "to store ": 6425,
      "ing this ": 6426,
      "n x n ": 6427,
      "Thus, ": 6428,
      "                left += 1\r\n": 6429,
      "for large ": 6430,
      "subproblem": 6431,
      "length of a ": 6432,
      "array by ": 6433,
      "number of unique ": 6434,
      "light": 6435,
      "by 1.\r\n": 6436,
      "Construction": 6437,
      ". The final ": 6438,
      "counting ": 6439,
      "        return dp": 6440,
      "up, ": 6441,
      "parts ": 6442,
      "row.\r\n": 6443,
      "You are given an m x n ": 6444,
      "graph\r\n": 6445,
      "right to ": 6446,
      "scenari": 6447,
      "cost is ": 6448,
      "result += ": 6449,
      "Change ": 6450,
      "Given an array ": 6451,
      "move to ": 6452,
      "Input: s = \"ab": 6453,
      "increase": 6454,
      "                # Calculate the ": 6455,
      "cost.\r\n": 6456,
      "local ": 6457,
      "This solution uses the ": 6458,
      "[2,3,": 6459,
      "[2,4,": 6460,
      "cell is ": 6461,
      "path.\r\n": 6462,
      "floor ": 6463,
      ", return false.\r\n": 6464,
      "also be ": 6465,
      "gain": 6466,
      "popul": 6467,
      "match the ": 6468,
      "matrix.\r\n": 6469,
      "3] and ": 6470,
      "first, ": 6471,
      "max(max_length, ": 6472,
      "else -1\r\n": 6473,
      "common divisor ": 6474,
      "Pos": 6475,
      "False`.\r\n": 6476,
      "it's impossible to ": 6477,
      "Values": 6478,
      "satisfies ": 6479,
      "length = max(max_length, ": 6480,
      "Select ": 6481,
      "Result ": 6482,
      "empty.\r\n": 6483,
      "leading zeros.\r\n": 6484,
      "whether the ": 6485,
      "time complexity of this ": 6486,
      "obtained by ": 6487,
      "mention": 6488,
      "        result = 0\r\n": 6489,
      "restriction": 6490,
      "Difference": 6491,
      "(BFS) ": 6492,
      "        graph = defaultdict(list)\r\n": 6493,
      "wants to ": 6494,
      "success": 6495,
      "4 - ": 6496,
      ":0": 6497,
      "Id": 6498,
      "`current_": 6499,
      "a\".\r\n": 6500,
      "call": 6501,
      "gn": 6502,
      "ili": 6503,
      "n)": 6504,
      "        \"": 6505,
      "ste": 6506,
      "leg": 6507,
      "ch the ": 6508,
      "desi": 6509,
      "cop": 6510,
      "in ascending ": 6511,
      "sup": 6512,
      ") are ": 6513,
      "                new_": 6514,
      "[i ": 6515,
      "gets ": 6516,
      "Integ": 6517,
      "Input: board ": 6518,
      "ned": 6519,
      "submatrix ": 6520,
      "length is ": 6521,
      "[i] <= 109\r\n": 6522,
      "share": 6523,
      "shop ": 6524,
      "Cont": 6525,
      "words.\r\n": 6526,
      "vide": 6527,
      "maximum and ": 6528,
      "< len(": 6529,
      "] = i\r\n": 6530,
      "node 0 ": 6531,
      "will store the ": 6532,
      "pairs.\r\n": 6533,
      "elements of the ": 6534,
      "priz": 6535,
      ", the number of ": 6536,
      "size\r\n": 6537,
      "numbers, ": 6538,
      "iterto": 6539,
      "return the answer ": 6540,
      "path is ": 6541,
      "cubo": 6542,
      "1],[3,": 6543,
      "remove": 6544,
      "next\r\n": 6545,
      ". This allows us to ": 6546,
      "You are given a 2D integer array ": 6547,
      "digit in ": 6548,
      "ending at ": 6549,
      "occurrence": 6550,
      "include": 6551,
      "good": 6552,
      "Bob's ": 6553,
      "less than or equal to the ": 6554,
      "even and ": 6555,
      "directions:\r\n": 6556,
      "-100": 6557,
      "change the ": 6558,
      "joint ": 6559,
      "skip": 6560,
      "Input: grid = [[1,": 6561,
      "avoid": 6562,
      "happy ": 6563,
      "missing": 6564,
      "triangle ": 6565,
      "Move the ": 6566,
      "O(n) time complex": 6567,
      "peak ": 6568,
      "row, col": 6569,
      "nums[j]": 6570,
      ". Finally, it returns the ": 6571,
      "tuple(": 6572,
      "dx, d": 6573,
      "try to ": 6574,
      "consonant": 6575,
      "14,": 6576,
      "77": 6577,
      "7 = ": 6578,
      "Dy": 6579,
      "More ": 6580,
      "[n - ": 6581,
      "`, and ": 6582,
      "ai and ": 6583,
      "butt": 6584,
      "cal": 6585,
      "ice ": 6586,
      "might ": 6587,
      "o, ": 6588,
      "        dfs(": 6589,
      "        prefix_sum": 6590,
      "s for the ": 6591,
      "en.\r\n": 6592,
      "ency": 6593,
      "arrange ": 6594,
      "ster ": 6595,
      "of n ": 6596,
      "plus the ": 6597,
      "Then": 6598,
      "ime": 6599,
      "active ": 6600,
      "nums):\r\n": 6601,
      "The sum of the ": 6602,
      "white ": 6603,
      "subse": 6604,
      "x <= ": 6605,
      "1, the ": 6606,
      "twor": 6607,
      "\",\"a": 6608,
      "                    new_": 6609,
      "                    count += 1\r\n": 6610,
      "(self, word": 6611,
      "    def can": 6612,
      "in range(n):\r\n": 6613,
      "        return len(": 6614,
      "two numbers ": 6615,
      "method": 6616,
      "s = sorted(": 6617,
      "kets ": 6618,
      "        for j in range(": 6619,
      "dp[i] = ": 6620,
      "\" to ": 6621,
      "rightmost ": 6622,
      "index is ": 6623,
      "operations, ": 6624,
      "sequences": 6625,
      "node in ": 6626,
      "which are ": 6627,
      "' in ": 6628,
      "from the second ": 6629,
      "time and ": 6630,
      "Input: nums = [3,": 6631,
      "k = 0\r\n": 6632,
      "graph is ": 6633,
      "n - 1:\r\n": 6634,
      "non_": 6635,
      "set bits ": 6636,
      "answer to the ": 6637,
      "non-zero ": 6638,
      "and the last ": 6639,
      "[0] * ": 6640,
      "intersect": 6641,
      "1) // ": 6642,
      "zero.\r\n": 6643,
      "2] and ": 6644,
      "3,4]]\r\n": 6645,
      "out of ": 6646,
      ". We then ": 6647,
      "s` module ": 6648,
      ": List[int], nums2": 6649,
      "at most k ": 6650,
      "replacement": 6651,
      "negative": 6652,
      "Defin": 6653,
      "Option ": 6654,
      "vowel ": 6655,
      "construct the ": 6656,
      "        # Iterate over the ": 6657,
      "Person ": 6658,
      "merge ": 6659,
      ", we return `": 6660,
      "In the first ": 6661,
      "occurrence of each ": 6662,
      "Return the minimum number of operations ": 6663,
      "needed\r\n": 6664,
      "Box": 6665,
      "% 2 == ": 6666,
      "bisect_right": 6667,
      "bric": 6668,
      "tive, ": 6669,
      "Result**: The ": 6670,
      "domino": 6671,
      "This solution iterates through each ": 6672,
      "easily ": 6673,
      "(self, grid: List[List[int]]) -> int:\r\n": 6674,
      "Generate ": 6675,
      "        left, right = 0, ": 6676,
      "            mid = (left + right": 6677,
      "knight ": 6678,
      "Push": 6679,
      "        # Helper function to ": 6680,
      "A substring is a contiguous ": 6681,
      "Continu": 6682,
      "'O": 6683,
      "12\r\n": 6684,
      "200\r\n": 6685,
      "3)\r\n": 6686,
      "30,": 6687,
      "54": 6688,
      "50,": 6689,
      "89": 6690,
      ":00": 6691,
      "Group": 6692,
      "Loo": 6693,
      "a)\r\n": 6694,
      "ced": 6695,
      "ld": 6696,
      "ping ": 6697,
      "    \r\n": 6698,
      "s += ": 6699,
      ", a ": 6700,
      "ing to ": 6701,
      "] for ": 6702,
      "Extra": 6703,
      "main": 6704,
      "fic": 6705,
      "that satisfies the ": 6706,
      "assign ": 6707,
      "loom": 6708,
      "nei": 6709,
      "networ": 6710,
      "version": 6711,
      "1 <= Node.val ": 6712,
      "with length ": 6713,
      "with all ": 6714,
      "char)\r\n": 6715,
      "<= 10\r\n": 6716,
      "s = [0] ": 6717,
      "\",\r\n": 6718,
      "Conne": 6719,
      "ilar ": 6720,
      "elements to ": 6721,
      "s = set()\r\n": 6722,
      "dp[i-1][": 6723,
      "3 * 104\r\n": 6724,
      "used_": 6725,
      "there exists ": 6726,
      "Input: nums = [0,": 6727,
      "s[i] is either ": 6728,
      "self.rank[root": 6729,
      "approach is ": 6730,
      "location": 6731,
      "cell in the ": 6732,
      "Check": 6733,
      "sign the ": 6734,
      "constraints and ": 6735,
      "space.\r\n": 6736,
      "adjacent": 6737,
      "1 <= nums.length <= 100\r\n": 6738,
      "it is impossible to ": 6739,
      "s.sort(": 6740,
      "consists of lowercase English letters.\r\n": 6741,
      "does not have ": 6742,
      "combined ": 6743,
      "-105 ": 6744,
      "backward": 6745,
      "fuel": 6746,
      "count the occurrences of each ": 6747,
      "'1'": 6748,
      "True`.\r\n": 6749,
      "fruits ": 6750,
      "from 1 to n": 6751,
      "Operation ": 6752,
      "            for i in range(1, ": 6753,
      "        # Check if the ": 6754,
      "1 <= m, n ": 6755,
      "Given an array of integers ": 6756,
      "bracket": 6757,
      "Second ": 6758,
      "        stack = []\r\n": 6759,
      "%= ": 6760,
      "(p": 6761,
      "1-": 6762,
      "16,": 6763,
      "1.length, ": 6764,
      "300\r\n": 6765,
      "3) = ": 6766,
      "3]], ": 6767,
      "Grid": 6768,
      "Hand": 6769,
      "It": 6770,
      "Y ": 6771,
      "[-": 6772,
      "b\"\r\n": 6773,
      "full": 6774,
      "ith": 6775,
      "ly-": 6776,
      "ming": 6777,
      "n)\r\n": 6778,
      "s))\r\n": 6779,
      "sand": 6780,
      "s[i - ": 6781,
      "tle": 6782,
      "temp": 6783,
      "v)\r\n": 6784,
      "s or ": 6785,
      "instruction": 6786,
      "t to ": 6787,
      "ans = ": 6788,
      "stines": 6789,
      "coin ": 6790,
      "n % ": 6791,
      "n is the length of the ": 6792,
      "turn, ": 6793,
      ") * (": 6794,
      "most_": 6795,
      "edy ": 6796,
      "i is ": 6797,
      "[i] and ": 6798,
      "s of each ": 6799,
      "integer matrix ": 6800,
      ", we will ": 6801,
      "points\r\n": 6802,
      "second.\r\n": 6803,
      "A string ": 6804,
      "1,2,2,": 6805,
      "angle": 6806,
      "function returns `": 6807,
      "heap = [": 6808,
      "nodes with ": 6809,
      ". It is ": 6810,
      "root node ": 6811,
      "answer[i] is the ": 6812,
      "space": 6813,
      "neighbor)\r\n": 6814,
      "i < n\r\n": 6815,
      "`n` is ": 6816,
      "replacing ": 6817,
      "[i], nums2": 6818,
      ") + 1\r\n": 6819,
      "parent[x": 6820,
      "for a cost of ": 6821,
      "            for j in range(i + 1, ": 6822,
      "There is only one ": 6823,
      "'1'.\r\n": 6824,
      "False] ": 6825,
      "similar ": 6826,
      "changed": 6827,
      "satisfy ": 6828,
      "appli": 6829,
      "apply the ": 6830,
      "].append((": 6831,
      "manag": 6832,
      "distinct_": 6833,
      "farthest ": 6834,
      "filled ": 6835,
      "mile": 6836,
      "consist of lowercase English letters.\r\n": 6837,
      "row and column ": 6838,
      "bag ": 6839,
      "threshol": 6840,
      "#\",\"#\",\"": 6841,
      "staur": 6842,
      "', and '": 6843,
      "true,": 6844,
      "min-heap ": 6845,
      "log n) ": 6846,
      "following conditions:\r\n": 6847,
      "pyra": 6848,
      "perfect ": 6849,
      "breadth-first search ": 6850,
      "This solution defines a helper function `": 6851,
      "Input: mat = [": 6852,
      "subsequent ": 6853,
      "(current_": 6854,
      ", ": 6855,
      "0, and ": 6856,
      "11, ": 6857,
      "12, ": 6858,
      "2` ": 6859,
      "200": 6860,
      "26\r\n": 6861,
      "5: ": 6862,
      "Fact": 6863,
      "Get the ": 6864,
      "Using ": 6865,
      "We": 6866,
      "[num": 6867,
      "[left": 6868,
      "`arr": 6869,
      "bloom": 6870,
      "dra": 6871,
      "poly": 6872,
      "sq": 6873,
      "s.length <= 100\r\n": 6874,
      "        count = ": 6875,
      "s + ": 6876,
      "s becomes ": 6877,
      "d of ": 6878,
      "ore the ": 6879,
      "allo": 6880,
      "is 2.\r\n": 6881,
      "er = ": 6882,
      "urch": 6883,
      "rati": 6884,
      "or \"": 6885,
      "mach": 6886,
      "ribb": 6887,
      "am ": 6888,
      "quad": 6889,
      "- `": 6890,
      "for this ": 6891,
      "from node ": 6892,
      "1 <= n == ": 6893,
      "fore ": 6894,
      "with its ": 6895,
      "\",\"ab": 6896,
      "string and ": 6897,
      "words in ": 6898,
      "sum = 0\r\n": 6899,
      "one or more ": 6900,
      "maximum profit ": 6901,
      "run ": 6902,
      "3 to ": 6903,
      "where `dp": 6904,
      "results in ": 6905,
      "is a string ": 6906,
      "answers ": 6907,
      "ison": 6908,
      "such as ": 6909,
      "none": 6910,
      "7,6,": 6911,
      "occup": 6912,
      "directions ": 6913,
      "puzz": 6914,
      "containing the ": 6915,
      "Calculation**: We ": 6916,
      "increase ": 6917,
      "position of the ": 6918,
      "remains ": 6919,
      "connection": 6920,
      "singly-": 6921,
      "spaces.\r\n": 6922,
      "powers of ": 6923,
      "[1,2,3,4,": 6924,
      "values\r\n": 6925,
      "ensure the ": 6926,
      "dy\r\n": 6927,
      "extend": 6928,
      "product is ": 6929,
      "descend": 6930,
      "num in enumerate(": 6931,
      "                for j in range(": 6932,
      "chocol": 6933,
      "suffix_": 6934,
      "covered ": 6935,
      "courses ": 6936,
      "partition the ": 6937,
      "otherwise ": 6938,
      "non-empty sequence of ": 6939,
      "Search": 6940,
      "DP table ": 6941,
      "nums[i])\r\n": 6942,
      "LCM": 6943,
      "Return the minimum possible ": 6944,
      "Binary Search ": 6945,
      "Prefix": 6946,
      "message": 6947,
      "Base Case": 6948,
      "x and y ": 6949,
      ": List[List[int]]) -> List[int]:\r\n": 6950,
      "greatest common divisor ": 6951,
      "removal": 6952,
      "redundant calculations.\r\n": 6953,
      "Given the root of a binary tree, ": 6954,
      "Height": 6955,
      "ui, vi": 6956,
      "                left = mid + 1\r\n": 6957,
      "front ": 6958,
      "To solve this problem efficiently": 6959,
      "asteroid": 6960,
      "certain ": 6961,
      "        directions = [": 6962,
      "34": 6963,
      "5 - ": 6964,
      "8],[": 6965,
      "Len": 6966,
      "Zer": 6967,
      "[start": 6968,
      "[3,4,": 6969,
      "]  # ": 6970,
      "`p": 6971,
      "i):\r\n": 6972,
      "k) ": 6973,
      "pizz": 6974,
      "r in range(": 6975,
      "arm": 6976,
      "art": 6977,
      "tition": 6978,
      "stor ": 6979,
      "along ": 6980,
      "of any ": 6981,
      "of this ": 6982,
      "cher": 6983,
      "see ": 6984,
      "to get the ": 6985,
      "to keep track of ": 6986,
      "cook": 6987,
      "] <= ": 6988,
      "put:": 6989,
      "diame": 6990,
      "or a ": 6991,
      "- Choose ": 6992,
      "for any ": 6993,
      "= [1,2,": 6994,
      "minus the ": 6995,
      "ed:\r\n": 6996,
      "        # We ": 6997,
      "Explanation: \"": 6998,
      "all pairs of ": 6999,
      "node)\r\n": 7000,
      "s the same ": 7001,
      "(self.": 7002,
      "word)\r\n": 7003,
      "tastines": 7004,
      "        return dp[": 7005,
      "moves\r\n": 7006,
      "            # Try ": 7007,
      "This solution sorts the ": 7008,
      "] = root": 7009,
      "ever ": 7010,
      "number, ": 7011,
      "\"a\", ": 7012,
      "find the maximum ": 7013,
      "word in word": 7014,
      "        def count_": 7015,
      "indices of ": 7016,
      "cells are ": 7017,
      "costs ": 7018,
      "2] -> ": 7019,
      "column\r\n": 7020,
      "following way": 7021,
      "determines the ": 7022,
      ") - 1\r\n": 7023,
      "help ": 7024,
      "define a ": 7025,
      "combination ": 7026,
      "input list ": 7027,
      "parent[root": 7028,
      "This solution uses a sliding window ": 7029,
      "To solve this problem, we can use ": 7030,
      "add it to the ": 7031,
      "indices\r\n": 7032,
      "squares ": 7033,
      "'1' ": 7034,
      "'0' ": 7035,
      "lexicographical ": 7036,
      "palindromes ": 7037,
      "absolute difference ": 7038,
      "        dp = [0] ": 7039,
      "connecting ": 7040,
      "Perform ": 7041,
      "            # Check if the current ": 7042,
      "# Definition for ": 7043,
      "Distance ": 7044,
      "ListNode:\r\n": 7045,
      "alphabet ": 7046,
      "is defined as the ": 7047,
      "Hence, the answer is ": 7048,
      "Minimum ": 7049,
      "2 <= n <= 105\r\n": 7050,
      "earliest ": 7051,
      "        while left < right:\r\n": 7052,
      "test cases are ": 7053,
      "with memoization to ": 7054,
      "space complexity is ": 7055,
      "To solve the problem of finding the ": 7056,
      "        queue = deque([": 7057,
      "immediately ": 7058,
      "uf.": 7059,
      "0).\r\n": 7060,
      "0]], ": 7061,
      "Pop": 7062,
      "RR": 7063,
      "T ": 7064,
      "Un": 7065,
      "XOR": 7066,
      "]):\r\n": 7067,
      "cry": 7068,
      "game": 7069,
      "n ": 7070,
      "instea": 7071,
      "ans": 7072,
      "= {}\r\n": 7073,
      "reserv": 7074,
      ": \"": 7075,
      "is used ": 7076,
      "rout": 7077,
      "            right_": 7078,
      "dir": 7079,
      "difficul": 7080,
      "Expl": 7081,
      "units ": 7082,
      "es that ": 7083,
      ") of the ": 7084,
      "ole ": 7085,
      "                count += ": 7086,
      "100,": 7087,
      "Inter": 7088,
      "for every ": 7089,
      "fill ": 7090,
      "oton": 7091,
      "> max_": 7092,
      "        # Calculate ": 7093,
      "0 if ": 7094,
      "finding ": 7095,
      "List[List[str]": 7096,
      "Consi": 7097,
      "][0] ": 7098,
      "while the ": 7099,
      "string `s` ": 7100,
      "words\r\n": 7101,
      "word1 = ": 7102,
      "You need to ": 7103,
      "first two ": 7104,
      "row][col": 7105,
      "current number ": 7106,
      "index `i": 7107,
      "where edges[i] = [": 7108,
      "which is a ": 7109,
      "), the ": 7110,
      "Input: nums = [1,1,": 7111,
      "characters\r\n": 7112,
      "bus ": 7113,
      "differences": 7114,
      "Output: [[1,": 7115,
      "nums[i] + ": 7116,
      "divided ": 7117,
      "divided by ": 7118,
      "[0] * n for _ in range(": 7119,
      ". It uses a ": 7120,
      "after removing ": 7121,
      "longest_": 7122,
      "[2,2,": 7123,
      "compute ": 7124,
      "1. **Graph ": 7125,
      "matched ": 7126,
      "iterates through each ": 7127,
      "1 <= nums.length <= 1000\r\n": 7128,
      "Dig": 7129,
      "#         self.next = ": 7130,
      "Subtra": 7131,
      "closing ": 7132,
      "[1])\r\n": 7133,
      "above shows the ": 7134,
      "distance\r\n": 7135,
      "1,0,1,": 7136,
      "fuel ": 7137,
      "indices.\r\n": 7138,
      "correspond": 7139,
      "'1's ": 7140,
      "'0'": 7141,
      "Choose the ": 7142,
      "mana ": 7143,
      "achieve the ": 7144,
      "            # Check if the ": 7145,
      "for _ in range(n)]\r\n": 7146,
      "# class ListNode:\r\n": 7147,
      "Moves": 7148,
      "Trie": 7149,
      "s. It then ": 7150,
      "in-place ": 7151,
      "converts the ": 7152,
      "intersection ": 7153,
      "dp array ": 7154,
      "is defined as ": 7155,
      "total cost is ": 7156,
      "This code defines a ": 7157,
      "Recursively ": 7158,
      "accordingly.\r\n": 7159,
      "boole": 7160,
      "modulo \\(10^9 + 7\\).\r\n": 7161,
      "Depth-First Search ": 7162,
      "Mark the ": 7163,
      "mutation": 7164,
      "bulb": 7165,
      "        left = 0\r\n": 7166,
      "maximum and minimum ": 7167,
      "            mid = (left + right) // 2\r\n": 7168,
      "We'll ": 7169,
      "singly-linked list.\r\n": 7170,
      "# Definition for singly-linked list.\r\n": 7171,
      "(a ": 7172,
      "). The ": 7173,
      "+1": 7174,
      ".\"],[\"": 7175,
      "2\",\"": 7176,
      "36": 7177,
      "5.": 7178,
      "7].\r\n": 7179,
      "SC": 7180,
      "Sh": 7181,
      "Set": 7182,
      "[b": 7183,
      "`start": 7184,
      "`(i, j": 7185,
      "bf": 7186,
      "bran": 7187,
      "i] ": 7188,
      "pon": 7189,
      "s[i][j] ": 7190,
      "s:\\r\r\n": 7191,
      "t_": 7192,
      "y)\r\n": 7193,
      "recor": 7194,
      "in which ": 7195,
      "- \"": 7196,
      "- Swap ": 7197,
      "account": 7198,
      "acces": 7199,
      "m - 1, ": 7200,
      "The second ": 7201,
      "Instea": 7202,
      "Output: 4": 7203,
      "lose": 7204,
      "number that ": 7205,
      "0 degre": 7206,
      "[i] != ": 7207,
      "[i] <= 105\r\n": 7208,
      "come ": 7209,
      "with no ": 7210,
      "                    dp[i][j] = ": 7211,
      "sibility ": 7212,
      "below ": 7213,
      "        return self.": 7214,
      "-1], ": 7215,
      "\", k = 2\r\n": 7216,
      "0, 0, ": 7217,
      "idx": 7218,
      "sequence.\r\n": 7219,
      "] = 0\r\n": 7220,
      "ood": 7221,
      "green ": 7222,
      "with the given ": 7223,
      "Output: [[": 7224,
      "result is the ": 7225,
      "probability ": 7226,
      "target_": 7227,
      "function `": 7228,
      "complement ": 7229,
      "heap\r\n": 7230,
      "non-increasing ": 7231,
      "starting point ": 7232,
      "at the end": 7233,
      "Input: n = 1\r\n": 7234,
      "zero_": 7235,
      "` to keep track of the ": 7236,
      "queries[i] = [": 7237,
      "1 <= n <= 100\r\n": 7238,
      "namic Pro": 7239,
      "strings word": 7240,
      "'a', '": 7241,
      "query is ": 7242,
      "construct ": 7243,
      "i and j ": 7244,
      "occur ": 7245,
      "In the second ": 7246,
      "filter": 7247,
      "(0, 0) ": 7248,
      "starts at ": 7249,
      "any number of times:\r\n": 7250,
      "inclusive ": 7251,
      ". In one ": 7252,
      "        # Step 1: ": 7253,
      "peak": 7254,
      "_sum = sum(": 7255,
      "lcm": 7256,
      "necessary ": 7257,
      "Here's the implementation of the above approach:\r\n": 7258,
      "ugly ": 7259,
      "belong": 7260,
      "priority queue ": 7261,
      "set = set(": 7262,
      "Here's the complete solution:\r\n": 7263,
      "fewer than ": 7264,
      "ological ": 7265,
      "time complexity of this solution is ": 7266,
      "dx, dy in ": 7267,
      "Dynamic Pro": 7268,
      "neither ": 7269,
      "Depth-First Search (DFS": 7270,
      "Dynamic Program": 7271,
      "'?": 7272,
      "(1 ": 7273,
      "(arr": 7274,
      "*= ": 7275,
      ". \r\n": 7276,
      "0. ": 7277,
      "6]]\r\n": 7278,
      ":** ": 7279,
      "At the ": 7280,
      "Dur": 7281,
      "Sk": 7282,
      "W\",\"": 7283,
      "]) -> ": 7284,
      "c.\r\n": 7285,
      "card ": 7286,
      "gir": 7287,
      "q = ": 7288,
      "sal": 7289,
      "s)):\r\n": 7290,
      " <= ": 7291,
      "thi": 7292,
      "= 3\r\n": 7293,
      "sters ": 7294,
      "nums of ": 7295,
      "chun": 7296,
      "ded": 7297,
      "er is ": 7298,
      "among the ": 7299,
      "an odd ": 7300,
      "itation": 7301,
      "of the approach:\r\n": 7302,
      "whole ": 7303,
      "` class ": 7304,
      "        # Re": 7305,
      "        # Count ": 7306,
      "each character ": 7307,
      "forward": 7308,
      "char_count[": 7309,
      "ire ": 7310,
      "all numbers ": 7311,
      "nodes, ": 7312,
      "s, and the ": 7313,
      "ending_": 7314,
      "t = 0\r\n": 7315,
      "strings.\r\n": 7316,
      "strings are ": 7317,
      "\" can be ": 7318,
      "part of ": 7319,
      "rows and ": 7320,
      "**: Finally": 7321,
      "idx ": 7322,
      "), which is ": 7323,
      "us_": 7324,
      "no two ": 7325,
      "no such ": 7326,
      "pairs\r\n": 7327,
      "element of the ": 7328,
      "elements within ": 7329,
      "represented by a ": 7330,
      "Input: nums = [1,3,": 7331,
      ", the answer is ": 7332,
      "greedy ": 7333,
      "with the minimum ": 7334,
      "stack\r\n": 7335,
      "\"aba": 7336,
      "rooted at ": 7337,
      "dog": 7338,
      "sum of a ": 7339,
      "word = \"": 7340,
      ". It keeps track of the ": 7341,
      "integers in ": 7342,
      "cells.\r\n": 7343,
      "start + ": 7344,
      "1) + ": 7345,
      "removes ": 7346,
      "Input: n = 2\r\n": 7347,
      "next=None):\r\n": 7348,
      "day.\r\n": 7349,
      "following rules:\r\n": 7350,
      "root of the ": 7351,
      "mid):\r\n": 7352,
      "English letters.\r\n": 7353,
      "dp[j": 7354,
      "exists a ": 7355,
      "shown in the ": 7356,
      "height of ": 7357,
      "-104 <= ": 7358,
      "cases ": 7359,
      "Output: 13\r\n": 7360,
      "without changing the ": 7361,
      "making the ": 7362,
      "distance, ": 7363,
      "respective ": 7364,
      "freq = ": 7365,
      "connected to ": 7366,
      "top of the ": 7367,
      "linked list": 7368,
      "        for i in range(1, n + 1):\r\n": 7369,
      "subsequences of ": 7370,
      "Answ": 7371,
      "You are given an integer array nums and ": 7372,
      "Number of ": 7373,
      "Sorting": 7374,
      "expected ": 7375,
      "seen_": 7376,
      "guaranteed to be ": 7377,
      "subtree\r\n": 7378,
      "#     def __init__(self, val=0, next=None):\r\n": 7379,
      "queries = [[0,": 7380,
      "= [0] * ": 7381,
      "Length ": 7382,
      "chair": 7383,
      "above": 7384,
      "Index": 7385,
      "processing all ": 7386,
      "prefer": 7387,
      "Alice's ": 7388,
      "a and b ": 7389,
      "This solution uses dynamic programming to solve the problem": 7390,
      "plit the ": 7391,
      "favorite": 7392,
      "Charac": 7393,
      "significant ": 7394,
      "max-heap ": 7395,
      "}, {": 7396,
      "(nx, ny": 7397,
      "paired ": 7398,
      "langu": 7399,
      "sqrt": 7400,
      "occupi": 7401,
      "#         self.next = next\r\n": 7402,
      "\"\\r\r\n": 7403,
      "'(": 7404,
      "++": 7405,
      "1\", \"": 7406,
      "12.\r\n": 7407,
      "3), (": 7408,
      "6. ": 7409,
      "6].\r\n": 7410,
      "7]]\r\n": 7411,
      "Bar": 7412,
      "FF": 7413,
      "Right": 7414,
      "[3], ": 7415,
      "`t": 7416,
      "bro": 7417,
      "ca": 7418,
      "c in range(": 7419,
      "ef ": 7420,
      "fits ": 7421,
      "gar": 7422,
      "i.e. ": 7423,
      "l = ": 7424,
      "q.append(": 7425,
      "s from the ": 7426,
      "recur": 7427,
      "along the ": 7428,
      "is [": 7429,
      "semi": 7430,
      "del": 7431,
      "cover ": 7432,
      "            current = ": 7433,
      "if you ": 7434,
      "The longest ": 7435,
      "frog ": 7436,
      "` pointer ": 7437,
      "k + 1):\r\n": 7438,
      "preorder": 7439,
      "edu": 7440,
      "        # dp": 7441,
      ". The `dp` ": 7442,
      "arrays.\r\n": 7443,
      "s = {": 7444,
      "3 -> ": 7445,
      "moves.\r\n": 7446,
      "current index ": 7447,
      "current element ": 7448,
      "current character ": 7449,
      "you must ": 7450,
      "has length ": 7451,
      "0 <= ai, b": 7452,
      "s and then ": 7453,
      "Input: nums = [2,3,": 7454,
      "            return count\r\n": 7455,
      "follows the ": 7456,
      "j] + ": 7457,
      "tree and ": 7458,
      "for the next ": 7459,
      "indices of the ": 7460,
      "order to ": 7461,
      "range of ": 7462,
      "1) / ": 7463,
      ".length <= 50\r\n": 7464,
      "path\r\n": 7465,
      "`nums`.\r\n": 7466,
      "node.val ": 7467,
      "answer\r\n": 7468,
      "Return an integer ": 7469,
      "print": 7470,
      "aaaa": 7471,
      "s of the same ": 7472,
      "there is an edge between ": 7473,
      "timestamp": 7474,
      "closed ": 7475,
      "some number of ": 7476,
      "This solution uses a depth-first search (DFS) ": 7477,
      "[j - ": 7478,
      "2,2,2,2,": 7479,
      "1 <= nums[i] <= 105\r\n": 7480,
      "prime number ": 7481,
      "True`": 7482,
      "column.\r\n": 7483,
      "simply ": 7484,
      "        for i in range(1, len(": 7485,
      ". The `dfs` function ": 7486,
      "        return max_length\r\n": 7487,
      "        result = [": 7488,
      "initialize a ": 7489,
      "char in enumerate(": 7490,
      "so_": 7491,
      "k-th ": 7492,
      "mapping ": 7493,
      "Increment the ": 7494,
      "stamp ": 7495,
      "        # Step 2: ": 7496,
      "LCA ": 7497,
      "list(range(": 7498,
      "leveraging the ": 7499,
      "        ans = []\r\n": 7500,
      "Key": 7501,
      "quality ": 7502,
      "finish the ": 7503,
      "xor_": 7504,
      "stair ": 7505,
      "Here's the implementation of the solution:\r\n": 7506,
      "In one operation, you can ": 7507,
      "nums1 and nums2 ": 7508,
      "2 * 105\r\n": 7509,
      "together": 7510,
      "Create a ": 7511,
      "        i = 0\r\n": 7512,
      ".items():\r\n": 7513,
      "        for u, v in ": 7514,
      "        \"\"\"\r\n": 7515,
      "sandwi": 7516,
      "brok": 7517,
      "\"]], ": 7518,
      "(i, ": 7519,
      "): ": 7520,
      ")))\r\n": 7521,
      ".val": 7522,
      "2\"\r\n": 7523,
      "2. We ": 7524,
      "5. ": 7525,
      "5) ": 7526,
      "88": 7527,
      "ID ": 7528,
      "Te": 7529,
      "Vi": 7530,
      "Word ": 7531,
      "]`.\r\n": 7532,
      "a.\r\n": 7533,
      "after": 7534,
      "edi": 7535,
      "ham": 7536,
      "kth": 7537,
      "min ": 7538,
      "maliz": 7539,
      "mirr": 7540,
      "plet": 7541,
      "spre": 7542,
      "s' ": 7543,
      "wra": 7544,
      "}.\r\n": 7545,
      "        left_": 7546,
      "s into ": 7547,
      "= False\r\n": 7548,
      "restaur": 7549,
      "            prefix_sum": 7550,
      "ing it ": 7551,
      ". When ": 7552,
      "ated by ": 7553,
      "Thus, the ": 7554,
      "an integer": 7555,
      "len = ": 7556,
      "- For ": 7557,
      "Input: num": 7558,
      "` (": 7559,
      "k - 1": 7560,
      "subseq": 7561,
      "length += 1\r\n": 7562,
      "mod ": 7563,
      "        # Process ": 7564,
      "in the given ": 7565,
      "array nums ": 7566,
      "array becomes ": 7567,
      "as we ": 7568,
      "share ": 7569,
      "ship": 7570,
      "Explanation: All ": 7571,
      "with each ": 7572,
      "low = ": 7573,
      "nodes\r\n": 7574,
      "\",\"d": 7575,
      ". The resulting ": 7576,
      "which the ": 7577,
      "bet": 7578,
      "bean": 7579,
      "count.\r\n": 7580,
      "sum + ": 7581,
      ", we have ": 7582,
      "traver": 7583,
      "-1],[": 7584,
      "3 (": 7585,
      "ical ": 7586,
      "0, 1, and ": 7587,
      "so return ": 7588,
      "lengths ": 7589,
      "lengths of ": 7590,
      "points to ": 7591,
      "] = 1\r\n": 7592,
      "creator": 7593,
      "will always ": 7594,
      "s that have ": 7595,
      "+ 1)]\r\n": 7596,
      "representation of the ": 7597,
      "s and t ": 7598,
      "s[i] != ": 7599,
      "contain the ": 7600,
      "numbers that ": 7601,
      "divides ": 7602,
      "direct ": 7603,
      "word in the ": 7604,
      "contains a ": 7605,
      "score = ": 7606,
      "ust the ": 7607,
      "2],[4,": 7608,
      "` and `nums2": 7609,
      "adds ": 7610,
      "[1, 2, 3, ": 7611,
      "Return an integer array ": 7612,
      "condition.\r\n": 7613,
      "decrement": 7614,
      "operation on ": 7615,
      "clean": 7616,
      "Valid": 7617,
      "        # Com": 7618,
      "signed ": 7619,
      "off ": 7620,
      "**: The `": 7621,
      "This solution efficiently finds the ": 7622,
      "This solution efficiently computes the ": 7623,
      "prime_": 7624,
      "achievable ": 7625,
      "Comput": 7626,
      "that, ": 7627,
      "----": 7628,
      "ancestor ": 7629,
      "stick ": 7630,
      "candidates": 7631,
      "twice": 7632,
      "format ": 7633,
      "distribute ": 7634,
      "tive.\r\n": 7635,
      "x + dx, ": 7636,
      "Query ": 7637,
      "once, ": 7638,
      "perio": 7639,
      "health": 7640,
      "Size": 7641,
      "Input: num = \"": 7642,
      "compressed ": 7643,
      "'c' ": 7644,
      "garden": 7645,
      "rating": 7646,
      "rink": 7647,
      "trailing zero": 7648,
      "enemy ": 7649,
      ".isdigit": 7650,
      "breakdown ": 7651,
      "penal": 7652,
      ". It can be shown that ": 7653,
      "continues until ": 7654,
      "strategy ": 7655,
      "damage ": 7656,
      "bisect_left(": 7657,
      "Insert ": 7658,
      "shorter ": 7659,
      "i.e., ": 7660,
      "identical ": 7661,
      "network ": 7662,
      "elements within an array.\r\n": 7663,
      "\"]": 7664,
      "'R": 7665,
      "'d": 7666,
      "-hour ": 7667,
      "11\r\n": 7668,
      "1))\r\n": 7669,
      "1\".\r\n": 7670,
      "25 ": 7671,
      "9 and ": 7672,
      "Do ": 7673,
      "Ro": 7674,
      "Tree ": 7675,
      "[8,": 7676,
      "[2] = ": 7677,
      "_size ": 7678,
      "`m": 7679,
      "email": 7680,
      "pet": 7681,
      "s**:\r\n": 7682,
      "u ": 7683,
      "        word": 7684,
      "er\r\n": 7685,
      "= True\r\n": 7686,
      "rea": 7687,
      "reg": 7688,
      ": Optional[ListNode": 7689,
      "of node ": 7690,
      "num:\r\n": 7691,
      "ses": 7692,
      "in that ": 7693,
      "in its ": 7694,
      "- (": 7695,
      "                dfs(": 7696,
      "The only ": 7697,
      "maxSum": 7698,
      "= [0,": 7699,
      "Input: s1 = ": 7700,
      "k * ": 7701,
      "it in ": 7702,
      "most": 7703,
      "        # Use a ": 7704,
      "2 is the ": 7705,
      "i in ": 7706,
      "i > ": 7707,
      "i in the ": 7708,
      "perime": 7709,
      "[i] < ": 7710,
      "comes ": 7711,
      "experi": 7712,
      "with sum ": 7713,
      "all valid ": 7714,
      "s = [[2,": 7715,
      "bomb": 7716,
      "\",\"E": 7717,
      "                    \r\n": 7718,
      "                    else:\r\n": 7719,
      "                    result.append(": 7720,
      "end\r\n": 7721,
      "to the first ": 7722,
      "        return min(": 7723,
      ", and a ": 7724,
      "import math": 7725,
      "s = len(": 7726,
      "0, the ": 7727,
      "currently ": 7728,
      "point\r\n": 7729,
      "node and ": 7730,
      "will have ": 7731,
      "s[2] ": 7732,
      "position, ": 7733,
      "grid[i][j": 7734,
      "            return max_": 7735,
      "right -= 1\r\n": 7736,
      "s in this ": 7737,
      "binary matrix ": 7738,
      "binary search": 7739,
      "5 * 10": 7740,
      "order, ": 7741,
      "and ": 7742,
      "set\r\n": 7743,
      "matrix, ": 7744,
      "open ": 7745,
      "orig": 7746,
      "divide the ": 7747,
      "digits\r\n": 7748,
      "Counting ": 7749,
      "[0] == ": 7750,
      "        def dp(": 7751,
      "remove(": 7752,
      "grid is ": 7753,
      "next greater ": 7754,
      ". This helps in ": 7755,
      "substring is ": 7756,
      "processes ": 7757,
      "1 + 1 = ": 7758,
      "Alice win": 7759,
      "these two ": 7760,
      "s_list": 7761,
      "ally, the ": 7762,
      "handles ": 7763,
      "Also": 7764,
      "convert the ": 7765,
      ") for i in range(": 7766,
      "runs in ": 7767,
      "dictionary `": 7768,
      "transform ": 7769,
      "else 0\r\n": 7770,
      "[3,1,": 7771,
      "'0' or ": 7772,
      "price of ": 7773,
      "attemp": 7774,
      "Produ": 7775,
      "ranges ": 7776,
      "# print(sol.min": 7777,
      "                    return True\r\n": 7778,
      "num_str": 7779,
      "duration": 7780,
      "not.\r\n": 7781,
      "properties": 7782,
      "simulate the ": 7783,
      "Trie ": 7784,
      "checking if the ": 7785,
      "head: Optional[ListNode": 7786,
      "maintaining a ": 7787,
      "-2,-": 7788,
      "_count = defaultdict(int)\r\n": 7789,
      "bucket ": 7790,
      "UnionFind": 7791,
      "half of the ": 7792,
      "non-negative integer ": 7793,
      "method `": 7794,
      "floor(": 7795,
      "based on their ": 7796,
      "X\",\"X\",\"": 7797,
      "l, r": 7798,
      "pivot ": 7799,
      "        for char in s:\r\n": 7800,
      "properties of ": 7801,
      "true if the ": 7802,
      "feasible ": 7803,
      "simultaneous": 7804,
      "), (1, 0), (0, -1": 7805,
      "More form": 7806,
      "garb": 7807,
      "import math\r\n": 7808,
      "\"d": 7809,
      "(r": 7810,
      ")(": 7811,
      "20.\r\n": 7812,
      "5, and ": 7813,
      "90": 7814,
      "Can": 7815,
      "Dis": 7816,
      "HH": 7817,
      "IP": 7818,
      "List ": 7819,
      "[] ": 7820,
      "`, it ": 7821,
      "b\", ": 7822,
      "bid": 7823,
      "eu": 7824,
      "e\" ": 7825,
      "s:": 7826,
      "s\",\"": 7827,
      "vir": 7828,
      " is ": 7829,
      "s on ": 7830,
      "stu": 7831,
      "stay": 7832,
      "an index ": 7833,
      "ed from the ": 7834,
      "- [": 7835,
      "                next_": 7836,
      "action ": 7837,
      "nums[0]\r\n": 7838,
      "pos, ": 7839,
      "ghi": 7840,
      "for fre": 7841,
      "that has ": 7842,
      "that is not ": 7843,
      "= [[1,": 7844,
      "        # Try ": 7845,
      "from a ": 7846,
      "shel": 7847,
      "<= 108\r\n": 7848,
      "ceil": 7849,
      "Repe": 7850,
      "        return sum(": 7851,
      "            if index ": 7852,
      "5,7,": 7853,
      "arr = [": 7854,
      "so we ": 7855,
      "operations are ": 7856,
      "to-": 7857,
      "points, ": 7858,
      "points are ": 7859,
      "node to ": 7860,
      "node with value ": 7861,
      "phra": 7862,
      "positions of the ": 7863,
      "there exists a ": 7864,
      "pair is ": 7865,
      "elements from ": 7866,
      "s: List[str], ": 7867,
      "6,8,": 7868,
      "ories": 7869,
      "edges[i].length == 2\r\n": 7870,
      "after each ": 7871,
      "Note ": 7872,
      "sorted list of ": 7873,
      "[0,1,2,": 7874,
      "column, ": 7875,
      "day, ": 7876,
      "either the ": 7877,
      "Check the ": 7878,
      "problem.\r\n": 7879,
      "node.val": 7880,
      "heights ": 7881,
      "Return a ": 7882,
      "s[i].length == 3\r\n": 7883,
      "exists, return ": 7884,
      ", so return ": 7885,
      "lowercase English letters and ": 7886,
      "stack:\r\n": 7887,
      "`n`.\r\n": 7888,
      "nice ": 7889,
      "generates ": 7890,
      "operation on the ": 7891,
      "product of the ": 7892,
      "Once ": 7893,
      "continue ": 7894,
      "pick": 7895,
      "skip ": 7896,
      "skill ": 7897,
      "rotation": 7898,
      "rooms ": 7899,
      "        dp[0] = ": 7900,
      "area of the ": 7901,
      "bad ": 7902,
      "feature": 7903,
      "(i.e., the ": 7904,
      "reduces ": 7905,
      "algorithm to find the ": 7906,
      "false,": 7907,
      "leetcode.com": 7908,
      "5,6],[": 7909,
      "write ": 7910,
      "speed": 7911,
      "len(s)):\r\n": 7912,
      "amount of money ": 7913,
      "s consists of lowercase English letters.\r\n": 7914,
      "represents a valid ": 7915,
      "excluding the ": 7916,
      "except the ": 7917,
      "accordingly": 7918,
      "easier ": 7919,
      "same.\r\n": 7920,
      "edges = [[0,1],[0,": 7921,
      "each other.\r\n": 7922,
      "maze": 7923,
      "key=lambda x: x": 7924,
      "Follow up: Could you ": 7925,
      "operator": 7926,
      "warehouse": 7927,
      "- Take ": 7928,
      "Energ": 7929,
      "* (n + 1) for _ in range(": 7930,
      "Python code ": 7931,
      "return the answer in any order.\r\n": 7932,
      "machin": 7933,
      "so_far": 7934,
      "x + dx, y + ": 7935,
      "0'": 7936,
      "15, ": 7937,
      "2+": 7938,
      "2x": 7939,
      "3+": 7940,
      "AG": 7941,
      "After": 7942,
      "Hea": 7943,
      "Trans": 7944,
      "Wor": 7945,
      "X-": 7946,
      "gap": 7947,
      "her ": 7948,
      "i-th ": 7949,
      "mme": 7950,
      "n-1": 7951,
      "tran": 7952,
      "vo": 7953,
      "wea": 7954,
      "y:\r\n": 7955,
      "thes": 7956,
      "ins ": 7957,
      "onge": 7958,
      "ary, ": 7959,
      "is (": 7960,
      "is greater than ": 7961,
      "is equal to the ": 7962,
      "nums are ": 7963,
      "le_": 7964,
      "cham": 7965,
      "secur": 7966,
      "coprime ": 7967,
      "or false otherwise.\r\n": 7968,
      "in reverse ": 7969,
      "mag": 7970,
      "make": 7971,
      "an n x n ": 7972,
      "10-": 7973,
      "out the ": 7974,
      "Input: m = ": 7975,
      "Input: prices ": 7976,
      "neg": 7977,
      "2,5,": 7978,
      "teri": 7979,
      "ed, and ": 7980,
      "from any ": 7981,
      "from iterto": 7982,
      "2 + 1": 7983,
      "as `": 7984,
      "1 <= num": 7985,
      "1 <= n, ": 7986,
      "char = ": 7987,
      "s = [[\"": 7988,
      "                    min_": 7989,
      "word, ": 7990,
      "two pointers ": 7991,
      "integer is ": 7992,
      "        for right ": 7993,
      "-1])\r\n": 7994,
      "            if char ": 7995,
      "\", word": 7996,
      "tour": 7997,
      "created ": 7998,
      "nums[index": 7999,
      "grid[1][": 8000,
      "pairs are ": 8001,
      "0 <= k <= ": 8002,
      "prim": 8003,
      "solv": 8004,
      "            return []\r\n": 8005,
      "with the highest ": 8006,
      "Explanation: The only ": 8007,
      "earn": 8008,
      "11.\r\n": 8009,
      "digit, ": 8010,
      "subarrays of size ": 8011,
      "steps:\r\n": 8012,
      "Stud": 8013,
      "ticket": 8014,
      "cost, ": 8015,
      ".length == n - 1\r\n": 8016,
      "_count:\r\n": 8017,
      "exactly k ": 8018,
      "\"abc\"\r\n": 8019,
      ", we can use the ": 8020,
      "Suffi": 8021,
      "), (-1, 0": 8022,
      "2 <= n <= ": 8023,
      "subsequences": 8024,
      "combination of ": 8025,
      "problem constraints.\r\n": 8026,
      "Output: 11\r\n": 8027,
      "since it ": 8028,
      "using the `": 8029,
      "finish ": 8030,
      "constructed ": 8031,
      "covered by ": 8032,
      "approach to traverse the ": 8033,
      "All the values of ": 8034,
      "bitwise XOR ": 8035,
      "cache\r\n": 8036,
      "s by their ": 8037,
      "label ": 8038,
      "check if a ": 8039,
      "rounded ": 8040,
      "parenthes": 8041,
      "lamp": 8042,
      "        def dfs(node, ": 8043,
      "nums2 = [": 8044,
      "combinations of ": 8045,
      "s[j]": 8046,
      "present in ": 8047,
      "present in the ": 8048,
      "Maxim": 8049,
      "turns ": 8050,
      "GCD": 8051,
      "Queries": 8052,
      "data structure ": 8053,
      "ed by a single ": 8054,
      ". Then, it ": 8055,
      "order of the remaining ": 8056,
      "As we ": 8057,
      "inside the ": 8058,
      ". Since the answer may be ": 8059,
      "lane ": 8060,
      "Since the answer may be very large, return it modulo 109 + 7.\r\n": 8061,
      "src": 8062,
      "results of subproblem": 8063,
      "Given the constraints, a ": 8064,
      "Identif": 8065,
      "bricks ": 8066,
      "pyramid": 8067,
      "from itertools import ": 8068,
      " * ": 8069,
      "\":\r\n": 8070,
      "'#": 8071,
      "(node):\r\n": 8072,
      ")`": 8073,
      "3):\r\n": 8074,
      "Gre": 8075,
      "Squ": 8076,
      "`c": 8077,
      "b.\r\n": 8078,
      "ble ": 8079,
      "c\r\n": 8080,
      "ding": 8081,
      "htt": 8082,
      "i:\r\n": 8083,
      "il ": 8084,
      "pend": 8085,
      "s]\r\n": 8086,
      "        from collections import Counter\r\n": 8087,
      ", they ": 8088,
      "of all the ": 8089,
      "is to find the ": 8090,
      "chess": 8091,
      "deco": 8092,
      "1 with ": 8093,
      "imbalance ": 8094,
      "                stack.append(": 8095,
      "nums. ": 8096,
      "if there are ": 8097,
      "if there is ": 8098,
      "m * ": 8099,
      "1010": 8100,
      "104].\r\n": 8101,
      "The distance ": 8102,
      "five ": 8103,
      "number and ": 8104,
      "i >= ": 8105,
      "[i] > ": 8106,
      "li, ": 8107,
      "clas": 8108,
      "forbid": 8109,
      "times\r\n": 8110,
      "to the last ": 8111,
      "    def sum": 8112,
      "    def largest": 8113,
      "arrays, ": 8114,
      "        for _ in range(": 8115,
      "        for a, b in ": 8116,
      "-1`.\r\n": 8117,
      "swapping ": 8118,
      "type": 8119,
      "[1,2], ": 8120,
      "identi": 8121,
      "sequenti": 8122,
      "will not ": 8123,
      "For every ": 8124,
      "no longer ": 8125,
      "Return the total number of ": 8126,
      "A subsequence ": 8127,
      "k = 4\r\n": 8128,
      "check the ": 8129,
      "followed by ": 8130,
      "binary tree": 8131,
      "            for _ in range(": 8132,
      "5 * ": 8133,
      "root, ": 8134,
      "self.find(": 8135,
      "set bit": 8136,
      "values are ": 8137,
      "company ": 8138,
      "1 and word": 8139,
      "odd, ": 8140,
      "sum of its ": 8141,
      "step.\r\n": 8142,
      "[0] + ": 8143,
      "trim": 8144,
      "starting at ": 8145,
      "able to ": 8146,
      "substring\r\n": 8147,
      "mentor": 8148,
      "process the ": 8149,
      "update(": 8150,
      "bi\r\n": 8151,
      "\"abc\" ": 8152,
      "reaches the ": 8153,
      "ift": 8154,
      "good_": 8155,
      "(self, nums1": 8156,
      "(self, nums: List[int]) -> List[int]:\r\n": 8157,
      "* 10 + ": 8158,
      "ensure that the ": 8159,
      "allow ": 8160,
      "moves required to ": 8161,
      "equals the ": 8162,
      ". Thus, ": 8163,
      "coordinate": 8164,
      "performed ": 8165,
      "[0][0] ": 8166,
      "], k = 1\r\n": 8167,
      "You are given a 0-indexed string ": 8168,
      "boundary": 8169,
      "of ": 8170,
      "it's possible to ": 8171,
      "needed to make ": 8172,
      "apply ": 8173,
      "    def minOperation": 8174,
      "You are given two 0-indexed ": 8175,
      "cars ": 8176,
      "        if not root": 8177,
      "5,6]\r\n": 8178,
      "fact ": 8179,
      "binary representation ": 8180,
      "assigned to ": 8181,
      "Increment ": 8182,
      "Given an integer array nums": 8183,
      ".length <= 2000\r\n": 8184,
      "solve the problem:\r\n": 8185,
      "Apply the ": 8186,
      "s(self, s: str) -> int:\r\n": 8187,
      "belong ": 8188,
      "game.\r\n": 8189,
      "arrangement ": 8190,
      "`nums1` and `nums2": 8191,
      "don't ": 8192,
      "bound ": 8193,
      "making it suitable ": 8194,
      "pecific": 8195,
      "across all ": 8196,
      "Limit": 8197,
      "nx, ny = ": 8198,
      "balloon": 8199,
      "cuboid": 8200,
      "even and odd ": 8201,
      "semi-": 8202,
      "http": 8203,
      "identifi": 8204,
      "\"00": 8205,
      "(0)\r\n": 8206,
      ")) ": 8207,
      "-to-": 8208,
      ".co": 8209,
      "17,": 8210,
      "2-": 8211,
      "2000\r\n": 8212,
      "31, ": 8213,
      "9]]\r\n": 8214,
      "CD": 8215,
      "Case ": 8216,
      "Equal": 8217,
      "Lea": 8218,
      "Or": 8219,
      "With": 8220,
      "[(": 8221,
      "[l": 8222,
      "\\le": 8223,
      "]))\r\n": 8224,
      "_value": 8225,
      "`. ": 8226,
      "ai != ": 8227,
      "bright": 8228,
      "far ": 8229,
      "j+": 8230,
      "k: int, ": 8231,
      "n-": 8232,
      "ner": 8233,
      "sTo": 8234,
      "won": 8235,
      "walk ": 8236,
      "ys ": 8237,
      "        answer ": 8238,
      "        current = ": 8239,
      "s these ": 8240,
      "one, ": 8241,
      "= {": 8242,
      "f = ": 8243,
      "arti": 8244,
      "num2 ": 8245,
      "chal": 8246,
      "to `": 8247,
      "plit": 8248,
      "            node.": 8249,
      "               ": 8250,
      "a is ": 8251,
      ") + 1": 8252,
      "qui": 8253,
      "- 1 ": 8254,
      "                node = ": 8255,
      "100\r\n": 8256,
      "The array ": 8257,
      "The test cases are ": 8258,
      "for which ": 8259,
      "that have ": 8260,
      "of the second ": 8261,
      "Input: str": 8262,
      "nested ": 8263,
      "` to the ": 8264,
      "k + ": 8265,
      "1, 2, and ": 8266,
      "versa": 8267,
      "3,6,": 8268,
      "Explanation: You ": 8269,
      "by one ": 8270,
      "by considering ": 8271,
      "paint ": 8272,
      "Concaten": 8273,
      "ility": 8274,
      "one way to ": 8275,
      "presse": 8276,
      "            if is_": 8277,
      "grade": 8278,
      "startPo": 8279,
      "spell": 8280,
      "you may ": 8281,
      "idx = ": 8282,
      "points[": 8283,
      "will not be ": 8284,
      "uses the ": 8285,
      "time to ": 8286,
      "Input: nums = [3,2,": 8287,
      "1] -> ": 8288,
      "                if (": 8289,
      "graph and ": 8290,
      "j in ": 8291,
      "place": 8292,
      "numbers and ": 8293,
      "height = ": 8294,
      "remain ": 8295,
      "Ensur": 8296,
      "s(self, word": 8297,
      ".length <= 500\r\n": 8298,
      "`k` is ": 8299,
      "                        break\r\n": 8300,
      "high = ": 8301,
      "playing a ": 8302,
      "multiplic": 8303,
      "3],[0,": 8304,
      "0],[1,1,": 8305,
      "characters within a ": 8306,
      "operations on ": 8307,
      "integers, ": 8308,
      "helper": 8309,
      "row or ": 8310,
      "num % ": 8311,
      "stones = [": 8312,
      "content": 8313,
      "directional ": 8314,
      "shortest": 8315,
      "break ": 8316,
      "rectangles ": 8317,
      "mid - 1\r\n": 8318,
      "find all ": 8319,
      "            while i < ": 8320,
      "query, we ": 8321,
      "top_": 8322,
      "Valid ": 8323,
      "month": 8324,
      "# print(solution": 8325,
      "vowels ": 8326,
      "        # Initialize the result ": 8327,
      "applying ": 8328,
      "To solve this problem, we need to determine the ": 8329,
      "This solution efficiently calculates the ": 8330,
      "Convert ": 8331,
      "consist only of ": 8332,
      "duration ": 8333,
      "flip_": 8334,
      "| <= ": 8335,
      "back to ": 8336,
      "mapping": 8337,
      "lru_cache": 8338,
      "len(s) - ": 8339,
      "_count = Counter(": 8340,
      "request ": 8341,
      "receive ": 8342,
      "to the right of ": 8343,
      "necessarily ": 8344,
      "Function ": 8345,
      "threshold": 8346,
      "pieces ": 8347,
      "clockwise": 8348,
      "criteri": 8349,
[...]
