{
  "version": "1.0",
  "truncation": null,
  "padding": null,
  "added_tokens": [
    {
      "id": 0,
      "content": "[PAD]",
      "single_word": false,
      "lstrip": false,
      "rstrip": false,
      "normalized": false,
      "special": true
    },
    {
      "id": 1,
      "content": "[UNK]",
      "single_word": false,
      "lstrip": false,
      "rstrip": false,
      "normalized": false,
      "special": true
    },
    {
      "id": 2,
      "content": "[CLS]",
      "single_word": false,
      "lstrip": false,
      "rstrip": false,
      "normalized": false,
      "special": true
    },
    {
      "id": 3,
      "content": "[SEP]",
      "single_word": false,
      "lstrip": false,
      "rstrip": false,
      "normalized": false,
      "special": true
    },
    {
      "id": 4,
      "content": "[MASK]",
      "single_word": false,
      "lstrip": false,
      "rstrip": false,
      "normalized": false,
      "special": true
    }
  ],
  "normalizer": null,
  "pre_tokenizer": {
    "type": "ByteLevel",
    "add_prefix_space": true,
    "trim_offsets": true,
    "use_regex": true
  },
  "post_processor": null,
  "decoder": null,
  "model": {
    "type": "Unigram",
    "unk_id": null,
    "vocab": [
      [
        "[PAD]",
        0.0
      ],
      [
        "[UNK]",
        0.0
      ],
      [
        "[CLS]",
        0.0
      ],
      [
        "[SEP]",
        0.0
      ],
      [
        "[MASK]",
        0.0
      ],
      [
        "Ġ",
        -1.9238575927417116
      ],
      [
        "č",
        -2.7144507645761635
      ],
      [
        "Ċ",
        -2.7144507645761635
      ],
      [
        ",",
        -3.5223320504782567
      ],
      [
        "s",
        -3.546689437713484
      ],
      [
        "Ġthe",
        -3.788634538309207
      ],
      [
        ":",
        -3.8831081401765335
      ],
      [
        "1",
        -3.9646708658618657
      ],
      [
        ".",
        -3.998601793592851
      ],
      [
        "=",
        -4.037757404147511
      ],
      [
        "[",
        -4.313060086995657
      ],
      [
        "ĠĠĠĠĠĠĠ",
        -4.495568767887489
      ],
      [
        "2",
        -4.51734926027429
      ],
      [
        "(",
        -4.523583548406551
      ],
      [
        "Ġof",
        -4.653775785050703
      ],
      [
        "]",
        -4.669575509235978
      ],
      [
        "0",
        -4.710529077677299
      ],
      [
        "i",
        -4.764012677135021
      ],
      [
        "`",
        -4.8104371645562125
      ],
      [
        "-",
        -4.838735899598012
      ],
      [
        "_",
        -4.8467114355704926
      ],
      [
        "n",
        -4.917448253457396
      ],
      [
        "Ġis",
        -4.975784482197826
      ],
      [
        "a",
        -4.97622204912089
      ],
      [
        "Ġto",
        -5.016111822329867
      ],
      [
        "ĠĠĠĠĠĠĠĠĠĠĠ",
        -5.053293780233645
      ],
      [
        ")",
        -5.063274305311452
      ],
      [
        "3",
        -5.067091672096032
      ],
      [
        "Ġin",
        -5.082980779787759
      ],
      [
        "Ġand",
        -5.107309302124067
      ],
      [
        "<",
        -5.2200586418016695
      ],
      [
        "ing",
        -5.368034413353328
      ],
      [
        "\"",
        -5.378727189820417
      ],
      [
        "t",
        -5.4360715614523425
      ],
      [
        "+",
        -5.456213666514103
      ],
      [
        "#",
        -5.555108700297948
      ],
      [
        "e",
        -5.618786782855743
      ],
      [
        "4",
        -5.636130683863707
      ],
      [
        "Ġnums",
        -5.661772301277228
      ],
      [
        "if",
        -5.7349917912287935
      ],
      [
        "ĠĠĠĠĠĠĠĠĠĠĠĠĠĠĠ",
        -5.745304922185078
      ],
      [
        "ĠThe",
        -5.757724755694753
      ],
      [
        "Ġreturn",
        -5.766620560287549
      ],
      [
        "Ġfor",
        -5.766741449602231
      ],
      [
        "put",
        -5.801863998396726
      ],
      [
        "Ġnumber",
        -5.845336699479965
      ],
      [
        "'",
        -5.851190552097176
      ],
      [
        "Ġare",
        -5.858943085756396
      ],
      [
        "Ġtha",
        -5.910638661852683
      ],
      [
        "ĠIn",
        -5.914682173368231
      ],
      [
        "5",
        -5.929292430645329
      ],
      [
        "d",
        -5.93961402864271
      ],
      [
        "y",
        -5.97082836453195
      ],
      [
        "on",
        -5.972495483601701
      ],
      [
        "ĠExample",
        -6.001565778945009
      ],
      [
        "k",
        -6.008178298484465
      ],
      [
        "ation",
        -6.03519137560885
      ],
      [
        "Ġfrom",
        -6.04369408694625
      ],
      [
        "ĠO",
        -6.0724812185494095
      ],
      [
        "ed",
        -6.080182645459011
      ],
      [
        "ly",
        -6.106278225330126
      ],
      [
        "Ġcan",
        -6.117936775052005
      ],
      [
        "Ġwith",
        -6.1656054542151
      ],
      [
        "ĠExplan",
        -6.1673825066944605
      ],
      [
        "length",
        -6.171014789075075
      ],
      [
        "j",
        -6.180491217473177
      ],
      [
        "utput",
        -6.2206039951271475
      ],
      [
        "ĠÂł",
        -6.237972124450968
      ],
      [
        "Ġarray",
        -6.238598484937583
      ],
      [
        "Ġbe",
        -6.2509217317441585
      ],
      [
        "``",
        -6.273892160043976
      ],
      [
        "each",
        -6.295551157328427
      ],
      [
        "x",
        -6.303083222885336
      ],
      [
        "**",
        -6.307794386415299
      ],
      [
        "Ġwe",
        -6.314481020221891
      ],
      [
        "Ġit",
        -6.341036544966741
      ],
      [
        "r",
        -6.354619681241344
      ],
      [
        "Ġ==",
        -6.3758629288389255
      ],
      [
        "],",
        -6.413017267512551
      ],
      [
        "Ġan",
        -6.454712966151066
      ],
      [
        "self",
        -6.463778696216991
      ],
      [
        "ĠList",
        -6.4836974340548394
      ],
      [
        "Ġelement",
        -6.51433824018649
      ],
      [
        "->",
        -6.52502692765934
      ],
      [
        "p",
        -6.530882885633702
      ],
      [
        "Ġall",
        -6.533065908565494
      ],
      [
        "6",
        -6.566266349812102
      ],
      [
        "b",
        -6.5692680269627814
      ],
      [
        "Ġdef",
        -6.577549866928004
      ],
      [
        "):",
        -6.579769671893537
      ],
      [
        "Ġinteger",
        -6.598705857795684
      ],
      [
        "Ġby",
        -6.609034870663924
      ],
      [
        "Ġrange",
        -6.629771492618813
      ],
      [
        "],[",
        -6.6333430879533015
      ],
      [
        "Ġat",
        -6.638146563074535
      ],
      [
        "Ġstring",
        -6.65899295890604
      ],
      [
        "7",
        -6.672814446888053
      ],
      [
        "Ġcurrent",
        -6.688805127982674
      ],
      [
        "*",
        -6.693157217966741
      ],
      [
        "ĠThi",
        -6.698816428874144
      ],
      [
        "Ġvalue",
        -6.7132708592272685
      ],
      [
        "Ġint",
        -6.732660930615641
      ],
      [
        "Ġgive",
        -6.738394419145365
      ],
      [
        "If",
        -6.781217352648111
      ],
      [
        "Ġcount",
        -6.801513633596555
      ],
      [
        "Ġclass",
        -6.837177557849957
      ],
      [
        "][",
        -6.83748891873635
      ],
      [
        "Ġnot",
        -6.843769456603958
      ],
      [
        "int",
        -6.845951147489929
      ],
      [
        "Ġsum",
        -6.8497715771292125
      ],
      [
        "].",
        -6.8505393256686915
      ],
      [
        "ĠYou",
        -6.851726369464334
      ],
      [
        "Ġnode",
        -6.854966154293125
      ],
      [
        "Ġor",
        -6.859867292793384
      ],
      [
        "m",
        -6.8752195655527935
      ],
      [
        "ĠSolution",
        -6.908000687568086
      ],
      [
        "ĠConstraint",
        -6.917967596467578
      ],
      [
        "Ġmax",
        -6.926714131296642
      ],
      [
        "Ġmaximum",
        -6.933728171299774
      ],
      [
        "Ġtwo",
        -6.938769378671408
      ],
      [
        "yth",
        -6.945634192246661
      ],
      [
        "])",
        -6.956462865591584
      ],
      [
        "Ġsolution",
        -6.959820252545874
      ],
      [
        "Ġresult",
        -6.960639003016248
      ],
      [
        "nums",
        -6.980120004124521
      ],
      [
        "Ġone",
        -6.990225260752098
      ],
      [
        "Ġcharacter",
        -6.9961501870118425
      ],
      [
        "Ġfirst",
        -6.9987057367739
      ],
      [
        "c",
        -7.00388071438498
      ],
      [
        "\",\"",
        -7.007557401473641
      ],
      [
        "Ġimport",
        -7.00961462822437
      ],
      [
        "ĠWe",
        -7.017381351790605
      ],
      [
        "9",
        -7.040338122441732
      ],
      [
        "Ġright",
        -7.059322394057031
      ],
      [
        "f",
        -7.069618786088443
      ],
      [
        "Ġas",
        -7.070530966401959
      ],
      [
        "Ġleft",
        -7.092932128190684
      ],
      [
        "Ġlist",
        -7.102313517733688
      ],
      [
        "Ġpossible",
        -7.119631989724624
      ],
      [
        "Ġstart",
        -7.136758838492699
      ],
      [
        "Ġindex",
        -7.1382084697790065
      ],
      [
        "Ġwhere",
        -7.14284051639527
      ],
      [
        "8",
        -7.157279514822468
      ],
      [
        "Âł",
        -7.18385987442258
      ],
      [
        "Ġminimum",
        -7.1842879022507935
      ],
      [
        "Ġany",
        -7.186874609035736
      ],
      [
        "Ġtotal",
        -7.1940323590927076
      ],
      [
        "Ġlen",
        -7.198951751049239
      ],
      [
        "sum",
        -7.224326747562396
      ],
      [
        "o",
        -7.2304748822563525
      ],
      [
        "count",
        -7.2579464195475305
      ],
      [
        "\",",
        -7.259871778550014
      ],
      [
        "Ġyou",
        -7.261675857791048
      ],
      [
        "Ġthi",
        -7.265068901921487
      ],
      [
        "Ġoperation",
        -7.278163314162618
      ],
      [
        "Ġhave",
        -7.286137512837656
      ],
      [
        "ĠReturn",
        -7.287723898312419
      ],
      [
        "Ġgrid",
        -7.287949922905955
      ],
      [
        "]]",
        -7.291657718978202
      ],
      [
        "Ġ[[",
        -7.3098489943519445
      ],
      [
        ">",
        -7.316406002469033
      ],
      [
        "Ġnum",
        -7.320794469158911
      ],
      [
        "D",
        -7.325127450500499
      ],
      [
        "Ġlength",
        -7.327174334144524
      ],
      [
        "Ġtime",
        -7.330699551561718
      ],
      [
        "Ġuse",
        -7.332755265869955
      ],
      [
        "ĠFor",
        -7.3420349872132755
      ],
      [
        "Ġwhich",
        -7.346809518772423
      ],
      [
        "Ġwill",
        -7.358815214296768
      ],
      [
        "left",
        -7.366278985747494
      ],
      [
        "Ġtyp",
        -7.38515149036574
      ],
      [
        "Ġword",
        -7.387562776348001
      ],
      [
        "Ġthan",
        -7.395014618688618
      ],
      [
        "h",
        -7.399048037863544
      ],
      [
        "Ġthere",
        -7.422154164790581
      ],
      [
        "ĠIt",
        -7.425136491222999
      ],
      [
        "Ġno",
        -7.433488522011522
      ],
      [
        "Ġhas",
        -7.449711033375325
      ],
      [
        "\\",
        -7.450408479459815
      ],
      [
        "Ġtarget",
        -7.450511816103368
      ],
      [
        "Ġfind",
        -7.450937783534005
      ],
      [
        "le",
        -7.46195187337589
      ],
      [
        "l",
        -7.47032884249686
      ],
      [
        "Ġmin",
        -7.480596699509141
      ],
      [
        "Ġtree",
        -7.500039427209759
      ],
      [
        "ĠOut",
        -7.5085316288807675
      ],
      [
        "Ġequal",
        -7.509111273087826
      ],
      [
        "Ġcost",
        -7.520165074852485
      ],
      [
        "Ġanswer",
        -7.522717654482759
      ],
      [
        "Ġarr",
        -7.530642244414728
      ],
      [
        "Ġorder",
        -7.531314095334586
      ],
      [
        "Ġso",
        -7.550051807648901
      ],
      [
        "Ġdp",
        -7.56739426564424
      ],
      [
        "Ġvalid",
        -7.570351404751118
      ],
      [
        "uch",
        -7.573565709575573
      ],
      [
        "right",
        -7.575768083953002
      ],
      [
        "ĠA",
        -7.583379095501325
      ],
      [
        "Ġposition",
        -7.5868882863181915
      ],
      [
        "Ġwords",
        -7.602585350028781
      ],
      [
        "append",
        -7.6081748878215105
      ],
      [
        "))",
        -7.62002698476696
      ],
      [
        "Ġ10",
        -7.624524162371404
      ],
      [
        "Ġsame",
        -7.628312465405769
      ],
      [
        "ĠThere",
        -7.628999443862533
      ],
      [
        "Ġrepresent",
        -7.633691346001838
      ],
      [
        "to",
        -7.6347723121165
      ],
      [
        "Ġpair",
        -7.63575287044469
      ],
      [
        "S",
        -7.638372019291339
      ],
      [
        "Ġsubstring",
        -7.642037986745011
      ],
      [
        "),",
        -7.643512284582515
      ],
      [
        "`.",
        -7.651267511545567
      ],
      [
        ").",
        -7.653723129597723
      ],
      [
        "Ġletter",
        -7.65849299413999
      ],
      [
        "Ġroot",
        -7.673250794091031
      ],
      [
        "105",
        -7.680038000647326
      ],
      [
        "Ġset",
        -7.681211492835957
      ],
      [
        "Ġstr",
        -7.690779511346597
      ],
      [
        "Ġnodes",
        -7.693545332926986
      ],
      [
        "Ġwhi",
        -7.700761173924201
      ],
      [
        "Ġrow",
        -7.700832087582758
      ],
      [
        "Given",
        -7.70151737532596
      ],
      [
        "Ġbinary",
        -7.7116850863915065
      ],
      [
        "max",
        -7.719553792959534
      ],
      [
        "Ġcheck",
        -7.720291448664636
      ],
      [
        "10",
        -7.721172965242115
      ],
      [
        "Ġapproach",
        -7.741766241931897
      ],
      [
        "g",
        -7.760769969561148
      ],
      [
        "Ġsubarray",
        -7.78125566641186
      ],
      [
        "Ġsecond",
        -7.786299401377714
      ],
      [
        "Ġelse",
        -7.786655365848739
      ],
      [
        "ndices",
        -7.801372670164154
      ],
      [
        "etween",
        -7.807150152496043
      ],
      [
        "Ġpath",
        -7.812266531332652
      ],
      [
        "index",
        -7.812299459200535
      ],
      [
        "Ġsorted",
        -7.822576536346662
      ],
      [
        "Ġefficient",
        -7.825361182046623
      ],
      [
        "Ġend",
        -7.829219854043551
      ],
      [
        "Ġpoints",
        -7.843544488188055
      ],
      [
        "Ġedges",
        -7.847527076491633
      ],
      [
        "val",
        -7.849873551634754
      ],
      [
        "Ġits",
        -7.859773916671098
      ],
      [
        "Ġcalculate",
        -7.861773649468149
      ],
      [
        "Ġlast",
        -7.866396792710733
      ],
      [
        "Ġfunction",
        -7.871457085804757
      ],
      [
        "Ġprefix",
        -7.873300488106612
      ],
      [
        "Ġneed",
        -7.885112611631488
      ],
      [
        "node",
        -7.886428222747432
      ],
      [
        "num",
        -7.900487886931844
      ],
      [
        "List",
        -7.917455705822479
      ],
      [
        "Ġscore",
        -7.924602280794316
      ],
      [
        "Ġsmallest",
        -7.953364074467243
      ],
      [
        "Ġother",
        -7.959650807107988
      ],
      [
        "Ġconsist",
        -7.967018997090767
      ],
      [
        "%",
        -7.96983673773459
      ],
      [
        "u",
        -7.97931653116743
      ],
      [
        "|",
        -7.98412979765589
      ],
      [
        "Ġusing",
        -7.985740925360297
      ],
      [
        "Ġdistance",
        -7.989517216291574
      ],
      [
        "Ġnew",
        -7.992190559353574
      ],
      [
        "Ġnon",
        -7.99389710950185
      ],
      [
        "Ġnext",
        -7.999624080546599
      ],
      [
        "Ġproblem",
        -8.000013849523372
      ],
      [
        "Ġmake",
        -8.009221817978334
      ],
      [
        "dp",
        -8.013053155895832
      ],
      [
        "ince",
        -8.01333667035778
      ],
      [
        "Ġgraph",
        -8.015181114090565
      ],
      [
        "Ġsubsequence",
        -8.015729887081505
      ],
      [
        "Ġtrack",
        -8.018167399896567
      ],
      [
        "Ġafter",
        -8.023048065850944
      ],
      [
        "Ġkeep",
        -8.023449606946267
      ],
      [
        "/",
        -8.031674276861771
      ],
      [
        "Ġstep",
        -8.032206853499565
      ],
      [
        "w",
        -8.039762592818942
      ],
      [
        "Ġcell",
        -8.04365321002679
      ],
      [
        "()",
        -8.045476047478425
      ],
      [
        "Ġsize",
        -8.045936869357204
      ],
      [
        "th",
        -8.058202707459852
      ],
      [
        "Ġgroup",
        -8.058857093788285
      ],
      [
        "!=",
        -8.066042243496785
      ],
      [
        "Ġdigits",
        -8.066889749285412
      ],
      [
        "Ġthrough",
        -8.078385613589408
      ],
      [
        "Ġquerie",
        -8.112589437734954
      ],
      [
        "Ġbot",
        -8.125778856521958
      ],
      [
        "Ġmatrix",
        -8.126763415834258
      ],
      [
        "Ġensure",
        -8.128326800526127
      ],
      [
        "in",
        -8.148312309456017
      ],
      [
        "Ġdifference",
        -8.150585576867556
      ],
      [
        "Ġmove",
        -8.1533620595463
      ],
      [
        "Ġunique",
        -8.159063861667406
      ],
      [
        "Ġheight",
        -8.1692486363632
      ],
      [
        "Ġtrue",
        -8.172243270056098
      ],
      [
        "Ġup",
        -8.173429734364337
      ],
      [
        "Ġ[\"",
        -8.179235191678277
      ],
      [
        "\".",
        -8.186879731804149
      ],
      [
        "Ġ100",
        -8.188176881834192
      ],
      [
        "v",
        -8.18974491998056
      ],
      [
        "Ġfollowing",
        -8.195757833771165
      ],
      [
        "Ġiterate",
        -8.204275693003511
      ],
      [
        "Ġ[]",
        -8.208064746775506
      ],
      [
        "ther",
        -8.218927021816747
      ],
      [
        "Ġstack",
        -8.21926805513504
      ],
      [
        "ĠHer",
        -8.221239678939803
      ],
      [
        "Ġdigit",
        -8.22492003067346
      ],
      [
        "ĠNote",
        -8.236834785475853
      ],
      [
        "Ġsequence",
        -8.238280500626308
      ],
      [
        "Ġtimes",
        -8.239017098255726
      ],
      [
        "Ġbecome",
        -8.242831688243562
      ],
      [
        "not",
        -8.244314251856466
      ],
      [
        "q",
        -8.250940309606033
      ],
      [
        "indexed",
        -8.253933245836253
      ],
      [
        "Ġremove",
        -8.257101977449143
      ],
      [
        "Ġeven",
        -8.257227827634557
      ],
      [
        "uses",
        -8.258510313104212
      ],
      [
        "Ġvisit",
        -8.263604599802077
      ],
      [
        "Ġsolve",
        -8.264124381698368
      ],
      [
        "len",
        -8.274145167898503
      ],
      [
        "Ġadd",
        -8.275585176903922
      ],
      [
        "cause",
        -8.27968059092727
      ],
      [
        "Ġlargest",
        -8.279967426673682
      ],
      [
        "Ġexample",
        -8.29495032588952
      ],
      [
        "Ġstore",
        -8.296778895983069
      ],
      [
        "Ġqueue",
        -8.302254378446268
      ],
      [
        "Ġal",
        -8.309809894250408
      ],
      [
        "wise",
        -8.319552299700351
      ],
      [
        "str",
        -8.319737865740478
      ],
      [
        "Ġquery",
        -8.32029946355757
      ],
      [
        "Ġmor",
        -8.327252183675334
      ],
      [
        "Ġgreater",
        -8.328345290763169
      ],
      [
        "Ġmost",
        -8.330971930181878
      ],
      [
        "Ġ104",
        -8.331729376994543
      ],
      [
        "start",
        -8.34518562376442
      ],
      [
        "Ġpoint",
        -8.347311650381455
      ],
      [
        "ound",
        -8.350921209709934
      ],
      [
        "Ġget",
        -8.351121001575091
      ],
      [
        "Ġsearch",
        -8.351807688682683
      ],
      [
        "Ġlongest",
        -8.361988664837451
      ],
      [
        "Ġleast",
        -8.36796331895783
      ],
      [
        "ĠEn",
        -8.368023448043573
      ],
      [
        "Ġcolumn",
        -8.369732273337565
      ],
      [
        "Ġdistinct",
        -8.37023125803104
      ],
      [
        "ĠTo",
        -8.375503731318927
      ],
      [
        "Ġform",
        -8.375930821596132
      ],
      [
        "ies",
        -8.376692253748583
      ],
      [
        "Ġ//",
        -8.377101883296891
      ],
      [
        "heap",
        -8.377218963939654
      ],
      [
        "lish",
        -8.379694368511476
      ],
      [
        "Ġprice",
        -8.398679267967713
      ],
      [
        "Ġlowercase",
        -8.403988862936089
      ],
      [
        "Ġdfs",
        -8.408562645064137
      ],
      [
        "ity",
        -8.417123656660422
      ],
      [
        "B",
        -8.419865278521833
      ],
      [
        "Ġ109",
        -8.42792729837332
      ],
      [
        "Ġodd",
        -8.429945309788408
      ],
      [
        "^",
        -8.43666893020782
      ],
      [
        "Ġperform",
        -8.439931479449124
      ],
      [
        "Ġconsider",
        -8.446156428768607
      ],
      [
        "Ġconstraint",
        -8.451052606922705
      ],
      [
        "ĠAlice",
        -8.452059303362045
      ],
      [
        "Ġshow",
        -8.453155670817011
      ],
      [
        "Ġthem",
        -8.454040611786592
      ],
      [
        "Ġfalse",
        -8.459433950040793
      ],
      [
        "Ġwindow",
        -8.462392490482975
      ],
      [
        "Ġpositive",
        -8.46241638269049
      ],
      [
        "Ġover",
        -8.463127613758502
      ],
      [
        "Ġcolor",
        -8.46712028280339
      ],
      [
        "value",
        -8.469469278418497
      ],
      [
        "min",
        -8.47394904318401
      ],
      [
        "ĠCalculate",
        -8.47489541864285
      ],
      [
        "Ġexact",
        -8.474921332025975
      ],
      [
        "Ġtake",
        -8.483340668344091
      ],
      [
        "Ġrequire",
        -8.485089997696868
      ],
      [
        "Ġ1000",
        -8.487456976691202
      ],
      [
        "F",
        -8.489331027935528
      ],
      [
        "word",
        -8.490014648747124
      ],
      [
        "Ġexist",
        -8.495537904742555
      ],
      [
        "Ġreach",
        -8.497599251395883
      ],
      [
        "Ġkey",
        -8.50668088157148
      ],
      [
        "A",
        -8.5067416382362
      ],
      [
        "Ġremaining",
        -8.508518813729953
      ],
      [
        "ĠCheck",
        -8.513552710026083
      ],
      [
        "dict",
        -8.518027719370838
      ],
      [
        "Ġsubarrays",
        -8.518179545433274
      ],
      [
        "Ġmus",
        -8.524756868907572
      ],
      [
        "Ġbit",
        -8.526997953460135
      ],
      [
        "Ġless",
        -8.52811400364228
      ],
      [
        "er",
        -8.530465760882814
      ],
      [
        "next",
        -8.535033488012672
      ],
      [
        "char",
        -8.538205514188403
      ],
      [
        "arr",
        -8.54002992315555
      ],
      [
        "Ġma",
        -8.542413703100854
      ],
      [
        "Ġcondition",
        -8.54271300617839
      ],
      [
        "Ġsquare",
        -8.545517348837267
      ],
      [
        "ĠFal",
        -8.546030304483004
      ],
      [
        "Ġcomplex",
        -8.563962850069716
      ],
      [
        "Ġstone",
        -8.564254465759621
      ],
      [
        "ĠTru",
        -8.569620405987473
      ],
      [
        "ull",
        -8.573334059900871
      ],
      [
        "ĠAfter",
        -8.576988333654516
      ],
      [
        "Ġday",
        -8.57906152264369
      ],
      [
        "X",
        -8.58276186403961
      ],
      [
        "Ġtask",
        -8.586067613644847
      ],
      [
        "ith",
        -8.586285144505421
      ],
      [
        "Ġdoes",
        -8.587764353553343
      ],
      [
        "Ġchange",
        -8.588946249109416
      ],
      [
        "Ġconnect",
        -8.589120459556224
      ],
      [
        "current",
        -8.59021798080237
      ],
      [
        "Ġcells",
        -8.592169125144189
      ],
      [
        "Ġfrequency",
        -8.592489836717135
      ],
      [
        "Ġcontains",
        -8.593576847305066
      ],
      [
        "these",
        -8.597087736512972
      ],
      [
        "Ġans",
        -8.598921531798958
      ],
      [
        "Ġmoves",
        -8.605904958818332
      ],
      [
        "Ġdetermine",
        -8.606168486292948
      ],
      [
        "ĠAll",
        -8.607547695181138
      ],
      [
        "Ġchar",
        -8.608987998305036
      ],
      [
        "')",
        -8.61041873295788
      ],
      [
        "out",
        -8.614299601023937
      ],
      [
        "Ġshould",
        -8.614833647453919
      ],
      [
        "Ġcontain",
        -8.615586803935432
      ],
      [
        "Ġbase",
        -8.617899150413825
      ],
      [
        "Each",
        -8.619689135753594
      ],
      [
        "Ġneeded",
        -8.619776200627435
      ],
      [
        "Ġspace",
        -8.62196644832392
      ],
      [
        "Ġsort",
        -8.623054744621628
      ],
      [
        "('",
        -8.623762905468949
      ],
      [
        "Ġevery",
        -8.644574282058457
      ],
      [
        "Ġempt",
        -8.649772361687322
      ],
      [
        "Ġthree",
        -8.65000652175037
      ],
      [
        "ĠXOR",
        -8.653079258374417
      ],
      [
        "Ġchild",
        -8.653554680659369
      ],
      [
        "###",
        -8.656988958131056
      ],
      [
        "Ġlarge",
        -8.657077712780698
      ],
      [
        "Ġproduct",
        -8.661245612704576
      ],
      [
        "Ġperson",
        -8.662445826915356
      ],
      [
        "Non",
        -8.664355601799455
      ],
      [
        "Ġsubtree",
        -8.665065362943535
      ],
      [
        "Ġfollow",
        -8.668191863547303
      ],
      [
        "Ġdictionar",
        -8.668561928460285
      ],
      [
        "Ġabove",
        -8.677339854611578
      ],
      [
        "cost",
        -8.683635867386105
      ],
      [
        "time",
        -8.686283467104484
      ],
      [
        "P",
        -8.68631958466981
      ],
      [
        "ĠInitialize",
        -8.6873774875369
      ],
      [
        "Ġcase",
        -8.68749607953533
      ],
      [
        "Ġimplement",
        -8.694270012659246
      ],
      [
        "Ġoriginal",
        -8.695495448753597
      ],
      [
        "Ġzero",
        -8.698902168645962
      ],
      [
        "Bob",
        -8.699374780663582
      ],
      [
        "Ġedge",
        -8.700484832085664
      ],
      [
        "Ġappear",
        -8.70726568792529
      ],
      [
        "Ġways",
        -8.716408279438895
      ],
      [
        "als",
        -8.719020017135021
      ],
      [
        "Ġwork",
        -8.719200352631216
      ],
      [
        "Ġcollection",
        -8.721566696431298
      ],
      [
        "Ġdefault",
        -8.721660635072581
      ],
      [
        "Ġdifferent",
        -8.72430545193802
      ],
      [
        "Ġ\\(",
        -8.729251308819407
      ],
      [
        "Ġmodul",
        -8.731983075356098
      ],
      [
        "list",
        -8.732374365810292
      ],
      [
        "Ġupdate",
        -8.733986878912166
      ],
      [
        "Ġdo",
        -8.734438840377369
      ],
      [
        "Ġdirection",
        -8.734757732136288
      ],
      [
        "row",
        -8.73613520278354
      ],
      [
        "]])",
        -8.74386175556456
      ],
      [
        "\"]",
        -8.748361113623172
      ],
      [
        "pop",
        -8.761236484714438
      ],
      [
        "Ġway",
        -8.76803487283296
      ],
      [
        "Ġinterval",
        -8.769169034696672
      ],
      [
        "Ġmean",
        -8.770562897460694
      ],
      [
        "Ġcoin",
        -8.775818517218529
      ],
      [
        "Ġpart",
        -8.781707437953862
      ],
      [
        "Ġboard",
        -8.78869704116383
      ],
      [
        "Ġtop",
        -8.791443176126293
      ],
      [
        "Ġheap",
        -8.796053986888584
      ],
      [
        "Ġchoose",
        -8.800487176727195
      ],
      [
        "root",
        -8.806938911363828
      ],
      [
        "Ġsome",
        -8.80715995306555
      ],
      [
        "Ġhead",
        -8.808764931759693
      ],
      [
        "Ġgood",
        -8.810312104048112
      ],
      [
        "O",
        -8.81392767373572
      ],
      [
        "Ġinput",
        -8.81412122790149
      ],
      [
        "Ġval",
        -8.825100147629733
      ],
      [
        "Ġprocess",
        -8.825337263312715
      ],
      [
        "Ġhelp",
        -8.843786652366225
      ],
      [
        "Ġplayer",
        -8.844156708195317
      ],
      [
        "Ġinitial",
        -8.849267802249006
      ],
      [
        "Ġfinal",
        -8.850656112797381
      ],
      [
        "ways",
        -8.860412553004377
      ],
      [
        "Ġconsecutive",
        -8.86544664787425
      ],
      [
        "inf",
        -8.868767294843707
      ],
      [
        "read",
        -8.870594261637137
      ],
      [
        "Ġsplit",
        -8.871385986719432
      ],
      [
        "sort",
        -8.875460063702636
      ],
      [
        "Ġmid",
        -8.877052492482372
      ],
      [
        "Ġhouse",
        -8.884211954115273
      ],
      [
        "Ġbox",
        -8.885552329703273
      ],
      [
        "ould",
        -8.889864902272922
      ],
      [
        "once",
        -8.890717003270087
      ],
      [
        "Ġwhen",
        -8.891322803734878
      ],
      [
        "add",
        -8.892847916365834
      ],
      [
        "',",
        -8.89367352806907
      ],
      [
        "Ġneighbor",
        -8.894341150893808
      ],
      [
        "Ġdefine",
        -8.89485425453961
      ],
      [
        "grid",
        -8.895719438839537
      ],
      [
        "dx",
        -8.900398272641667
      ],
      [
        "Ġprevious",
        -8.902877260741164
      ],
      [
        "Sum",
        -8.908847517310326
      ],
      [
        "Ġadjacent",
        -8.918012945174498
      ],
      [
        "Ġmultiple",
        -8.918950888132587
      ],
      [
        "Ġlevel",
        -8.921978873203761
      ],
      [
        "Ġarrays",
        -8.928371569291768
      ],
      [
        "Ġcity",
        -8.928901970567846
      ],
      [
        "Ġline",
        -8.930216597416642
      ],
      [
        "Ġsee",
        -8.930794245414322
      ],
      [
        "Ġpower",
        -8.93676408029219
      ],
      [
        "Ġbreak",
        -8.93955716030069
      ],
      [
        "mpty",
        -8.941737724812349
      ],
      [
        "Ġsingle",
        -8.942196871795076
      ],
      [
        "al",
        -8.944091366037242
      ],
      [
        "set",
        -8.951612225682652
      ],
      [
        "Ġcomplete",
        -8.95399952599334
      ],
      [
        "Ġtype",
        -8.956210767088319
      ],
      [
        "Ġparent",
        -8.95979302627385
      ],
      [
        "Ġroom",
        -8.963587889730881
      ],
      [
        "Ġreverse",
        -8.96753404387625
      ],
      [
        "Ġitem",
        -8.977864136336809
      ],
      [
        "Ġshortest",
        -8.980960552285616
      ],
      [
        "programm",
        -8.982041227326192
      ],
      [
        "Ġpermutation",
        -8.9880881662695
      ],
      [
        "Ġbut",
        -8.994930459289591
      ],
      [
        "step",
        -8.995287919497798
      ],
      [
        "Ġbefore",
        -9.005479123595649
      ],
      [
        "Ġdynamic",
        -9.006755664564245
      ],
      [
        "Ġgo",
        -9.007768829836175
      ],
      [
        "digit",
        -9.009270375132221
      ],
      [
        "Ġcompute",
        -9.009628644245065
      ],
      [
        "ĠFind",
        -9.010312801612594
      ],
      [
        "Ġprime",
        -9.013123747019707
      ],
      [
        "Ġbool",
        -9.013817085294068
      ],
      [
        "Ġrectangle",
        -9.018359466208018
      ],
      [
        "Ġpattern",
        -9.019333216115772
      ],
      [
        "ĠFinal",
        -9.023904107001822
      ],
      [
        "Ġprint",
        -9.024995442514946
      ],
      [
        "numerat",
        -9.026618303776392
      ],
      [
        "Ġball",
        -9.028998198049539
      ],
      [
        "Ġstudent",
        -9.032581498634322
      ],
      [
        "Ġswap",
        -9.033599219339726
      ],
      [
        "Ġworker",
        -9.035621480738754
      ],
      [
        "ĠNo",
        -9.04107074923979
      ],
      [
        "ice",
        -9.041699135978917
      ],
      [
        "Ġhandle",
        -9.051900461677615
      ],
      [
        "Ġ12",
        -9.052278902365707
      ],
      [
        "TreeNode",
        -9.061624067007235
      ],
      [
        "ĠMO",
        -9.063293943867244
      ],
      [
        "Ġcommon",
        -9.064208697584275
      ],
      [
        "unti",
        -9.065410553404007
      ],
      [
        "other",
        -9.067564041243825
      ],
      [
        "by",
        -9.072387869298366
      ],
      [
        "Ġconvert",
        -9.074504719742087
      ],
      [
        "Ġgenerate",
        -9.07585525645122
      ],
      [
        "Ġeli",
        -9.080560638298982
      ],
      [
        "end",
        -9.08201336182447
      ],
      [
        "Ġspecial",
        -9.086990919064174
      ],
      [
        "or",
        -9.090761290895593
      ],
      [
        "Ġcol",
        -9.095221849535069
      ],
      [
        "Ġsentence",
        -9.095938979804345
      ],
      [
        "Ġman",
        -9.09726695466292
      ],
      [
        "Ġamount",
        -9.098835855871808
      ],
      [
        "Ġdeque",
        -9.100563113213926
      ],
      [
        "mid",
        -9.105062199904065
      ],
      [
        "Ġsegment",
        -9.108852832365523
      ],
      [
        "z",
        -9.111376024656824
      ],
      [
        "Ġevent",
        -9.113243666697896
      ],
      [
        "Ġus",
        -9.115331561968985
      ],
      [
        "target",
        -9.115859503445881
      ],
      [
        "Ġhow",
        -9.120737514274921
      ],
      [
        "Ġprev",
        -9.127591513309373
      ],
      [
        "T",
        -9.12834395912617
      ],
      [
        "ĠIterat",
        -9.130394813974576
      ],
      [
        "ĠCounter",
        -9.132269691308203
      ],
      [
        "Ġfloat",
        -9.1327713821948
      ],
      [
        "Ġcorrect",
        -9.13609722478856
      ],
      [
        "nce",
        -9.137229908728845
      ],
      [
        "Ġyour",
        -9.137537247920651
      ],
      [
        "Ġdays",
        -9.141132968528591
      ],
      [
        "Ġbottom",
        -9.145338282284577
      ],
      [
        "Ġpalindrome",
        -9.147616700472007
      ],
      [
        "Ġcorrespond",
        -9.148502435012318
      ],
      [
        "Ġcomponent",
        -9.149037927016181
      ],
      [
        "ren",
        -9.156623181563617
      ],
      [
        "ĠSort",
        -9.161122004699198
      ],
      [
        "Ġoptimal",
        -9.169045118725945
      ],
      [
        "Ġ15",
        -9.171671702925035
      ],
      [
        "sol",
        -9.177337223320487
      ],
      [
        "ĉ",
        -9.178109834076952
      ],
      [
        "Ġpile",
        -9.17858708296796
      ],
      [
        "Ġrobot",
        -9.17883036700519
      ],
      [
        "algorithm",
        -9.17891081552118
      ],
      [
        "C",
        -9.18145876569913
      ],
      [
        "Ġobtain",
        -9.184810020590849
      ],
      [
        "Ġmaintain",
        -9.184815488387951
      ],
      [
        "abc",
        -9.185754013175567
      ],
      [
        "Ġgame",
        -9.186303514887122
      ],
      [
        "Ġpointer",
        -9.186513034940425
      ],
      [
        "first",
        -9.192895654907646
      ],
      [
        "distance",
        -9.196901167999144
      ],
      [
        "Ġstate",
        -9.197051212746985
      ],
      [
        "ab",
        -9.197823126912551
      ],
      [
        "ĠAdd",
        -9.197863640823247
      ],
      [
        "Ġpartition",
        -9.198764134873107
      ],
      [
        "Ġcode",
        -9.19889884828962
      ],
      [
        "Ġzeros",
        -9.204640433864391
      ],
      [
        "Ġsmaller",
        -9.206405676939687
      ],
      [
        "Ġweight",
        -9.20744133997957
      ],
      [
        "Ġsums",
        -9.207957126490854
      ],
      [
        "Ġachieve",
        -9.210937524250305
      ],
      [
        "Ġdepth",
        -9.213398349916393
      ],
      [
        "ĠCount",
        -9.221937612122137
      ],
      [
        "ĠCreat",
        -9.222369878229138
      ],
      [
        "Ġside",
        -9.222964761953072
      ],
      [
        "Ġbi",
        -9.225763591073415
      ],
      [
        "Ġlexicographical",
        -9.22669230658907
      ],
      [
        "Ġcontinue",
        -9.230537267810575
      ],
      [
        "diff",
        -9.23122738812361
      ],
      [
        "Ġincreasing",
        -9.240642186814135
      ],
      [
        "trictly",
        -9.244778795160261
      ],
      [
        "__",
        -9.24935008702638
      ],
      [
        "ecreasing",
        -9.249816556690165
      ],
      [
        "Ġlead",
        -9.25260144408971
      ],
      [
        "Ġwho",
        -9.25375613789451
      ],
      [
        "Ġhigh",
        -9.257435209393776
      ],
      [
        "ptional",
        -9.258029397981943
      ],
      [
        "\"],[\"",
        -9.263043078566678
      ],
      [
        "Ġcall",
        -9.265351213522669
      ],
      [
        "Ġdivide",
        -9.268164667237661
      ],
      [
        "Ġcandies",
        -9.268166502327027
      ],
      [
        "ĠUse",
        -9.269658397374805
      ],
      [
        "Node",
        -9.270790522513177
      ],
      [
        "prefix",
        -9.271130632806202
      ],
      [
        "size",
        -9.27199037019339
      ],
      [
        "Ġ50",
        -9.27212307734754
      ],
      [
        "formed",
        -9.27538470170807
      ],
      [
        "Ġrepresentation",
        -9.280016222062528
      ],
      [
        "ĠSo",
        -9.282822486036395
      ],
      [
        "Ġtable",
        -9.283899370030635
      ],
      [
        "Ġincrement",
        -9.285095947622615
      ],
      [
        "100",
        -9.29018454342776
      ],
      [
        "Ġfour",
        -9.290279230256871
      ],
      [
        "Ġthird",
        -9.292594393954086
      ],
      [
        "side",
        -9.297904988392883
      ],
      [
        "Ġlimit",
        -9.297942613295302
      ],
      [
        "Ġdirect",
        -9.298973676136278
      ],
      [
        "Ġcycle",
        -9.299248896965395
      ],
      [
        "Time",
        -9.301305485569722
      ],
      [
        "Tru",
        -9.302037733977325
      ],
      [
        "Ġoccurrences",
        -9.302549606315045
      ],
      [
        "Ġabsolute",
        -9.302777796823527
      ],
      [
        "Ġrecursive",
        -9.303417312821534
      ],
      [
        "Ġexpression",
        -9.30438985820749
      ],
      [
        "number",
        -9.306040391176879
      ],
      [
        "with",
        -9.306168614263232
      ],
      [
        "Ġnegative",
        -9.30747965783881
      ],
      [
        "ĠAn",
        -9.3076917237026
      ],
      [
        "E",
        -9.308272398824826
      ],
      [
        "Ġfactor",
        -9.30866275981342
      ],
      [
        "Ġplace",
        -9.311281914054351
      ],
      [
        "ever",
        -9.312092086790148
      ],
      [
        "neighbor",
        -9.314837076831314
      ],
      [
        "Ġdivisor",
        -9.316085718166196
      ],
      [
        "Ġselect",
        -9.316429262507977
      ],
      [
        "col",
        -9.31725616187197
      ],
      [
        "and",
        -9.319870219302206
      ],
      [
        "ĠNode",
        -9.32307014460191
      ],
      [
        "Ġ20",
        -9.324358307161624
      ],
      [
        "Ġbuilding",
        -9.325783707459577
      ],
      [
        "Ġpaths",
        -9.32600868413953
      ],
      [
        "Ġ&",
        -9.330520234877067
      ],
      [
        "Ġdivisible",
        -9.333103515862181
      ],
      [
        "Ġturn",
        -9.335153095161568
      ],
      [
        "ĠOther",
        -9.336437281033637
      ],
      [
        "BF",
        -9.337622946383036
      ],
      [
        "ĠUpdate",
        -9.338556505421288
      ],
      [
        "{",
        -9.340799589465782
      ],
      [
        "Ġremov",
        -9.341487081758586
      ],
      [
        "able",
        -9.34244779102076
      ],
      [
        "Ġtriplet",
        -9.342516942379307
      ],
      [
        "score",
        -9.347735563899862
      ],
      [
        "Ġending",
        -9.347870542981514
      ],
      [
        "ĠHe",
        -9.348421149307459
      ],
      [
        "Count",
        -9.35298712924994
      ],
      [
        "Ġabs",
        -9.357113982435441
      ],
      [
        "Ġrespective",
        -9.35718237973164
      ],
      [
        "Ġwant",
        -9.360774159575271
      ],
      [
        "Ġpick",
        -9.362943164976613
      ],
      [
        "ĠAt",
        -9.362951986341447
      ],
      [
        "Ġaverage",
        -9.366336218651298
      ],
      [
        "Ġcoordinate",
        -9.37186082198587
      ],
      [
        "Fal",
        -9.372959244464587
      ],
      [
        "'.",
        -9.373479149809526
      ],
      [
        "Ġserver",
        -9.374513185707013
      ],
      [
        "Ġdist",
        -9.374883132535377
      ],
      [
        "15",
        -9.385770026257468
      ],
      [
        "L",
        -9.388943893778045
      ],
      [
        "Ġprofit",
        -9.39074355172323
      ],
      [
        "Ġfruit",
        -9.392076406580152
      ],
      [
        "Ġdown",
        -9.394677410173815
      ],
      [
        "Ġconstruct",
        -9.396567096916353
      ],
      [
        "Ġmat",
        -9.400310885709777
      ],
      [
        "Ġcreate",
        -9.406236526604406
      ],
      [
        "Ġ(`",
        -9.409039046127516
      ],
      [
        "bit",
        -9.409046897331441
      ],
      [
        "Y",
        -9.409229373626523
      ],
      [
        "height",
        -9.409578545475245
      ],
      [
        "Ġoccur",
        -9.411558367500493
      ],
      [
        "Ġresults",
        -9.414228871822829
      ],
      [
        "Ġvowel",
        -9.414327805427169
      ],
      [
        "Ġ{",
        -9.414626910834837
      ],
      [
        "Ġblock",
        -9.420141348337516
      ],
      [
        "Ġbitwise",
        -9.42320651184918
      ],
      [
        "Ġrule",
        -9.423965278105024
      ],
      [
        "join",
        -9.427058526013871
      ],
      [
        "Ġallow",
        -9.433549633138856
      ],
      [
        "Ġun",
        -9.433882204441796
      ],
      [
        "Ġflip",
        -9.437482121201384
      ],
      [
        "Ġcombination",
        -9.437767458468091
      ],
      [
        "fore",
        -9.439282573288093
      ],
      [
        "Ġwin",
        -9.441596782046107
      ],
      [
        "R",
        -9.442009973653036
      ],
      [
        "ĠChoose",
        -9.445955750091969
      ],
      [
        "Ġshift",
        -9.448301213484319
      ],
      [
        "words",
        -9.448847468515904
      ],
      [
        "Ġcnt",
        -9.450147402987742
      ],
      [
        "Ġassign",
        -9.451464130945675
      ],
      [
        "Ġplay",
        -9.453980972030964
      ],
      [
        "cy",
        -9.45876279678152
      ],
      [
        "Ġavoid",
        -9.45900505709944
      ],
      [
        "mpossible",
        -9.468205117818957
      ],
      [
        "ĠStep",
        -9.469511013261693
      ],
      [
        "Ġsubset",
        -9.47006538448801
      ],
      [
        "us",
        -9.470615015103379
      ],
      [
        "Ġbeautiful",
        -9.470811593356219
      ],
      [
        "cache",
        -9.470832470158578
      ],
      [
        "Ġensur",
        -9.471623578988144
      ],
      [
        "Ġsatisfy",
        -9.473760489265818
      ],
      [
        "\"],",
        -9.475524739617807
      ],
      [
        "Ġback",
        -9.476717112439871
      ],
      [
        "Ġpeople",
        -9.477224596106957
      ],
      [
        "result",
        -9.478478172003765
      ],
      [
        "rows",
        -9.481867607406596
      ],
      [
        "Ġwater",
        -9.484192091564573
      ],
      [
        "Ġmatch",
        -9.49049028342316
      ],
      [
        "mask",
        -9.49400964693389
      ],
      [
        "}",
        -9.494506101716942
      ],
      [
        "pos",
        -9.494772805001672
      ],
      [
        "init",
        -9.496559888206715
      ],
      [
        "Ġjump",
        -9.496970243586187
      ],
      [
        "of",
        -9.497255076129726
      ],
      [
        "Ġroad",
        -9.498025032494711
      ],
      [
        "Ġloop",
        -9.5010302293064
      ],
      [
        "Ġcorner",
        -9.502460358484626
      ],
      [
        "degree",
        -9.50870680035504
      ],
      [
        "vailable",
        -9.50920623624464
      ],
      [
        "Ġ\"\"",
        -9.51856607584585
      ],
      [
        "Ġarea",
        -9.518626114584087
      ],
      [
        "Ġallowed",
        -9.51968950034665
      ],
      [
        "Ġcourse",
        -9.523528469622914
      ],
      [
        "strings",
        -9.528252276173628
      ],
      [
        "Ġteam",
        -9.54093725482516
      ],
      [
        "ĠOR",
        -9.542189513104724
      ],
      [
        "Ġround",
        -9.542367237540347
      ],
      [
        "Ġlink",
        -9.543296582087086
      ],
      [
        "Ġcar",
        -9.549727843493056
      ],
      [
        "xi",
        -9.552086122046077
      ],
      [
        "Ġclosest",
        -9.555147251542259
      ],
      [
        "Ġidea",
        -9.555872653726059
      ],
      [
        "Ġmiddle",
        -9.557970329728324
      ],
      [
        "ĠRemove",
        -9.558291164499265
      ],
      [
        "Ġindicate",
        -9.559023716250927
      ],
      [
        "Ġoccurrence",
        -9.55990043770388
      ],
      [
        "Ġ<<",
        -9.561924694622856
      ],
      [
        "Ġadded",
        -9.572032231243448
      ],
      [
        "Ġbuild",
        -9.572140818195109
      ],
      [
        "Ġdenote",
        -9.573903718764768
      ],
      [
        "Ġremainder",
        -9.587484092695517
      ],
      [
        "Ġsource",
        -9.5876862299612
      ],
      [
        "Ġname",
        -9.59190880227289
      ],
      [
        "Ġmov",
        -9.597852927919824
      ],
      [
        "new",
        -9.599544735655943
      ],
      [
        "ĠWhen",
        -9.599715192630637
      ],
      [
        "map",
        -9.600684576855837
      ],
      [
        "ĠConvert",
        -9.609626371527128
      ],
      [
        "Ĵ",
        -9.609791451676836
      ],
      [
        "Ġreplace",
        -9.610021113381755
      ],
      [
        "Ġwas",
        -9.611252794130648
      ],
      [
        "Ġinitialize",
        -9.612967913580732
      ],
      [
        "Ġmatche",
        -9.617866054145459
      ],
      [
        "Ġlow",
        -9.619195600103964
      ],
      [
        "\\)",
        -9.61934034176955
      ],
      [
        "]))",
        -9.621137961869682
      ],
      [
        "Ġ13",
        -9.62158565784594
      ],
      [
        "ĠâĨ",
        -9.625335885465876
      ],
      [
        "Ġaccording",
        -9.625396672253299
      ],
      [
        "Ġcould",
        -9.625614845228883
      ],
      [
        "Ġcontiguous",
        -9.62604016461839
      ],
      [
        ";",
        -9.626074207320213
      ],
      [
        "ĠMove",
        -9.628590004093699
      ],
      [
        "Find",
        -9.62909515087618
      ],
      [
        "Ġfull",
        -9.62945643016664
      ],
      [
        "Value",
        -9.629925960924027
      ],
      [
        "Ġpass",
        -9.630744615278564
      ],
      [
        "Ġguarantee",
        -9.631104287840861
      ],
      [
        "Ġsuffix",
        -9.634136944755394
      ],
      [
        "Ġcard",
        -9.639699270030976
      ],
      [
        "parent",
        -9.641502959869111
      ],
      [
        "pair",
        -9.641802376734768
      ],
      [
        "Array",
        -9.64199355926659
      ],
      [
        "Ġout",
        -9.643720753650921
      ],
      [
        "Ġsub",
        -9.646166698601096
      ],
      [
        "Ġlabel",
        -9.648040047369168
      ],
      [
        "$",
        -9.649267761038928
      ],
      [
        "Ġparenthes",
        -9.651795156079654
      ],
      [
        "Ġrepeated",
        -9.655223141874611
      ],
      [
        "ĠOne",
        -9.655847712217628
      ],
      [
        "Ġapply",
        -9.656018882250468
      ],
      [
        "Ġduplicate",
        -9.660830558862017
      ],
      [
        "Ġexplore",
        -9.66303751589593
      ],
      [
        "M",
        -9.665168579428187
      ],
      [
        "from",
        -9.665742643010283
      ],
      [
        "ĠFunction",
        -9.66949540247184
      ],
      [
        "Ġhal",
        -9.669786457433409
      ],
      [
        "position",
        -9.673120087286277
      ],
      [
        "leetcode",
        -9.673185511225585
      ],
      [
        "text",
        -9.674404938911657
      ],
      [
        "ĠNon",
        -9.675697373453623
      ],
      [
        "Ġcollect",
        -9.675766314881187
      ],
      [
        "Ġ...",
        -9.67653301670856
      ],
      [
        "Ġdestination",
        -9.677068381967665
      ],
      [
        "een",
        -9.677432692754131
      ],
      [
        "nd",
        -9.677952163678896
      ],
      [
        "Ġbuy",
        -9.678789699402719
      ],
      [
        "Ġtext",
        -9.68034472131191
      ],
      [
        "?",
        -9.680404824463482
      ],
      [
        "the",
        -9.684013302287084
      ],
      [
        "Ġupper",
        -9.68521275762664
      ],
      [
        "ĠAND",
        -9.686947388175362
      ],
      [
        "Ġentire",
        -9.690048215116704
      ],
      [
        "total",
        -9.69328717425304
      ],
      [
        "efinition",
        -9.694402526419829
      ],
      [
        "up",
        -9.69822270346775
      ],
      [
        "Ġobstacle",
        -9.69858184833587
      ],
      [
        "Ġdelete",
        -9.703880152460007
      ],
      [
        "Ġbacktrack",
        -9.70762057624474
      ],
      [
        "Ġ16",
        -9.712771074160791
      ],
      [
        ".\\",
        -9.71286765921074
      ],
      [
        "ĠLet",
        -9.713210568495313
      ],
      [
        "Ġpiece",
        -9.71410116634933
      ],
      [
        "Ġlog",
        -9.718219569991959
      ],
      [
        "Ġmeeting",
        -9.720438069574076
      ],
      [
        "Thu",
        -9.721689614758601
      ],
      [
        "Ġbegin",
        -9.721826649090682
      ],
      [
        "day",
        -9.724946267766391
      ],
      [
        "Ġfinding",
        -9.729659950914666
      ],
      [
        "covered",
        -9.730384927377422
      ],
      [
        "Ġmethod",
        -9.730413943153502
      ],
      [
        "Ġmeet",
        -9.730953206062352
      ],
      [
        "sorted",
        -9.731652723191765
      ],
      [
        "Ġdiff",
        -9.732322712951479
      ],
      [
        "child",
        -9.733120801967754
      ],
      [
        "ru",
        -9.734640976988839
      ],
      [
        "Ġmak",
        -9.73577152283358
      ],
      [
        "Ġplaced",
        -9.735909039210988
      ],
      [
        "Ġtraversal",
        -9.735935089832445
      ],
      [
        "Ġcut",
        -9.73702395598812
      ],
      [
        "ence",
        -9.737861712248838
      ],
      [
        "Cost",
        -9.73873729105646
      ],
      [
        "negative",
        -9.739469607327642
      ],
      [
        "ĠSearch",
        -9.742109060191893
      ],
      [
        "Ġminutes",
        -9.744324058020426
      ],
      [
        "Ġlower",
        -9.750134572517265
      ],
      [
        "Ġred",
        -9.752092466050502
      ],
      [
        "points",
        -9.753579203146284
      ],
      [
        "rd",
        -9.758209951313194
      ],
      [
        "Ġ`(",
        -9.76510970194369
      ],
      [
        "Ġwidth",
        -9.765777298140296
      ],
      [
        "ĠStart",
        -9.768896687226611
      ],
      [
        "Ġbitmask",
        -9.773142312525437
      ],
      [
        "Ġpropert",
        -9.775610908002363
      ],
      [
        "Ġdiagonal",
        -9.777046804223723
      ],
      [
        "Ġcustomer",
        -9.780785686100323
      ],
      [
        "find",
        -9.78147924770675
      ],
      [
        "Ġinclude",
        -9.782934024217845
      ],
      [
        "Ġ(-",
        -9.783357944456588
      ],
      [
        "W",
        -9.787677367981075
      ],
      [
        "Ġamong",
        -9.7896668679692
      ],
      [
        "ill",
        -9.794912476798523
      ],
      [
        "@",
        -9.79529771459394
      ],
      [
        "Ġ106",
        -9.795514169937892
      ],
      [
        "Ġhighest",
        -9.79552038056215
      ],
      [
        "ĠFill",
        -9.79899987823272
      ],
      [
        "Ġpaint",
        -9.808064177180038
      ],
      [
        "money",
        -9.808182218203033
      ],
      [
        "Ġmerge",
        -9.810264913222651
      ],
      [
        "Ġbest",
        -9.811747669526522
      ],
      [
        "Ġtravel",
        -9.816167177169042
      ],
      [
        "Ġtraverse",
        -9.816396116395815
      ],
      [
        "scending",
        -9.818682140322723
      ],
      [
        "Ġencounter",
        -9.820798772844316
      ],
      [
        "hold",
        -9.82238719443028
      ],
      [
        "ans",
        -9.823014696222067
      ],
      [
        "Ġ30",
        -9.824632839818413
      ],
      [
        "prime",
        -9.82559223738518
      ],
      [
        "Ġmedian",
        -9.831661258340606
      ],
      [
        "Ġreduce",
        -9.83490626277619
      ],
      [
        "low",
        -9.837356712763146
      ],
      [
        "Ġmemoiz",
        -9.839290631997482
      ],
      [
        "ool",
        -9.840337513380288
      ],
      [
        "log",
        -9.840686654494068
      ],
      [
        "Ġrun",
        -9.841702052432804
      ],
      [
        "Ġpalindromic",
        -9.843421125783957
      ],
      [
        "Ġcounter",
        -9.84452686380158
      ],
      [
        "Ġflower",
        -9.844855943683342
      ],
      [
        "board",
        -9.845336851766678
      ],
      [
        "digits",
        -9.845764449271432
      ],
      [
        "Ġpresent",
        -9.847404015579542
      ],
      [
        "Ġdescend",
        -9.85218115315762
      ],
      [
        "Ġsubtract",
        -9.853648317585876
      ],
      [
        "Ġplant",
        -9.853764351886522
      ],
      [
        "get",
        -9.854493491634962
      ],
      [
        "Ġtw",
        -9.85580826832177
      ],
      [
        "zero",
        -9.858539100005059
      ],
      [
        "Ġsatisfies",
        -9.859465695953736
      ],
      [
        "an",
        -9.85981707786726
      ],
      [
        "Ġmemo",
        -9.860274022311755
      ],
      [
        "Ġrequirement",
        -9.860351469745808
      ],
      [
        "Ġimage",
        -9.868761614784583
      ],
      [
        "taken",
        -9.873129104926765
      ],
      [
        "Ġseconds",
        -9.873749193321288
      ],
      [
        "Ġmountain",
        -9.875002038639211
      ],
      [
        "Ġfill",
        -9.875334747648388
      ],
      [
        "ones",
        -9.878317324331107
      ],
      [
        "now",
        -9.88008132633352
      ],
      [
        "Ġjob",
        -9.881707914521037
      ],
      [
        "Ġstop",
        -9.882914675082628
      ],
      [
        "Ġmap",
        -9.884532075460545
      ],
      [
        "Ġmaximize",
        -9.885054513524121
      ],
      [
        "freq",
        -9.886369235792536
      ],
      [
        "Ġsliding",
        -9.886394630263531
      ],
      [
        "Ġvertical",
        -9.886493971448623
      ],
      [
        "Ġdegree",
        -9.88855970136458
      ],
      [
        "Ġvi",
        -9.889315044216902
      ],
      [
        "Ġtuple",
        -9.89089107025558
      ],
      [
        "Ġexceed",
        -9.893197346641426
      ],
      [
        "even",
        -9.89344992482319
      ],
      [
        "marked",
        -9.894919206671798
      ],
      [
        "Ġadjacen",
        -9.8963874698706
      ],
      [
        "Ġprovide",
        -9.897488716479923
      ],
      [
        "ĠCalculati",
        -9.899592618978884
      ],
      [
        "Ġgcd",
        -9.89965606271327
      ],
      [
        "Ġinsert",
        -9.901471026758138
      ],
      [
        "prev",
        -9.903787746613512
      ],
      [
        "Ġfloor",
        -9.906067284917583
      ],
      [
        "Ġcandidate",
        -9.90821712418022
      ],
      [
        "hat",
        -9.9090023954178
      ],
      [
        "I",
        -9.909977847373698
      ],
      [
        "Ġcit",
        -9.913044540199376
      ],
      [
        "Two",
        -9.913714762544302
      ],
      [
        "Ġchose",
        -9.913993838497579
      ],
      [
        "most",
        -9.914778565198352
      ],
      [
        "one",
        -9.919002921147582
      ],
      [
        "Ġ26",
        -9.923567555477245
      ],
      [
        "Ġdata",
        -9.928141594217017
      ],
      [
        "Ġisland",
        -9.931132685352157
      ],
      [
        "Ġmark",
        -9.932430193212411
      ],
      [
        "Ġmissing",
        -9.936723962364134
      ],
      [
        "Ġencoded",
        -9.939239717516873
      ],
      [
        "Ġrank",
        -9.941243838238034
      ],
      [
        "Ġchang",
        -9.944525910456353
      ],
      [
        "state",
        -9.949123432873227
      ],
      [
        "Ġvariable",
        -9.949358886229762
      ],
      [
        "ĠInitial",
        -9.952224856878846
      ],
      [
        "valid",
        -9.955143614424806
      ],
      [
        "Ġpush",
        -9.957581173776742
      ],
      [
        "color",
        -9.96020757235502
      ],
      [
        "Ġcircle",
        -9.96297592472886
      ],
      [
        "Ġblue",
        -9.963337330008683
      ],
      [
        "stack",
        -9.963394498340024
      ],
      [
        "age",
        -9.96362796657559
      ],
      [
        "Ġbag",
        -9.964178220928204
      ],
      [
        "ĠCase",
        -9.965215658043093
      ],
      [
        "Ġenergy",
        -9.96681190128264
      ],
      [
        "Ġmask",
        -9.970177201210204
      ],
      [
        "Your",
        -9.97094043867866
      ],
      [
        "made",
        -9.971525607579355
      ],
      [
        "Ġ500",
        -9.972470363011798
      ],
      [
        "xor",
        -9.974462335778295
      ],
      [
        "ĠHow",
        -9.974516686020072
      ],
      [
        "Ġ\\)",
        -9.975292913477661
      ],
      [
        "Ġprove",
        -9.978658382478194
      ],
      [
        "Ġ{}",
        -9.97893901181368
      ],
      [
        "Ġtriangle",
        -9.98323396230899
      ],
      [
        "odd",
        -9.985288664302551
      ],
      [
        "Ġtile",
        -9.986881424292243
      ],
      [
        "Ġusage",
        -9.989537141906155
      ],
      [
        "ĠPyth",
        -9.994163589541394
      ],
      [
        "Sort",
        -9.9943033212021
      ],
      [
        "ĠFollow",
        -9.995673971828573
      ],
      [
        "split",
        -9.99726706492363
      ],
      [
        "Ġextra",
        -9.999902200180175
      ],
      [
        "Ġstructure",
        -10.004618298968634
      ],
      [
        "Ġ[[\"",
        -10.005498910319378
      ],
      [
        "depth",
        -10.005906448278218
      ],
      [
        "Ġbisect",
        -10.006612179771135
      ],
      [
        "Binary",
        -10.009267045522986
      ],
      [
        "Ġupdat",
        -10.013434857647018
      ],
      [
        "Ġbalanced",
        -10.014315806386541
      ],
      [
        "Ġ25",
        -10.014556578553112
      ],
      [
        "Return",
        -10.014744465853626
      ],
      [
        "Ġbucket",
        -10.014912596464153
      ],
      [
        "part",
        -10.015382026403305
      ],
      [
        "Ġcapacity",
        -10.017117214745328
      ],
      [
        "Ġmath",
        -10.017722971447837
      ],
      [
        "K",
        -10.01922246718666
      ],
      [
        "Ġoutput",
        -10.020044417229734
      ],
      [
        "Ġquestion",
        -10.020284100497557
      ],
      [
        "Ġdu",
        -10.020881826459991
      ],
      [
        "com",
        -10.021090615125235
      ],
      [
        "path",
        -10.022320853585201
      ],
      [
        "Ġsign",
        -10.022333108653164
      ],
      [
        "Ġfreq",
        -10.024334558852733
      ],
      [
        "dfs",
        -10.026208592421888
      ],
      [
        "Ġshare",
        -10.027037967318222
      ],
      [
        "Ġrequest",
        -10.028381512710592
      ],
      [
        "Ġcenter",
        -10.029733091993181
      ],
      [
        "all",
        -10.029811179877868
      ],
      [
        "U",
        -10.034218954195998
      ],
      [
        "very",
        -10.036452848591011
      ],
      [
        "Ġhorizontal",
        -10.038995125325675
      ],
      [
        "Ġbrick",
        -10.039990680181592
      ],
      [
        "item",
        -10.043306940946593
      ],
      [
        "Ġ''",
        -10.047231244518425
      ],
      [
        "heappush",
        -10.047926145172726
      ],
      [
        "From",
        -10.048237914562304
      ],
      [
        "Ġunits",
        -10.048420460970782
      ],
      [
        "Ġtry",
        -10.048488253465855
      ],
      [
        "Ġminimize",
        -10.049129694551324
      ],
      [
        "element",
        -10.051269443407353
      ],
      [
        "Ġfriend",
        -10.051406771258215
      ],
      [
        "Ġincrease",
        -10.055595978609288
      ],
      [
        "Ġcalculation",
        -10.055988449630895
      ],
      [
        "Ġhours",
        -10.057308392309574
      ],
      [
        "Ġwhe",
        -10.05731765017222
      ],
      [
        "Ġseparate",
        -10.05738032474822
      ],
      [
        "ĠOn",
        -10.057775678189
      ],
      [
        "Ġremain",
        -10.059304310542634
      ],
      [
        "rank",
        -10.060719543270267
      ],
      [
        "profit",
        -10.061039804847837
      ],
      [
        "product",
        -10.061477260715302
      ],
      [
        "group",
        -10.061674043747088
      ],
      [
        "Ġord",
        -10.063103619989619
      ],
      [
        "Ġspecifie",
        -10.072208767017388
      ],
      [
        "Ġland",
        -10.072822946549916
      ],
      [
        "Number",
        -10.080505558109671
      ],
      [
        "lack",
        -10.080805104656191
      ],
      [
        "Ġbelow",
        -10.081044126113309
      ],
      [
        "Ġfinish",
        -10.083580662293596
      ],
      [
        "Pairs",
        -10.084960748608815
      ],
      [
        "Ġleaf",
        -10.08515776949589
      ],
      [
        "Ġleave",
        -10.087185918897884
      ],
      [
        "Ġhour",
        -10.088764653054053
      ],
      [
        "ĠUnion",
        -10.089523456310456
      ],
      [
        "our",
        -10.092871805251349
      ],
      [
        "counts",
        -10.09646495396002
      ],
      [
        "Result",
        -10.096653721491343
      ],
      [
        "last",
        -10.100492514530558
      ],
      [
        "key",
        -10.101411877202588
      ],
      [
        "Ġboundary",
        -10.103393467235566
      ],
      [
        "Ġoverlap",
        -10.104544843901074
      ],
      [
        "Ġfar",
        -10.104840779129002
      ],
      [
        "Ġfit",
        -10.105835802499378
      ],
      [
        "Ġbasket",
        -10.109387626944734
      ],
      [
        "Ġ14",
        -10.11533499751481
      ],
      [
        "dist",
        -10.115377473485216
      ],
      [
        "order",
        -10.116893649185766
      ],
      [
        "Ġalternating",
        -10.11902240783704
      ],
      [
        "sums",
        -10.12218607374548
      ],
      [
        "Ġmessage",
        -10.122378861663059
      ],
      [
        "mbda",
        -10.122401928816958
      ],
      [
        "ĠDictionar",
        -10.123189133228093
      ],
      [
        "Total",
        -10.125443294727248
      ],
      [
        "Ġrest",
        -10.127824261131565
      ],
      [
        "abcd",
        -10.128523981146971
      ],
      [
        "Ġdy",
        -10.129695458933718
      ],
      [
        "float",
        -10.130011309054026
      ],
      [
        "here",
        -10.132205157090391
      ],
      [
        "Ġspeed",
        -10.13365855314598
      ],
      [
        "ĠTr",
        -10.134026147640295
      ],
      [
        "\"]]",
        -10.134167052344111
      ],
      [
        "reverse",
        -10.140721805256655
      ],
      [
        "at",
        -10.14318609906923
      ],
      [
        "Ġadditional",
        -10.143955864311817
      ],
      [
        "times",
        -10.149839151716641
      ],
      [
        "Ġsimilar",
        -10.151140402272961
      ],
      [
        "Ġplan",
        -10.151860562510198
      ],
      [
        "substring",
        -10.152900692445098
      ],
      [
        "hose",
        -10.153967927356547
      ],
      [
        "Ġnecessar",
        -10.157323423364808
      ],
      [
        "Ġgain",
        -10.159334646108295
      ],
      [
        "bisect",
        -10.15987004102644
      ],
      [
        "Ġ24",
        -10.160587998703672
      ],
      [
        "Ġrepeat",
        -10.161154185003966
      ],
      [
        "Ġstick",
        -10.161997231734087
      ],
      [
        "Ġfree",
        -10.162715695328604
      ],
      [
        "1000",
        -10.166591545312887
      ],
      [
        "Ġmapping",
        -10.167121459589382
      ],
      [
        "Ġ32",
        -10.168068580044071
      ],
      [
        "he",
        -10.168852454030581
      ],
      [
        "Ġprocessing",
        -10.169975284186204
      ],
      [
        "Ġhash",
        -10.179929881028713
      ],
      [
        "Ġmonster",
        -10.188328759463861
      ],
      [
        "Ġ(\"",
        -10.188502944962863
      ],
      [
        "Ġiterat",
        -10.189920420009653
      ],
      [
        "long",
        -10.190183735725935
      ],
      [
        "Ġ17",
        -10.1930975538498
      ],
      [
        "Ġreceive",
        -10.194069895898398
      ],
      [
        "done",
        -10.197055901446852
      ],
      [
        "Ġcover",
        -10.199959526209822
      ],
      [
        "gcd",
        -10.203541456413165
      ],
      [
        "Ġperm",
        -10.203731610727715
      ],
      [
        "Ġsubsets",
        -10.204130616996785
      ],
      [
        "Counter",
        -10.204184502577473
      ],
      [
        "ight",
        -10.20991933762433
      ],
      [
        "Ġinvalid",
        -10.210808903208836
      ],
      [
        "ĠNot",
        -10.212409419006638
      ],
      [
        "coordinate",
        -10.214397269124987
      ],
      [
        "ĠEvery",
        -10.21458794553789
      ],
      [
        "\")",
        -10.216009095946637
      ],
      [
        "nan",
        -10.219447073158197
      ],
      [
        "Ġapple",
        -10.22005193842169
      ],
      [
        "matrix",
        -10.220360408964442
      ],
      [
        "Ġtransform",
        -10.23057672796894
      ],
      [
        "ecimal",
        -10.230871702108834
      ],
      [
        "Ġstreet",
        -10.231046177858165
      ],
      [
        "ally",
        -10.23278177233433
      ],
      [
        "First",
        -10.235218128806862
      ],
      [
        "00000",
        -10.236229664846846
      ],
      [
        "Ġjust",
        -10.237082397208697
      ],
      [
        "Ġalphabet",
        -10.237300165017576
      ],
      [
        "Word",
        -10.238588457473995
      ],
      [
        "Ġkth",
        -10.238873874166039
      ],
      [
        "ord",
        -10.240996973200398
      ],
      [
        "G",
        -10.241710562584753
      ],
      [
        "16",
        -10.243091320141813
      ],
      [
        "Ġdelet",
        -10.244369801102646
      ],
      [
        "ĠPerform",
        -10.245364457675434
      ],
      [
        "Ġtrailing",
        -10.245415120121153
      ],
      [
        "ness",
        -10.245551362962075
      ],
      [
        "Ġhealth",
        -10.24743830415936
      ],
      [
        "Ġmain",
        -10.248799285290552
      ],
      [
        "ĠGCD",
        -10.249663964567613
      ],
      [
        "Ġbound",
        -10.251488285901175
      ],
      [
        "ĠSwap",
        -10.251622239346439
      ],
      [
        "Ġgreatest",
        -10.252978166869038
      ],
      [
        "Ġroll",
        -10.255068293618152
      ],
      [
        "Ġbalance",
        -10.256188549405941
      ],
      [
        "Ġtoken",
        -10.256381976287123
      ],
      [
        "ĠBy",
        -10.262004943467964
      ],
      [
        "city",
        -10.265406273130528
      ],
      [
        "Ġversion",
        -10.266588768976224
      ],
      [
        "...,",
        -10.267151715758564
      ],
      [
        "Ġopen",
        -10.268379289892021
      ],
      [
        "Ġemployee",
        -10.271411698767848
      ],
      [
        "nough",
        -10.272032114504094
      ],
      [
        "aba",
        -10.27399322675376
      ],
      [
        "Ġ18",
        -10.274264871918518
      ],
      [
        "ry",
        -10.27668156677506
      ],
      [
        "Ġderive",
        -10.277926764566972
      ],
      [
        "Ġtrip",
        -10.278326203868147
      ],
      [
        "range",
        -10.27867185307793
      ],
      [
        "ĠBuild",
        -10.27983137352442
      ],
      [
        "Ġiterative",
        -10.280092938632162
      ],
      [
        "Ġthre",
        -10.28141889343807
      ],
      [
        "Ġtest",
        -10.281641481364025
      ],
      [
        "Ġeat",
        -10.28376757880839
      ],
      [
        "Ġrearrange",
        -10.283923700457912
      ],
      [
        "Ġdiffer",
        -10.286531820804388
      ],
      [
        "Ġuser",
        -10.286716498659853
      ],
      [
        "Ġplus",
        -10.292213258363255
      ],
      [
        "Ġsuit",
        -10.293453418881754
      ],
      [
        "Ġpotential",
        -10.294661213739847
      ],
      [
        "price",
        -10.295654846752718
      ],
      [
        "umm",
        -10.298993432168
      ],
      [
        "Ġregion",
        -10.300949964151418
      ],
      [
        "irected",
        -10.304379714711853
      ],
      [
        "Ġ60",
        -10.304468796145303
      ],
      [
        "name",
        -10.304545674534797
      ],
      [
        "Ġdeletion",
        -10.30461571916307
      ],
      [
        "Ġmodified",
        -10.306863656137182
      ],
      [
        "ĠLC",
        -10.309910227252972
      ],
      [
        "Ġformat",
        -10.312749055299754
      ],
      [
        "Ġhav",
        -10.313202078265963
      ],
      [
        "increasing",
        -10.319473161842444
      ],
      [
        "Ġtechnique",
        -10.321157744674261
      ],
      [
        "Ġformula",
        -10.322145947046764
      ],
      [
        "Ġdescribe",
        -10.323540695910264
      ],
      [
        "Ġstation",
        -10.324302903744364
      ],
      [
        "Ġseats",
        -10.3275706436599
      ],
      [
        "ĠOperation",
        -10.328660040663623
      ],
      [
        "Ġwait",
        -10.329322591414229
      ],
      [
        "change",
        -10.329874307150739
      ],
      [
        "Ġtransaction",
        -10.33168157917194
      ],
      [
        "Ġagain",
        -10.33185571688205
      ],
      [
        "ĠID",
        -10.332728923222353
      ],
      [
        "Ġeasi",
        -10.333145546677745
      ],
      [
        "Ġ'*'",
        -10.333942541652457
      ],
      [
        "Distance",
        -10.334525588626123
      ],
      [
        "String",
        -10.335371325599935
      ],
      [
        "109",
        -10.336535168164335
      ],
      [
        "Ġbeauty",
        -10.339303912690353
      ],
      [
        "Ġswapp",
        -10.341692566778065
      ],
      [
        "Ġuppercase",
        -10.341872859476297
      ],
      [
        "Ġquick",
        -10.343315880593066
      ],
      [
        "limit",
        -10.34415002979681
      ],
      [
        "The",
        -10.345133309099367
      ],
      [
        "Ġkeys",
        -10.346402106951878
      ],
      [
        "Ġdur",
        -10.349566906017582
      ],
      [
        "ead",
        -10.349922025401835
      ],
      [
        "ten",
        -10.351751769879108
      ],
      [
        "second",
        -10.352363132512897
      ],
      [
        "Ġintersection",
        -10.354995753118676
      ],
      [
        "moves",
        -10.355751789472885
      ],
      [
        "Ġadjust",
        -10.355890914329546
      ],
      [
        "H",
        -10.357059165834968
      ],
      [
        "âĢĭâĢĭâĢĭ",
        -10.358141082308126
      ],
      [
        "Ġcandy",
        -10.360132810594395
      ],
      [
        "Ġpreorder",
        -10.362071607164868
      ],
      [
        "Ġarrive",
        -10.366119095671223
      ],
      [
        "Ġfriends",
        -10.368695818018978
      ],
      [
        "ĠTrie",
        -10.369220480886462
      ],
      [
        "pattern",
        -10.369765227054916
      ],
      [
        "Calculate",
        -10.37056063247494
      ],
      [
        "Ġund",
        -10.370613425220617
      ],
      [
        "Ġpixel",
        -10.37110835076832
      ],
      [
        "overlapp",
        -10.371415969066753
      ],
      [
        "Ġhold",
        -10.372379701107626
      ],
      [
        "Ġaccept",
        -10.374869872598723
      ],
      [
        "Ġstrength",
        -10.374962067782285
      ],
      [
        "Take",
        -10.374975391137923
      ],
      [
        "Path",
        -10.375745595730336
      ],
      [
        "Ġ'('",
        -10.377898552000996
      ],
      [
        "N",
        -10.380881141302627
      ],
      [
        "lower",
        -10.381153071466533
      ],
      [
        "Ġinclud",
        -10.38236417614503
      ],
      [
        "down",
        -10.382508330258277
      ],
      [
        "Ġknow",
        -10.382648358311709
      ],
      [
        "Ġfigure",
        -10.385983027921448
      ],
      [
        "remove",
        -10.386364498601262
      ],
      [
        "Ġduration",
        -10.387117229864824
      ],
      [
        "ijk",
        -10.387389429777304
      ],
      [
        "Ġprocesse",
        -10.387557750117999
      ],
      [
        "ll",
        -10.387987571906955
      ],
      [
        "Ġlike",
        -10.388951717235967
      ],
      [
        "Ġfrequent",
        -10.389955551794568
      ],
      [
        "Ġshe",
        -10.391524188279678
      ],
      [
        "Ġtak",
        -10.393891829954395
      ],
      [
        "Ġredundan",
        -10.397216844814437
      ],
      [
        "ĠIncrement",
        -10.398388165866177
      ],
      [
        "palindrome",
        -10.39906591237622
      ],
      [
        "Ġskip",
        -10.400361317343071
      ],
      [
        "Ġdistribute",
        -10.401727442690849
      ],
      [
        "Traverse",
        -10.402676366097088
      ],
      [
        "ĠFirst",
        -10.403614710991047
      ],
      [
        "Pos",
        -10.404561706431137
      ],
      [
        "place",
        -10.405734943527175
      ],
      [
        "Ġwell",
        -10.406044799702574
      ],
      [
        "verte",
        -10.406051961158788
      ],
      [
        "Ġactual",
        -10.406154866527215
      ],
      [
        "Ġ2000",
        -10.40669747663026
      ],
      [
        "inclusive",
        -10.407301004574526
      ],
      [
        "where",
        -10.408721758151287
      ],
      [
        "ĠBot",
        -10.41291221559424
      ],
      [
        "ĠReplace",
        -10.413006878616603
      ],
      [
        "Ġ231",
        -10.413103170339614
      ],
      [
        "Ġcombine",
        -10.41321409478741
      ],
      [
        "Ġplane",
        -10.413992849462998
      ],
      [
        "Ġcolored",
        -10.415654782800805
      ],
      [
        "Ġancestor",
        -10.416148442336908
      ],
      [
        "123",
        -10.41866674338787
      ],
      [
        "Ġ>>",
        -10.42225874208087
      ],
      [
        "were",
        -10.42259114454905
      ],
      [
        "Ġones",
        -10.429828397072018
      ],
      [
        "Ġspecific",
        -10.432975397256628
      ],
      [
        "Ġskill",
        -10.433504967904007
      ],
      [
        "Ġsimulate",
        -10.434442687999512
      ],
      [
        "Ġgarden",
        -10.434833196225929
      ],
      [
        "level",
        -10.436733687527614
      ],
      [
        "Ġrunning",
        -10.436875066752613
      ],
      [
        "true",
        -10.43688775726772
      ],
      [
        "Ġmod",
        -10.437030693257192
      ],
      [
        "needed",
        -10.437032054059301
      ],
      [
        "oxes",
        -10.437606262220012
      ],
      [
        "Ġunion",
        -10.440769101477084
      ],
      [
        "Ġsell",
        -10.442266518069848
      ],
      [
        "Ġlocation",
        -10.44307527605659
      ],
      [
        "Ġrelative",
        -10.443467348360558
      ],
      [
        "possibly",
        -10.44346737493711
      ],
      [
        "Ġdiagram",
        -10.44346800877548
      ],
      [
        "Ġ200",
        -10.44415059188999
      ],
      [
        "Ġcircular",
        -10.447137799368196
      ],
      [
        "Ġfunct",
        -10.449365765216882
      ],
      [
        "Ġchoos",
        -10.45184498977705
      ],
      [
        "ĠAs",
        -10.452490375008185
      ],
      [
        "Ġexcept",
        -10.455951086698434
      ],
      [
        "hal",
        -10.456468656394158
      ],
      [
        "104",
        -10.456521357404625
      ],
      [
        "Ġarithmetic",
        -10.456560345767706
      ],
      [
        "Prefix",
        -10.458844497939218
      ],
      [
        "Ġfront",
        -10.460672486279456
      ],
      [
        "Ġcols",
        -10.461098516622581
      ],
      [
        "graph",
        -10.463560581895894
      ],
      [
        "power",
        -10.464394508117397
      ],
      [
        "stra",
        -10.466604869083124
      ],
      [
        "appiness",
        -10.467379673701348
      ],
      [
        "division",
        -10.467420830955394
      ],
      [
        "Ġ'.'",
        -10.467479652148752
      ],
      [
        "Ġstamp",
        -10.471237352576326
      ],
      [
        "ĠSplit",
        -10.472123877103591
      ],
      [
        "Ġsecret",
        -10.47488328480092
      ],
      [
        "Ġbracket",
        -10.474890331403333
      ],
      [
        "Difference",
        -10.47961708817396
      ],
      [
        "Query",
        -10.481096219198317
      ],
      [
        "for",
        -10.483077453635575
      ],
      [
        "base",
        -10.48324998321506
      ],
      [
        "Ġbelong",
        -10.48344268011775
      ],
      [
        "Ġslot",
        -10.486221876470628
      ],
      [
        "area",
        -10.487287413210002
      ],
      [
        "Ġrotated",
        -10.48830466820366
      ],
      [
        "sub",
        -10.490317869514362
      ],
      [
        "ether",
        -10.492990435188812
      ],
      [
        ")\\)",
        -10.493210969260227
      ],
      [
        "Ġreward",
        -10.493650173661507
      ],
      [
        "Ġconnection",
        -10.494010556495853
      ],
      [
        "Ġrook",
        -10.495944777421498
      ],
      [
        "Ġwall",
        -10.497682579276475
      ],
      [
        "Ġdenot",
        -10.500480056169664
      ],
      [
        "())",
        -10.500881571808547
      ],
      [
        "Ġ19",
        -10.501641063149137
      ],
      [
        "code",
        -10.503182354114895
      ],
      [
        "Points",
        -10.503869799852659
      ],
      [
        "round",
        -10.505191959636859
      ],
      [
        "Ġbar",
        -10.506368918295806
      ],
      [
        "unique",
        -10.508219424655623
      ],
      [
        "Ġfrequencies",
        -10.510019517398558
      ],
      [
        "re",
        -10.512025313077265
      ],
      [
        "Ġunit",
        -10.513408560147413
      ],
      [
        "Ġres",
        -10.514941041521544
      ],
      [
        "Ġminute",
        -10.51609100966958
      ],
      [
        "aneous",
        -10.517158724365974
      ],
      [
        "Ġreplacement",
        -10.518410297794446
      ],
      [
        "Ġconcatenation",
        -10.520567712067304
      ],
      [
        "Ġfile",
        -10.521181931205575
      ],
      [
        "Ġdate",
        -10.521382689996985
      ],
      [
        "Ġflipp",
        -10.522664246514104
      ],
      [
        "square",
        -10.523032495724262
      ],
      [
        "Ġfewe",
        -10.525259495760773
      ],
      [
        "happy",
        -10.529857147685581
      ],
      [
        "Ġcalculat",
        -10.530198085406752
      ],
      [
        "Ġreache",
        -10.531307477059784
      ],
      [
        "V",
        -10.5333448465306
      ],
      [
        "Ġrotate",
        -10.534183870751937
      ],
      [
        "Ġ')'",
        -10.535246922873434
      ],
      [
        "Ġstock",
        -10.537897679883397
      ],
      [
        "Check",
        -10.537936201549668
      ],
      [
        "pointer",
        -10.538228509968679
      ],
      [
        "edges",
        -10.539982748581544
      ],
      [
        "ĠBST",
        -10.542084580466277
      ],
      [
        "Indices",
        -10.544014786834465
      ],
      [
        "Ġinclusive",
        -10.544394587522751
      ],
      [
        "ĠSet",
        -10.54613374910426
      ],
      [
        "Initializ",
        -10.5461990299633
      ],
      [
        "Ġlonge",
        -10.548932595298663
      ],
      [
        "Ġdecrement",
        -10.549280963787478
      ],
      [
        "ined",
        -10.552076016138358
      ],
      [
        "Ġcompare",
        -10.553644199430451
      ],
      [
        "operation",
        -10.553694898738058
      ],
      [
        "head",
        -10.554378151237017
      ],
      [
        "ĠChange",
        -10.557950976037187
      ],
      [
        "Ġyear",
        -10.562951787375606
      ],
      [
        "Ġreachable",
        -10.56299642226756
      ],
      [
        "[::",
        -10.56795770859981
      ],
      [
        "Ġmodify",
        -10.568925411026466
      ],
      [
        "false",
        -10.569288575537291
      ],
      [
        "ĠResult",
        -10.569821955046773
      ],
      [
        "bound",
        -10.58077076715376
      ],
      [
        "Ġnone",
        -10.581130009000256
      ],
      [
        "Ġearn",
        -10.58125644116927
      ],
      [
        "aaa",
        -10.581943835414208
      ],
      [
        "Ġpeak",
        -10.582061365169904
      ],
      [
        "Ġaddress",
        -10.582933867215699
      ],
      [
        "Ġreplaced",
        -10.584266045174104
      ],
      [
        "Only",
        -10.585754779101023
      ],
      [
        "Ġpos",
        -10.586750754993318
      ],
      [
        "},",
        -10.587020200842769
      ],
      [
        "ĠProcess",
        -10.588251730985412
      ],
      [
        "Ġweights",
        -10.59027643579551
      ],
      [
        "Ġrecord",
        -10.591325045414703
      ],
      [
        "Ġzi",
        -10.591925749570006
      ],
      [
        "Ġinorder",
        -10.593111162370947
      ],
      [
        "linear",
        -10.596913946928941
      ],
      [
        "link",
        -10.601825123149688
      ],
      [
        "Ġwrit",
        -10.602550836533348
      ],
      [
        "mat",
        -10.603092553193601
      ],
      [
        "pq",
        -10.606381252172891
      ],
      [
        "Ġextend",
        -10.606383876445957
      ],
      [
        "Ġevaluate",
        -10.606469319424217
      ],
      [
        "Ġfolder",
        -10.61014778076192
      ],
      [
        "Ġstatement",
        -10.611950239667795
      ],
      [
        "50",
        -10.61239755620575
      ],
      [
        "Ġinfinite",
        -10.61317530115024
      ],
      [
        "maz",
        -10.613874321251512
      ],
      [
        "Ġexpress",
        -10.614223177827702
      ],
      [
        "Ġseat",
        -10.615133473889625
      ],
      [
        "ion",
        -10.616780920513108
      ],
      [
        "Ġfuel",
        -10.61740923598219
      ],
      [
        "Ġtrie",
        -10.619434673979335
      ],
      [
        "Ġindicat",
        -10.61944369121031
      ],
      [
        "To",
        -10.620490958098173
      ],
      [
        "op",
        -10.62101931949477
      ],
      [
        "Ġsimul",
        -10.62236685636793
      ],
      [
        "Right",
        -10.624085266321043
      ],
      [
        "Ġmatching",
        -10.6254696863557
      ],
      [
        "),(",
        -10.625508472489305
      ],
      [
        "Ġforward",
        -10.626192348944501
      ],
      [
        "Ġlock",
        -10.626728677522227
      ],
      [
        "Ġendi",
        -10.627336909024239
      ],
      [
        "Ġdomino",
        -10.62841219316147
      ],
      [
        "Ġfeasib",
        -10.63088575502807
      ],
      [
        "ĠBase",
        -10.630987526337524
      ],
      [
        "ĠAl",
        -10.633083869581624
      ],
      [
        "two",
        -10.633314559886813
      ],
      [
        "queue",
        -10.633346502858288
      ],
      [
        "room",
        -10.634026776864731
      ],
      [
        "Ġleverag",
        -10.635186587747688
      ],
      [
        "Ġrotation",
        -10.636107302926373
      ],
      [
        "ĠĠĠĠĠĠ",
        -10.637125263257854
      ],
      [
        "25",
        -10.637869702119275
      ],
      [
        "Graph",
        -10.638889475338587
      ],
      [
        "')]",
        -10.641174520606743
      ],
      [
        "Ġmanage",
        -10.643741141238266
      ],
      [
        "top",
        -10.646990890071798
      ],
      [
        "Ġban",
        -10.64912249686357
      ],
      [
        "ĠSelect",
        -10.6522922433496
      ],
      [
        "jumps",
        -10.655425975498867
      ],
      [
        "Ġlamp",
        -10.656457003904467
      ],
      [
        "nodes",
        -10.658158043600977
      ],
      [
        "Index",
        -10.658718729965251
      ],
      [
        "mage",
        -10.661346123035393
      ],
      [
        "Ġsatisfie",
        -10.662011817512957
      ],
      [
        "Ġlook",
        -10.662319662082844
      ],
      [
        "vowel",
        -10.667895900270953
      ],
      [
        "array",
        -10.667904712732255
      ],
      [
        "which",
        -10.668060237102756
      ],
      [
        "Ġlowest",
        -10.66883262799951
      ],
      [
        "Operations",
        -10.669046070809316
      ],
      [
        "Ġiteration",
        -10.67008755229208
      ],
      [
        "Ġaccess",
        -10.670831789465897
      ],
      [
        "ending",
        -10.67129894955944
      ],
      [
        "Ġinsertion",
        -10.672236196007471
      ],
      [
        "Tree",
        -10.675948512133507
      ],
      [
        "Times",
        -10.677869115180652
      ],
      [
        "ically",
        -10.679250167180893
      ],
      [
        "Ġaccumulate",
        -10.67940733078883
      ],
      [
        "Ġtag",
        -10.679719258388687
      ],
      [
        "19",
        -10.680852417826584
      ],
      [
        "Ġlookup",
        -10.683078166599714
      ],
      [
        "ĠApply",
        -10.683089231422464
      ],
      [
        "Ġpay",
        -10.683520536475811
      ],
      [
        "thing",
        -10.6856896746691
      ],
      [
        "subsequence",
        -10.686076614890487
      ],
      [
        "directional",
        -10.686364875565246
      ],
      [
        "Ġstay",
        -10.68703325512152
      ],
      [
        "it",
        -10.6872085928948
      ],
      [
        "Ġwhite",
        -10.687347311211056
      ],
      [
        "Ġintersect",
        -10.687637090589064
      ],
      [
        "Ġexpected",
        -10.69051494138143
      ],
      [
        "Ġtog",
        -10.692150584405955
      ],
      [
        "hour",
        -10.692694320169007
      ],
      [
        "Ġpre",
        -10.693813953172782
      ],
      [
        "Words",
        -10.695677106002444
      ],
      [
        "Ġconcatenated",
        -10.697360556804867
      ],
      [
        "Ġpassenger",
        -10.69759080372944
      ],
      [
        "Ġ5000",
        -10.697681407559871
      ],
      [
        "Ġspell",
        -10.698164893107442
      ],
      [
        "Grid",
        -10.698166147459073
      ],
      [
        "Ġknight",
        -10.698261862861298
      ],
      [
        "Key",
        -10.698438721363118
      ],
      [
        "Type",
        -10.69851744873817
      ],
      [
        "Ġgoa",
        -10.699189517066916
      ],
      [
        "line",
        -10.69944191367656
      ],
      [
        "Ġclock",
        -10.700921249864669
      ],
      [
        "Ġstrateg",
        -10.70121111858269
      ],
      [
        "Ġpriorit",
        -10.70260437119177
      ],
      [
        "Ġinstruction",
        -10.702942795718599
      ],
      [
        "suffix",
        -10.703164812113771
      ],
      [
        "letter",
        -10.703688962421996
      ],
      [
        "factor",
        -10.703727658292152
      ],
      [
        "tuple",
        -10.70424981680053
      ],
      [
        "Ġnearest",
        -10.704909282688268
      ],
      [
        "cd",
        -10.706004015265599
      ],
      [
        "Ġfall",
        -10.709143610903109
      ],
      [
        "Score",
        -10.710165108919284
      ],
      [
        "Ġimmediate",
        -10.71356042546293
      ],
      [
        "Ġchoice",
        -10.715079418937933
      ],
      [
        "Ġ'+'",
        -10.716644320810927
      ],
      [
        "tree",
        -10.71891571425289
      ],
      [
        "Ġlane",
        -10.72051174293256
      ],
      [
        "Size",
        -10.721001747666339
      ],
      [
        "minutes",
        -10.727796905826574
      ],
      [
        "Ġbob",
        -10.727976391510587
      ],
      [
        "string",
        -10.728846107036599
      ],
      [
        "Ġbus",
        -10.728870380195582
      ],
      [
        "Ġidentify",
        -10.729174477370693
      ],
      [
        "Ġoptimize",
        -10.731849763632113
      ],
      [
        "Ġcompar",
        -10.73209724486714
      ],
      [
        "Ġgree",
        -10.73214160254788
      ],
      [
        "onstant",
        -10.73220306855169
      ],
      [
        "Ġroute",
        -10.733473921744029
      ],
      [
        "Base",
        -10.737959671169
      ],
      [
        "bread",
        -10.738290792935448
      ],
      [
        "query",
        -10.740701358930671
      ],
      [
        "Substrings",
        -10.740730005683176
      ],
      [
        "Ġconsonant",
        -10.741695810029515
      ],
      [
        "Ġleftmost",
        -10.743548546751162
      ],
      [
        "includ",
        -10.743758609820823
      ],
      [
        "Ġpivot",
        -10.748030319267123
      ],
      [
        "occurrence",
        -10.748628255747136
      ],
      [
        "Ġproject",
        -10.749245687947559
      ],
      [
        "Iterat",
        -10.75051975698758
      ],
      [
        "Ġenemy",
        -10.752799470966496
      ],
      [
        "Subarrays",
        -10.752817529176461
      ],
      [
        "Ġwinner",
        -10.752883531695492
      ],
      [
        "Recursive",
        -10.755924740860694
      ],
      [
        "go",
        -10.756980319292836
      ],
      [
        "task",
        -10.759909122685897
      ],
      [
        "}[",
        -10.760273389890495
      ],
      [
        "equal",
        -10.761812356311328
      ],
      [
        "Ġ'-'",
        -10.76199985547294
      ],
      [
        "Ġsignificant",
        -10.765542270688801
      ],
      [
        "Ġslow",
        -10.767052476037623
      ],
      [
        "Ġequivalen",
        -10.769369479386825
      ],
      [
        "ĠMan",
        -10.771107348493846
      ],
      [
        "Length",
        -10.772683369306378
      ],
      [
        "ĠDetermine",
        -10.7728501086224
      ],
      [
        "ĠHelp",
        -10.772910207521441
      ],
      [
        "Ġreplac",
        -10.773246735010353
      ],
      [
        "greater",
        -10.778689966387894
      ],
      [
        "Ġshape",
        -10.779163349612652
      ],
      [
        "ĠGet",
        -10.779193367082897
      ],
      [
        "Ġsol",
        -10.779360811748816
      ],
      [
        "Ġbike",
        -10.779939433027385
      ],
      [
        "can",
        -10.78046531624442
      ],
      [
        "Starting",
        -10.78287267042089
      ],
      [
        "Ġlong",
        -10.782872990793486
      ],
      [
        "cols",
        -10.78512583678173
      ],
      [
        "Ġclos",
        -10.78654479774882
      ],
      [
        "Ġshop",
        -10.78790046712527
      ],
      [
        "Ġrod",
        -10.788000087836046
      ],
      [
        "subarray",
        -10.788728511609921
      ],
      [
        "Ġremoval",
        -10.793326874918382
      ],
      [
        "Ġparit",
        -10.7941962874105
      ],
      [
        "built",
        -10.794236684196823
      ],
      [
        "Person",
        -10.794236755698737
      ],
      [
        "Ġwalk",
        -10.794237399452063
      ],
      [
        "Ġyield",
        -10.794352199660295
      ],
      [
        ")}",
        -10.794535096633048
      ],
      [
        "apple",
        -10.79703917590652
      ],
      [
        "Ġbud",
        -10.797857270326627
      ],
      [
        "Ġactiv",
        -10.798374960851628
      ],
      [
        "Ġhighe",
        -10.800861558832437
      ],
      [
        "Ġrestriction",
        -10.801757628254563
      ],
      [
        "Ġcomplement",
        -10.8024702540756
      ],
      [
        "Ġfrog",
        -10.804615783218082
      ],
      [
        "Ġwrite",
        -10.806417023913044
      ],
      [
        "Ġbad",
        -10.808058177771377
      ],
      [
        "Len",
        -10.80862332964756
      ],
      [
        "Ġstair",
        -10.811187127335137
      ],
      [
        "Ġeffective",
        -10.812876521628791
      ],
      [
        "jump",
        -10.813400784876038
      ],
      [
        "231",
        -10.814709443483496
      ],
      [
        "Ġleverage",
        -10.815602663580723
      ],
      [
        "Ġfast",
        -10.815882066401276
      ],
      [
        "abs",
        -10.816054029526839
      ],
      [
        "Ġarrival",
        -10.8166704231766
      ],
      [
        "Ġdot",
        -10.817230043019816
      ],
      [
        "onto",
        -10.817292696716397
      ],
      [
        "remainder",
        -10.817833523102282
      ],
      [
        "divisor",
        -10.818053274955265
      ],
      [
        "Ġli",
        -10.818700184228735
      ],
      [
        "Ġarrow",
        -10.819714971141215
      ],
      [
        "acros",
        -10.82172058196025
      ],
      [
        "lc",
        -10.824763332993104
      ],
      [
        "Ġchain",
        -10.824767826723711
      ],
      [
        "Depth",
        -10.826908387948492
      ],
      [
        "Ġnth",
        -10.828455394402315
      ],
      [
        "Ġplot",
        -10.828499911255605
      ],
      [
        "match",
        -10.82872021511643
      ],
      [
        "Ġdimension",
        -10.828731131867876
      ],
      [
        "Numbers",
        -10.830580749063472
      ],
      [
        "Ġop",
        -10.831841740114072
      ],
      [
        "18",
        -10.832295291991915
      ],
      [
        "('-",
        -10.835592884883322
      ],
      [
        "high",
        -10.836760208205849
      ],
      [
        "Ġassume",
        -10.840780176951975
      ],
      [
        "Ġcross",
        -10.842033613908788
      ],
      [
        "Ġarrange",
        -10.842053310962296
      ],
      [
        "ĠMark",
        -10.844840806088955
      ],
      [
        "Ġforce",
        -10.84577662155089
      ],
      [
        "Ġfurthe",
        -10.845841914599282
      ],
      [
        "Ġarrangement",
        -10.845982972094033
      ],
      [
        "Ġstand",
        -10.846105117490971
      ],
      [
        "Ġ90",
        -10.84615002047059
      ],
      [
        "Ġsection",
        -10.8463948391781
      ],
      [
        "meter",
        -10.846830564657555
      ],
      [
        "Ġperiod",
        -10.846928060529663
      ],
      [
        "ĠReverse",
        -10.847452514829236
      ],
      [
        "Ġdecode",
        -10.847706903959178
      ],
      [
        "Ġfive",
        -10.848054040852709
      ],
      [
        "Ġfraction",
        -10.848400498011312
      ],
      [
        "ĠSecond",
        -10.84917996228564
      ],
      [
        "Ġbattery",
        -10.851251354478936
      ],
      [
        "Ġbackward",
        -10.852482622989921
      ],
      [
        "Ġdouble",
        -10.852607322457132
      ],
      [
        "ĠMaximum",
        -10.853077941195638
      ],
      [
        "Ġearliest",
        -10.853557690563727
      ],
      [
        "zeros",
        -10.854039034600945
      ],
      [
        "000",
        -10.856104217763487
      ],
      [
        "querie",
        -10.859914624675064
      ],
      [
        "Ġsimpl",
        -10.860651322293608
      ],
      [
        "Ġcarr",
        -10.860659551258419
      ],
      [
        "Ġvis",
        -10.860823048073874
      ],
      [
        "bb",
        -10.861982873738857
      ],
      [
        "atta",
        -10.862553352731464
      ],
      [
        "alice",
        -10.863316932771173
      ],
      [
        "Ġenter",
        -10.863830316798174
      ],
      [
        "Ġsubproblem",
        -10.86386784638199
      ],
      [
        "mbalance",
        -10.864462907440103
      ],
      [
        "ĠAppend",
        -10.865600924235927
      ],
      [
        "Ġattack",
        -10.866425081003516
      ],
      [
        "Ġdel",
        -10.868715700348549
      ],
      [
        "Ġminimized",
        -10.871016676875012
      ],
      [
        "Ġinvolve",
        -10.872392494077799
      ],
      [
        "Ġoperator",
        -10.874978512708083
      ],
      [
        "Ġanagram",
        -10.874982182353609
      ],
      [
        "Ġdeck",
        -10.875254192586219
      ],
      [
        "Ġtie",
        -10.875382658652427
      ],
      [
        "200",
        -10.875524538567845
      ],
      [
        "gly",
        -10.876742082517126
      ],
      [
        "ĠDay",
        -10.876813262026575
      ],
      [
        "clock",
        -10.87953587963186
      ],
      [
        "Ġtransformation",
        -10.879589714876927
      ],
      [
        "ĠnumberOf",
        -10.880199439942544
      ],
      [
        "width",
        -10.880341234301321
      ],
      [
        "visit",
        -10.880570814668928
      ],
      [
        "consecutive",
        -10.880815513485846
      ],
      [
        "Left",
        -10.880961379551435
      ],
      [
        "Ġ300",
        -10.881897355831928
      ],
      [
        "Ġradi",
        -10.88198702920408
      ],
      [
        "ĠGenerate",
        -10.882839935052303
      ],
      [
        "ĠUs",
        -10.885599574390461
      ],
      [
        "Ġview",
        -10.8876037424944
      ],
      [
        "Ġwarehouse",
        -10.887799377529028
      ],
      [
        "Ġvisible",
        -10.88795768271063
      ],
      [
        "Ġequations",
        -10.891060662648291
      ],
      [
        "Ġlight",
        -10.891706409867323
      ],
      [
        "ĠConstructi",
        -10.891810432753708
      ],
      [
        "Ġexpand",
        -10.893377769023322
      ],
      [
        "axi",
        -10.894254249921149
      ],
      [
        "Ġperfect",
        -10.894283625757312
      ],
      [
        "Ġgenerat",
        -10.895567904393076
      ],
      [
        "Ġcurr",
        -10.897037071812653
      ],
      [
        "ĠCompute",
        -10.897602852277295
      ],
      [
        "Ġbooks",
        -10.899521947259622
      ],
      [
        "flip",
        -10.899681219792285
      ],
      [
        "Ġrating",
        -10.89981640466551
      ],
      [
        "Ġmet",
        -10.899838753148897
      ],
      [
        "Ġ'?'",
        -10.900108513087822
      ],
      [
        "dentical",
        -10.900416437557757
      ],
      [
        "Ġdecrease",
        -10.900528505867735
      ],
      [
        "Ġprobability",
        -10.901143535552093
      ],
      [
        "Ġcompan",
        -10.90260917058084
      ],
      [
        "Ġhand",
        -10.907393763268178
      ],
      [
        "Ġcapital",
        -10.908815933966585
      ],
      [
        "Ġminu",
        -10.909501174481012
      ],
      [
        "Ġgap",
        -10.912075582857875
      ],
      [
        "ac",
        -10.914026371016764
      ],
      [
        "Q",
        -10.915242321826899
      ],
      [
        "BST",
        -10.917492113254886
      ],
      [
        "Ġsubmatri",
        -10.91776819590202
      ],
      [
        "Ġseq",
        -10.91785973882336
      ],
      [
        "Ġ108",
        -10.918601176334683
      ],
      [
        "Ġdollar",
        -10.918748315243777
      ],
      [
        "Ġscenario",
        -10.919396430373313
      ],
      [
        "Ġprerequisite",
        -10.921276407268074
      ],
      [
        "Ġexcess",
        -10.923050645578869
      ],
      [
        "Ġbomb",
        -10.924521824845838
      ],
      [
        "run",
        -10.925108777039997
      ],
      [
        "Ġballoon",
        -10.925429894606829
      ],
      [
        "Ġfarthe",
        -10.927337504053856
      ],
      [
        "Ġmana",
        -10.929360488416563
      ],
      [
        "Ġextract",
        -10.931204092877177
      ],
      [
        "Divide",
        -10.936132188198076
      ],
      [
        "curr",
        -10.936649930866633
      ],
      [
        "ynamic",
        -10.93823709555927
      ],
      [
        "Ġmovement",
        -10.938820204301873
      ],
      [
        "More",
        -10.9407572590565
      ],
      [
        "Ġunder",
        -10.942115265150644
      ],
      [
        "solution",
        -10.946116068629332
      ],
      [
        "answer",
        -10.9468850263588
      ],
      [
        "leaf",
        -10.94694250568808
      ],
      [
        "ces",
        -10.947737981676323
      ],
      [
        "Delete",
        -10.947834330061646
      ],
      [
        "Ġalice",
        -10.948251817700966
      ],
      [
        "Ġper",
        -10.94880918036438
      ],
      [
        "And",
        -10.949292694840215
      ],
      [
        "less",
        -10.949298494378823
      ],
      [
        "Ġrearrang",
        -10.950647599222192
      ],
      [
        "Ġcumulative",
        -10.950656557658089
      ],
      [
        "Ġunderl",
        -10.953473882994567
      ],
      [
        "ĠElement",
        -10.953982359676306
      ],
      [
        "Ġoffer",
        -10.954169477524218
      ],
      [
        "ĠDo",
        -10.954304022614025
      ],
      [
        "Ġdrop",
        -10.957608700833976
      ],
      [
        "Ġsubsequen",
        -10.95805732814536
      ],
      [
        "Ġcertain",
        -10.958235043425839
      ],
      [
        "Ġbutton",
        -10.958338563309105
      ],
      [
        "Ġmonth",
        -10.95965254812997
      ],
      [
        "Ġorigin",
        -10.959712906835843
      ],
      [
        "bc",
        -10.961673390065494
      ],
      [
        "way",
        -10.965267350694482
      ],
      [
        "Ġbulb",
        -10.967106078018613
      ],
      [
        "Ġprefixes",
        -10.969350331525956
      ],
      [
        "Alice",
        -10.969762216183312
      ],
      [
        "Ġmappe",
        -10.970469084607863
      ],
      [
        "server",
        -10.970475484334003
      ],
      [
        "Ġgreed",
        -10.970685270008534
      ],
      [
        "block",
        -10.970731036511445
      ],
      [
        "Ġsafe",
        -10.971454135218067
      ],
      [
        "far",
        -10.971570853353969
      ],
      [
        "ubmatrix",
        -10.972926866312356
      ],
      [
        "Ġtimestamp",
        -10.975177912311107
      ],
      [
        "Ġconfiguration",
        -10.977543213929023
      ],
      [
        "days",
        -10.977877619691846
      ],
      [
        "Ġnetwork",
        -10.978250002733738
      ],
      [
        "Ġobservation",
        -10.978413719616142
      ],
      [
        "Ġtower",
        -10.97846183342631
      ],
      [
        "Ġmultiply",
        -10.98022719171536
      ],
      [
        "Ġnei",
        -10.980241500753184
      ],
      [
        "Ġiter",
        -10.980461074366481
      ],
      [
        "Ġchalk",
        -10.981071034850505
      ],
      [
        "Ġoption",
        -10.98259159401352
      ],
      [
        "Ġcuboid",
        -10.983663380656937
      ],
      [
        "Ġlayer",
        -10.98588631503775
      ],
      [
        "Ġvertic",
        -10.986129011515697
      ],
      [
        "case",
        -10.991526401399572
      ],
      [
        "integer",
        -10.992383744351976
      ],
      [
        "Ġcomputer",
        -10.99389646269583
      ],
      [
        "Ġfilter",
        -10.994321456571141
      ],
      [
        "Ġmention",
        -10.994352226672657
      ],
      [
        "original",
        -10.994495009408878
      ],
      [
        "iness",
        -10.996352172610376
      ],
      [
        "Integer",
        -10.997857208608345
      ],
      [
        "qr",
        -10.99785815712974
      ],
      [
        "ĠInsert",
        -10.997890877007208
      ],
      [
        "//",
        -10.997970120262258
      ],
      [
        "Ġapplie",
        -10.998679732192436
      ],
      [
        "Ġslice",
        -10.999709678667717
      ],
      [
        "Ġcontinuous",
        -11.000674844204958
      ],
      [
        ")))",
        -11.003266588180587
      ],
      [
        "Ġconversion",
        -11.004185868375302
      ],
      [
        "ant",
        -11.005097488414503
      ],
      [
        "Ġfood",
        -11.005177220632198
      ],
      [
        "ĠRecursive",
        -11.005343303450053
      ],
      [
        "stone",
        -11.007088802464352
      ],
      [
        "Ġpicture",
        -11.00883335014727
      ],
      [
        "weight",
        -11.012581754348481
      ],
      [
        "Day",
        -11.012606721607092
      ],
      [
        "Ġdr",
        -11.012655856727516
      ],
      [
        "Ġterm",
        -11.013251241458118
      ],
      [
        "ĠIP",
        -11.014698564536221
      ],
      [
        "SortedList",
        -11.014884338904313
      ],
      [
        "home",
        -11.015758434247672
      ],
      [
        "Quer",
        -11.01714897112052
      ],
      [
        "minimum",
        -11.017803736114782
      ],
      [
        "Ġwalls",
        -11.01816104922321
      ],
      [
        "mod",
        -11.018667729809344
      ],
      [
        "worker",
        -11.018686129420196
      ],
      [
        "shift",
        -11.018764033980997
      ],
      [
        "Ġrevers",
        -11.019040497013261
      ],
      [
        "traversal",
        -11.019058269792497
      ],
      [
        "Ġunmarked",
        -11.019750931376212
      ],
      [
        "den",
        -11.02117941650048
      ],
      [
        "Ġstable",
        -11.021221375197877
      ],
      [
        "Ġsystem",
        -11.021546168088786
      ],
      [
        "east",
        -11.023706239927192
      ],
      [
        "Ġfavorite",
        -11.02507197154897
      ],
      [
        "Ġclose",
        -11.026010500658359
      ],
      [
        "counter",
        -11.02695869148892
      ],
      [
        "ĠW",
        -11.028660490607542
      ],
      [
        "Ġdesired",
        -11.028819032944206
      ],
      [
        "Ġexit",
        -11.028843481791718
      ],
      [
        "Ġcommand",
        -11.02885517435982
      ],
      [
        "Ġ'#'",
        -11.028969073161697
      ],
      [
        "Height",
        -11.039454232736198
      ],
      [
        "Dict",
        -11.040754142388614
      ],
      [
        "Ġsuccessful",
        -11.040755801494367
      ],
      [
        "Ġmatter",
        -11.040815160414525
      ],
      [
        "keys",
        -11.041345177636268
      ],
      [
        "Ġship",
        -11.041525785800925
      ],
      [
        "bob",
        -11.042485736742982
      ],
      [
        "Ġflight",
        -11.042861194599952
      ],
      [
        "remaining",
        -11.04363522014936
      ],
      [
        "common",
        -11.043717038563733
      ],
      [
        "Ġweek",
        -11.044845572980218
      ],
      [
        "good",
        -11.044907821670337
      ],
      [
        "Ġcopy",
        -11.046163204968604
      ],
      [
        "chievable",
        -11.046386377073096
      ],
      [
        "Ġbanned",
        -11.047641030212175
      ],
      [
        "ball",
        -11.048429978898952
      ],
      [
        "lice",
        -11.051090565101038
      ],
      [
        "Ġplac",
        -11.056529058332025
      ],
      [
        "Progr",
        -11.062492265543945
      ],
      [
        "Ġboolean",
        -11.062524692593318
      ],
      [
        "Ġpushe",
        -11.068013140857254
      ],
      [
        "Ġchocolate",
        -11.068404746077269
      ],
      [
        "ĠDirection",
        -11.068423653573827
      ],
      [
        "union",
        -11.068534566638007
      ],
      [
        "beauty",
        -11.06859116294795
      ],
      [
        "edge",
        -11.06877092278556
      ],
      [
        "fruit",
        -11.069304422972023
      ],
      [
        "interval",
        -11.069467407401664
      ],
      [
        "collection",
        -11.069502432965647
      ],
      [
        "distinct",
        -11.069593270772758
      ],
      [
        "coin",
        -11.069967963649177
      ],
      [
        "type",
        -11.070042823997335
      ],
      [
        "leet",
        -11.072879052916006
      ],
      [
        "Ġcontent",
        -11.077303243066652
      ],
      [
        "aaaa",
        -11.07907890794726
      ],
      [
        "Ġpackage",
        -11.080047922702828
      ],
      [
        "Ġmachine",
        -11.080061019342605
      ],
      [
        "Ġpress",
        -11.080334848080536
      ],
      [
        "Ġvideo",
        -11.083967198493774
      ],
      [
        "amming",
        -11.083973624119377
      ],
      [
        "ĠInst",
        -11.084495139295289
      ],
      [
        "Limit",
        -11.084669978625346
      ],
      [
        "Ġbranch",
        -11.084714490824467
      ],
      [
        "Ġcarpet",
        -11.084755529208927
      ],
      [
        "Ġdifficult",
        -11.084878316937377
      ],
      [
        "ĠPick",
        -11.086549312585136
      ],
      [
        "palindromes",
        -11.087117305788375
      ],
      [
        "Ġprecompute",
        -11.088691420564402
      ],
      [
        "!",
        -11.088955157446978
      ],
      [
        "Ġface",
        -11.089489913089029
      ],
      [
        "Ġdecide",
        -11.089631773254352
      ],
      [
        "Ġliter",
        -11.093106806078053
      ],
      [
        "Ġlc",
        -11.093128298899456
      ],
      [
        "onely",
        -11.094298132108129
      ],
      [
        "ĠPlace",
        -11.09473277249462
      ],
      [
        "binary",
        -11.094842880562725
      ],
      [
        "Ġbloom",
        -11.097126219260737
      ],
      [
        "Ġaccounts",
        -11.09858279205328
      ],
      [
        "Ġlogic",
        -11.102222046074397
      ],
      [
        "Ġhero",
        -11.107351780370262
      ],
      [
        "Increase",
        -11.107441760613058
      ],
      [
        "Ġcollision",
        -11.107441764478558
      ],
      [
        "Ġcollide",
        -11.107441765074288
      ],
      [
        "Ġchunk",
        -11.107639862773974
      ],
      [
        "Ġsensor",
        -11.107787419468279
      ],
      [
        "Ġshorte",
        -11.108560444158464
      ],
      [
        "Dur",
        -11.108644135776776
      ],
      [
        "II",
        -11.110841182328285
      ],
      [
        "Ġinst",
        -11.113719948180025
      ],
      [
        "Ġqualit",
        -11.11575123361123
      ],
      [
        "ability",
        -11.116721846662122
      ],
      [
        "ĠTree",
        -11.117839125109958
      ],
      [
        "AB",
        -11.11890163123732
      ],
      [
        "Representation",
        -11.119402992346549
      ],
      [
        "replace",
        -11.119653836224284
      ],
      [
        "Ġinfect",
        -11.12004873153176
      ],
      [
        "ĠendTime",
        -11.12009120310141
      ],
      [
        "Ġratio",
        -11.120737681318959
      ],
      [
        "Ġbean",
        -11.120852295392345
      ],
      [
        "Ġribbon",
        -11.121721961693074
      ],
      [
        "Ġpuzzle",
        -11.121740057398657
      ],
      [
        "Ġinfinit",
        -11.12205302178544
      ],
      [
        "Ġinform",
        -11.12211469716361
      ],
      [
        "column",
        -11.122668409390545
      ],
      [
        "ĠMinimum",
        -11.122688271025867
      ],
      [
        "cnt",
        -11.12485479219065
      ],
      [
        "Ġlose",
        -11.125144685787864
      ],
      [
        "Ġcompressed",
        -11.125345883611503
      ],
      [
        "ĠOption",
        -11.12772325407205
      ],
      [
        "Ġsumm",
        -11.127781109171323
      ],
      [
        "}.",
        -11.127835882906625
      ],
      [
        "Ġdiscount",
        -11.129236815660445
      ],
      [
        "Course",
        -11.12993827444013
      ],
      [
        "Ġbill",
        -11.131706118874291
      ],
      [
        "Ġpresse",
        -11.131887317818999
      ],
      [
        "love",
        -11.132195481671124
      ],
      [
        "Ġtoward",
        -11.133728008604294
      ],
      [
        "ĠAssign",
        -11.134065549595018
      ],
      [
        "Ġequation",
        -11.135877753649675
      ],
      [
        "gas",
        -11.136543599646274
      ],
      [
        "Ġfence",
        -11.136804229708492
      ],
      [
        "vice",
        -11.137280678350253
      ],
      [
        "Ġ36",
        -11.13782081013442
      ],
      [
        "Ġcookie",
        -11.138019691834916
      ],
      [
        "...",
        -11.138202102253683
      ],
      [
        "Ġdisjoint",
        -11.138223927598165
      ],
      [
        "Ġdirector",
        -11.139837026680475
      ],
      [
        "Ġborder",
        -11.140944303669732
      ],
      [
        "Ġladder",
        -11.141150491120706
      ],
      [
        "ĠSubtract",
        -11.141161686672884
      ],
      [
        "ĠDefin",
        -11.141722056476283
      ],
      [
        "Ġlie",
        -11.143929809802277
      ],
      [
        "Ġpeaks",
        -11.1441384197225
      ],
      [
        "Ġticket",
        -11.14531757585682
      ],
      [
        "cat",
        -11.146880038490057
      ],
      [
        "Ġcompress",
        -11.147704943727167
      ],
      [
        "Ġmass",
        -11.148221326523446
      ],
      [
        "point",
        -11.148898647111588
      ],
      [
        "plus",
        -11.149716260427644
      ],
      [
        "candidate",
        -11.150084258782005
      ],
      [
        "his",
        -11.15046716470538
      ],
      [
        "component",
        -11.150535544645743
      ],
      [
        "cycle",
        -11.150581582466266
      ],
      [
        "largest",
        -11.150711668576854
      ],
      [
        "update",
        -11.15122997595715
      ],
      [
        "card",
        -11.15206413592168
      ],
      [
        "Ġrounded",
        -11.152698835866568
      ],
      [
        "Ġâ",
        -11.15449813717801
      ],
      [
        "Ġproduce",
        -11.154507121305974
      ],
      [
        "Ġscr",
        -11.154983968334568
      ],
      [
        "Ġspread",
        -11.15517386849001
      ],
      [
        "Be",
        -11.156431448922792
      ],
      [
        "ĠCollect",
        -11.157962660796144
      ],
      [
        "Ġpostorder",
        -11.158004860369164
      ],
      [
        "107",
        -11.160075910738396
      ],
      [
        "Ġregions",
        -11.160877834282534
      ],
      [
        "Ġcapture",
        -11.161208783144282
      ],
      [
        "ĠBe",
        -11.16555268011511
      ],
      [
        "ĠmaxSum",
        -11.169621339101056
      ],
      [
        "Memoiz",
        -11.171032661395094
      ],
      [
        "Ġconcatenat",
        -11.172812055093052
      ],
      [
        "Ġpizza",
        -11.173784418716588
      ],
      [
        "Ġexclud",
        -11.177095653795213
      ],
      [
        "forward",
        -11.177630646759551
      ],
      [
        "Ġaddition",
        -11.178659536427249
      ],
      [
        "Ġattempt",
        -11.178898546442941
      ],
      [
        "icious",
        -11.178923247031799
      ],
      [
        "versa",
        -11.178946203057501
      ],
      [
        "Ġcontribute",
        -11.179243256839866
      ],
      [
        "abba",
        -11.180717377811357
      ],
      [
        "Ġemail",
        -11.181014985388728
      ],
      [
        "Ġbetter",
        -11.181336935105655
      ],
      [
        "Ġpyramid",
        -11.182440077287103
      ],
      [
        "Ġ28",
        -11.184546340596878
      ],
      [
        "ch",
        -11.186653379229654
      ],
      [
        "Ġ40",
        -11.187045956638823
      ],
      [
        "ested",
        -11.187088413795166
      ],
      [
        "eat",
        -11.187270539457039
      ],
      [
        "3000",
        -11.189587309079657
      ],
      [
        "Ġrandom",
        -11.189875387205223
      ],
      [
        "ĠConsider",
        -11.189877608834006
      ],
      [
        "Ġlanguage",
        -11.189883060409585
      ],
      [
        "ĠH",
        -11.191147904203374
      ],
      [
        "Ġdevice",
        -11.195621739174868
      ],
      [
        "container",
        -11.19688941493445
      ],
      [
        "Ġreaching",
        -11.19855494850024
      ],
      [
        "Ġ\"(",
        -11.19957291998886
      ],
      [
        "ĠValid",
        -11.19959118804304
      ],
      [
        "Ġstrong",
        -11.200501429801665
      ],
      [
        "Ġparse",
        -11.201260868825955
      ],
      [
        "balance",
        -11.20364436452466
      ],
      [
        "Ġhappen",
        -11.203897358886323
      ],
      [
        "Ġdraw",
        -11.203900148081896
      ],
      [
        "Cente",
        -11.203945831451545
      ],
      [
        "Ġcup",
        -11.20456758031646
      ],
      [
        "Energy",
        -11.205157709898854
      ],
      [
        "after",
        -11.208265713781989
      ],
      [
        "had",
        -11.208557266009468
      ],
      [
        "window",
        -11.208580463993771
      ],
      [
        "Ġgrow",
        -11.208795285150718
      ],
      [
        "math",
        -11.209815784684224
      ],
      [
        "eria",
        -11.210035067750074
      ],
      [
        "Ġpig",
        -11.210689733708671
      ],
      [
        "Ġanti",
        -11.21073236802278
      ],
      [
        "Ġmode",
        -11.21136491660749
      ],
      [
        "co",
        -11.213807984826811
      ],
      [
        "abcde",
        -11.214610112359974
      ],
      [
        "Ġher",
        -11.218706544100854
      ],
      [
        "Ġchair",
        -11.219670751950364
      ],
      [
        "Ġclosed",
        -11.223423264942294
      ],
      [
        "Ġabbreviation",
        -11.229538677589627
      ],
      [
        "Suffix",
        -11.229538713176792
      ],
      [
        "Ġdetect",
        -11.22954082750954
      ],
      [
        "ĠEnsure",
        -11.229578047596192
      ],
      [
        "Ġdescendant",
        -11.22962103740709
      ],
      [
        "Letter",
        -11.229639229295334
      ],
      [
        "secu",
        -11.229869797796484
      ],
      [
        "etc",
        -11.229942542300543
      ],
      [
        "bottom",
        -11.230152917167626
      ],
      [
        "Ġaccount",
        -11.230512373119678
      ],
      [
        "Ġloss",
        -11.231904118909885
      ],
      [
        "Ġgarbage",
        -11.23209950414526
      ],
      [
        "Ġrob",
        -11.236832747697953
      ],
      [
        "extend",
        -11.237647461963117
      ],
      [
        "house",
        -11.238023649243807
      ],
      [
        "difference",
        -11.238702924096643
      ],
      [
        "Ġrestrict",
        -11.239367382428272
      ],
      [
        "Ġpawn",
        -11.239462604120241
      ],
      [
        "]\\",
        -11.241600676095816
      ],
      [
        "source",
        -11.24160760093944
      ],
      [
        "ĠPush",
        -11.244109752930184
      ],
      [
        "Ġsemi",
        -11.245695256610885
      ],
      [
        "ĠKeep",
        -11.24572841394075
      ],
      [
        "ĠSubarray",
        -11.247625041175578
      ],
      [
        "ous",
        -11.248213488464483
      ],
      [
        "Ġcoprime",
        -11.248769351989385
      ],
      [
        "ĠExtract",
        -11.249608296891145
      ],
      [
        "Ġalternate",
        -11.250350184650717
      ],
      [
        "Ġattend",
        -11.250757471610331
      ],
      [
        "rity",
        -11.251106825336855
      ],
      [
        "Max",
        -11.254231066980926
      ],
      [
        "hello",
        -11.255228677912042
      ],
      [
        "ĠSpeci",
        -11.255279623865725
      ],
      [
        "comes",
        -11.255840901449268
      ],
      [
        "Ġcomparison",
        -11.255857175048329
      ],
      [
        "Ġdistribution",
        -11.255875674201636
      ],
      [
        "ĠSome",
        -11.255881735034844
      ],
      [
        "Ġegg",
        -11.255941500387006
      ],
      [
        "âĢĭâĢĭâĢĭâĢĭ",
        -11.256853012522441
      ],
      [
        "Ġlocate",
        -11.258918650474312
      ],
      [
        "Ġadj",
        -11.25966493517629
      ],
      [
        "Ġhole",
        -11.260291728249928
      ],
      [
        "Ġhome",
        -11.261238519980353
      ],
      [
        "Ġdetermin",
        -11.262181616699586
      ],
      [
        "aab",
        -11.262862473885999
      ],
      [
        "ĠExplor",
        -11.26305156256975
      ],
      [
        "Ġtopological",
        -11.263083691195433
      ],
      [
        "ĠJoin",
        -11.263095993924063
      ],
      [
        "ĠFlip",
        -11.264951736063043
      ],
      [
        "Ġcritical",
        -11.266049378153497
      ],
      [
        "Ġefficien",
        -11.268120199849482
      ],
      [
        "Ġ103",
        -11.268297880639553
      ],
      [
        "year",
        -11.268834066603599
      ],
      [
        "course",
        -11.269901672135562
      ],
      [
        "ance",
        -11.269953330938264
      ],
      [
        "Ġhalves",
        -11.26997709986059
      ],
      [
        "Ġangle",
        -11.270043295401145
      ],
      [
        "back",
        -11.271955398889343
      ],
      [
        "ĠSimilar",
        -11.274271261760195
      ],
      [
        "Ġperi",
        -11.27433700452958
      ],
      [
        "]`)",
        -11.27569207724672
      ],
      [
        "Ġlake",
        -11.276289838103217
      ],
      [
        "ĠPosition",
        -11.27720300163441
      ],
      [
        "Ġtemp",
        -11.27725065192675
      ],
      [
        "Ġbroken",
        -11.277265884889793
      ],
      [
        "Ones",
        -11.277403415999292
      ],
      [
        "act",
        -11.277538580438236
      ],
      [
        "Jump",
        -11.280450405253236
      ],
      [
        "Equal",
        -11.281555615066914
      ],
      [
        "Ġdominant",
        -11.282051163079801
      ],
      [
        "Factor",
        -11.282874600262863
      ],
      [
        "Ġpolygon",
        -11.282884413317626
      ],
      [
        "Ġdisconnect",
        -11.282884867093456
      ],
      [
        "Ġtreat",
        -11.282901134594786
      ],
      [
        "coord",
        -11.28292185303261
      ],
      [
        "Text",
        -11.282927894437513
      ],
      [
        "Ġmagical",
        -11.283002692369333
      ],
      [
        "ellow",
        -11.283124532040942
      ],
      [
        "([(",
        -11.28346458275658
      ],
      [
        "Ġnet",
        -11.284250531389723
      ],
      [
        "City",
        -11.28521039533212
      ],
      [
        "Ġstraight",
        -11.285587269150929
      ],
      [
        "sight",
        -11.286047633796882
      ],
      [
        "Ġnor",
        -11.29318585893974
      ],
      [
        "26",
        -11.293197798600922
      ],
      [
        "Ġfeature",
        -11.293446193409183
      ],
      [
        "ĠForm",
        -11.294839682913857
      ],
      [
        "Ġrepair",
        -11.295074030975625
      ],
      [
        "Ġnorth",
        -11.295435318514004
      ],
      [
        "Ġ27",
        -11.300487988904822
      ],
      [
        "Ġrecursi",
        -11.300791499251941
      ],
      [
        "Ġregula",
        -11.301036245578334
      ],
      [
        "speed",
        -11.301929391860934
      ],
      [
        "island",
        -11.30216811294967
      ],
      [
        "amount",
        -11.30249661814319
      ],
      [
        "bcd",
        -11.302756517952169
      ],
      [
        "Ġexperi",
        -11.304863799498436
      ],
      [
        "Ġpenalt",
        -11.304873395110654
      ],
      [
        "Ġencod",
        -11.304907338372045
      ],
      [
        "ary",
        -11.307809934604617
      ],
      [
        "Ġmarble",
        -11.310667027935363
      ],
      [
        "Ġstar",
        -11.311552027916466
      ],
      [
        "Ġhit",
        -11.313008174002658
      ],
      [
        "Ġlatest",
        -11.313444553417895
      ],
      [
        "Ġcomb",
        -11.313588969750072
      ],
      [
        "Ġoccupie",
        -11.315582431823714
      ],
      [
        "101",
        -11.316636758648068
      ],
      [
        "Ġsmall",
        -11.317961919043217
      ],
      [
        "AG",
        -11.319614682948506
      ],
      [
        "dog",
        -11.320069635075093
      ],
      [
        "let",
        -11.320078102258627
      ],
      [
        "Ġprize",
        -11.321513047842913
      ],
      [
        "CA",
        -11.323520548266558
      ],
      [
        "Ġpost",
        -11.323675506313368
      ],
      [
        "candle",
        -11.327441638182972
      ],
      [
        "un",
        -11.328903083926427
      ],
      [
        "Ġasteroids",
        -11.329871542566432
      ],
      [
        "lgorithm",
        -11.332304246664329
      ],
      [
        "0000",
        -11.332329981743229
      ],
      [
        "Ġtrain",
        -11.333110074147
      ],
      [
        "Solution",
        -11.333401646846339
      ],
      [
        "swap",
        -11.333937189171895
      ],
      [
        "Ġguesse",
        -11.334767113510472
      ],
      [
        "space",
        -11.335322997389955
      ],
      [
        "upper",
        -11.335484962854459
      ],
      [
        "backtrack",
        -11.33556791222528
      ],
      [
        "partition",
        -11.335717150405973
      ],
      [
        "before",
        -11.335860314027443
      ],
      [
        "Ġmerg",
        -11.335875139967058
      ],
      [
        "then",
        -11.335966212063179
      ],
      [
        "Ġcome",
        -11.336049638683768
      ],
      [
        "Prime",
        -11.337856123349054
      ],
      [
        "Ġrestaurant",
        -11.338403523608038
      ],
      [
        "indow",
        -11.33891036851
      ],
      [
        "nner",
        -11.338960309824099
      ],
      [
        "Ġsurround",
        -11.339315847797593
      ],
      [
        "Ġendpoint",
        -11.33931881743527
      ],
      [
        "Ġbottle",
        -11.340096245276573
      ],
      [
        "Ġinversion",
        -11.340105819051756
      ],
      [
        "Ġrung",
        -11.340299724595639
      ],
      [
        "Odd",
        -11.34139356811578
      ],
      [
        "Ġflood",
        -11.342081906279228
      ],
      [
        "skill",
        -11.343604156505684
      ],
      [
        "are",
        -11.349137510687926
      ],
      [
        "Subarray",
        -11.35035979349512
      ],
      [
        "Ġown",
        -11.354904111201341
      ],
      [
        "ment",
        -11.35523506171455
      ],
      [
        "Ġnumerical",
        -11.355241018778562
      ],
      [
        "Ġreserved",
        -11.356240533036956
      ],
      [
        "Ġdivid",
        -11.35663935653481
      ],
      [
        "Ġforbid",
        -11.358627099309969
      ],
      [
        "Ġguess",
        -11.359494420735093
      ],
      [
        "Ġglass",
        -11.36095965862145
      ],
      [
        "Ġwi",
        -11.365139180753456
      ],
      [
        "ĠminOperations",
        -11.365226357354516
      ],
      [
        "ĠstartTime",
        -11.365389997393212
      ],
      [
        "longest",
        -11.365952003006822
      ],
      [
        "In",
        -11.366443666206969
      ],
      [
        "cc",
        -11.36674213660025
      ],
      [
        "Ġexhaust",
        -11.36864215530425
      ],
      [
        "Ġtire",
        -11.36874154551118
      ],
      [
        "Ġfir",
        -11.36937358260489
      ],
      [
        "Ġsticker",
        -11.369422329304646
      ],
      [
        "Ġcomment",
        -11.369569673417132
      ],
      [
        "Three",
        -11.369639407762113
      ],
      [
        "diagonal",
        -11.369953892350589
      ],
      [
        "move",
        -11.372529337677936
      ],
      [
        "Ġdenominator",
        -11.374891501844417
      ],
      [
        "ĠSortedList",
        -11.375415958667395
      ],
      [
        "bab",
        -11.376477429123145
      ],
      [
        "ĠWhi",
        -11.376677659054145
      ],
      [
        "Ġsandwich",
        -11.378361004292902
      ],
      [
        "Ġdart",
        -11.381964919654743
      ],
      [
        "Ġartifact",
        -11.381971495058297
      ],
      [
        "ĠRepresent",
        -11.383156942575852
      ],
      [
        "ĠAnswer",
        -11.383847314636036
      ],
      [
        "99",
        -11.385876846396778
      ],
      [
        "ĠIndex",
        -11.386707659004369
      ],
      [
        "\"\\",
        -11.386800354058039
      ],
      [
        "Ġcitation",
        -11.387214369187685
      ],
      [
        "Ġ'/'",
        -11.387341047477623
      ],
      [
        "tion",
        -11.387476916166257
      ],
      [
        "Ġturned",
        -11.38975644200063
      ],
      [
        "'))",
        -11.390425973854363
      ],
      [
        "Ġcheese",
        -11.392655599524076
      ],
      [
        "Ġcategory",
        -11.392657480869595
      ],
      [
        "ĠverticalCut",
        -11.392698100753154
      ],
      [
        "ĠhorizontalCut",
        -11.392698213368412
      ],
      [
        "ĠBrea",
        -11.395523899980159
      ],
      [
        "direction",
        -11.395885933759299
      ],
      [
        "Curren",
        -11.398859623325764
      ],
      [
        "Ġappropriate",
        -11.398945185606603
      ],
      [
        "Merg",
        -11.39897454051196
      ],
      [
        "ĠAdditional",
        -11.399123104251593
      ],
      [
        "Price",
        -11.399483070977437
      ],
      [
        "arrays",
        -11.399760194041477
      ],
      [
        "Ġbru",
        -11.399842081011254
      ],
      [
        "Ġdest",
        -11.39986050501675
      ],
      [
        "ĠPrecomput",
        -11.400019616032267
      ],
      [
        "Ġindependent",
        -11.400020608991905
      ],
      [
        "local",
        -11.400537360287416
      ],
      [
        "Ġreduc",
        -11.40195363397262
      ],
      [
        "Ġingredient",
        -11.401983960636754
      ],
      [
        "Ġgrain",
        -11.402026404225959
      ],
      [
        "Ġ\"/",
        -11.402734856772208
      ],
      [
        "Ġincom",
        -11.402783564708312
      ],
      [
        "Ġseed",
        -11.403560791392781
      ],
      [
        "Ġedit",
        -11.40366261189972
      ],
      [
        "500",
        -11.403690718566683
      ],
      [
        "character",
        -11.403826934947856
      ],
      [
        "efficient",
        -11.403897289230382
      ],
      [
        "face",
        -11.404123743619158
      ],
      [
        "force",
        -11.404430471317873
      ],
      [
        "candies",
        -11.405724283901671
      ],
      [
        "pre",
        -11.406705466680851
      ],
      [
        "Ġquantit",
        -11.407261005764358
      ],
      [
        "Ġstor",
        -11.408506209003853
      ],
      [
        "Ġdon",
        -11.410678846680891
      ],
      [
        "Ġsymbol",
        -11.41267403562252
      ],
      [
        "Ġleaving",
        -11.41274572748891
      ],
      [
        "has",
        -11.415011885901803
      ],
      [
        ")])",
        -11.415328644391174
      ],
      [
        "Ġfixed",
        -11.415403857074464
      ],
      [
        "starti",
        -11.415919058194014
      ],
      [
        "ive",
        -11.417039369223613
      ],
      [
        "UR",
        -11.41900278989204
      ],
      [
        "Ġdis",
        -11.420429258075174
      ],
      [
        "align",
        -11.422239036338016
      ],
      [
        "Ġmagic",
        -11.423571494001997
      ],
      [
        "Ġsequential",
        -11.4237409289029
      ],
      [
        "ĠCan",
        -11.42400799502391
      ],
      [
        "Ġmouse",
        -11.424571781623062
      ],
      [
        "Ġboy",
        -11.429284573286981
      ],
      [
        "ĠLoop",
        -11.429352089049901
      ],
      [
        "ŀ",
        -11.430195185606603
      ],
      [
        "Ġopponent",
        -11.430195186227683
      ],
      [
        "Modul",
        -11.430195186585244
      ],
      [
        "Ġmonotonic",
        -11.4301952022557
      ],
      [
        "Ġdestroy",
        -11.430202243357467
      ],
      [
        "Ġtallest",
        -11.430261682882305
      ],
      [
        "Ġbold",
        -11.430266463568438
      ],
      [
        "Ġreset",
        -11.431635831658095
      ],
      [
        "Ġclip",
        -11.433324293288356
      ],
      [
        "Ġpoison",
        -11.43505234846713
      ],
      [
        "Element",
        -11.435802170235137
      ],
      [
        "Ġghost",
        -11.438777560061208
      ],
      [
        "represent",
        -11.439242511930464
      ],
      [
        "problem",
        -11.441003526788869
      ],
      [
        "term",
        -11.44179852816649
      ],
      [
        "Ġpressed",
        -11.442212105825993
      ],
      [
        "token",
        -11.442515680531407
      ],
      [
        "free",
        -11.442702261267124
      ],
      [
        "cells",
        -11.442991468846405
      ],
      [
        "Ġrev",
        -11.444007174649919
      ],
      [
        "ĠDecreas",
        -11.446337643070366
      ],
      [
        "Ġtast",
        -11.447788060254075
      ],
      [
        "Ġkill",
        -11.448709973045043
      ],
      [
        "Ġselection",
        -11.450654950616478
      ],
      [
        "acb",
        -11.452340420577647
      ],
      [
        "&",
        -11.452729023124453
      ],
      [
        "Ġgold",
        -11.454150204203334
      ],
      [
        "def",
        -11.454917745909315
      ],
      [
        "Main",
        -11.455166321741864
      ],
      [
        "event",
        -11.457172388683446
      ],
      [
        "Ġload",
        -11.457826725013337
      ],
      [
        "sequence",
        -11.45852995874511
      ],
      [
        "111",
        -11.460731106877668
      ],
      [
        "Matrix",
        -11.462448054970952
      ],
      [
        "Ġcaption",
        -11.46246157960529
      ],
      [
        "Ġwheel",
        -11.462461952059916
      ],
      [
        "Fibonacci",
        -11.462497838944053
      ],
      [
        "Ġsouth",
        -11.462503979894223
      ],
      [
        "site",
        -11.463212650671608
      ],
      [
        "ĠContinue",
        -11.463249460436646
      ],
      [
        "Fence",
        -11.463662554203886
      ],
      [
        "Ġfact",
        -11.465196441118351
      ],
      [
        "Num",
        -11.46569275146047
      ],
      [
        "Ġeventual",
        -11.465846090225703
      ],
      [
        "abab",
        -11.466153349616853
      ],
      [
        "ve",
        -11.46725307763474
      ],
      [
        "Ġpopp",
        -11.468073756904158
      ],
      [
        "subseq",
        -11.469617689691056
      ],
      [
        "lega",
        -11.471133388856678
      ],
      [
        "Ġdrink",
        -11.47131908350519
      ],
      [
        "Ġmultiplication",
        -11.471326796251573
      ],
      [
        "aeiou",
        -11.472267512060402
      ],
      [
        "Ġdiameter",
        -11.475339002820215
      ],
      [
        "Ġdefeat",
        -11.475388845590034
      ],
      [
        "Ġpurchase",
        -11.477518217120398
      ],
      [
        "Ġaction",
        -11.480153254048082
      ],
      [
        "100000",
        -11.480163397316117
      ],
      [
        "reachable",
        -11.480242839249232
      ],
      [
        "combination",
        -11.481152321902552
      ],
      [
        "special",
        -11.48138725748068
      ],
      [
        "initial",
        -11.481406749784803
      ],
      [
        "Ġranks",
        -11.481596751269521
      ],
      [
        "people",
        -11.482426078815724
      ],
      [
        "ĠenergyDrink",
        -11.483025788725698
      ],
      [
        "ular",
        -11.483634779611865
      ],
      [
        "balanced",
        -11.48448273721939
      ],
      [
        "Group",
        -11.484686228692375
      ],
      [
        "Ġclear",
        -11.485012002045842
      ],
      [
        "Ġqueens",
        -11.486589678539296
      ],
      [
        "Ġshelf",
        -11.488798048247041
      ],
      [
        "Ġpotion",
        -11.488937889293371
      ],
      [
        "Ġrate",
        -11.489544822650796
      ],
      [
        "Ġmilestone",
        -11.491033127006054
      ],
      [
        "hessboard",
        -11.4911434150996
      ],
      [
        "subset",
        -11.491379710636124
      ],
      [
        "Ġmi",
        -11.492289760862771
      ],
      [
        "Palindrome",
        -11.494241607044243
      ],
      [
        "Ġcrit",
        -11.494797401447912
      ],
      [
        "ĠTable",
        -11.49492573496116
      ],
      [
        "Boxes",
        -11.495305343746848
      ],
      [
        "Ġinvert",
        -11.4957758858274
      ],
      [
        "Ŀ",
        -11.495780277416406
      ],
      [
        "Ġsenator",
        -11.495786583672697
      ],
      [
        "Condition",
        -11.49578658443217
      ],
      [
        "Ġnatural",
        -11.495786740515374
      ],
      [
        "Ġtransition",
        -11.495787543481516
      ],
      [
        "Ġaffect",
        -11.495806173312205
      ],
      [
        "bot",
        -11.495835295782992
      ],
      [
        "Ġminimal",
        -11.495935785752536
      ],
      [
        "world",
        -11.495968599306348
      ],
      [
        "MM",
        -11.496021015873385
      ],
      [
        "exclud",
        -11.496926873682074
      ],
      [
        "Ġguard",
        -11.497109367335717
      ],
      [
        "Ġpossibilit",
        -11.49733491417249
      ],
      [
        "Ġmultiplie",
        -11.497367142926107
      ],
      [
        "Connected",
        -11.497522771015642
      ],
      [
        "west",
        -11.497793040430409
      ],
      [
        "CD",
        -11.499328148044736
      ],
      [
        "001",
        -11.499553227301385
      ],
      [
        "sequences",
        -11.4998449366174
      ],
      [
        "minu",
        -11.500610756575584
      ],
      [
        "ible",
        -11.502053219519114
      ],
      [
        "ordered",
        -11.503430275085622
      ],
      [
        "Ġvote",
        -11.505785795297022
      ],
      [
        "Rows",
        -11.506254858275586
      ],
      [
        "Ġindegree",
        -11.508414589174137
      ],
      [
        "ĠI",
        -11.512523533761666
      ],
      [
        "999",
        -11.512697477093347
      ],
      [
        "Ġcherr",
        -11.514237078216873
      ],
      [
        "00000000",
        -11.51506303157397
      ],
      [
        "rob",
        -11.515246753539575
      ],
      [
        "ĠEven",
        -11.51610110219945
      ],
      [
        "tepping",
        -11.5169741432833
      ],
      [
        "\"{",
        -11.517659611534144
      ],
      [
        "view",
        -11.519663898145685
      ],
      [
        "Ġbin",
        -11.520115105172536
      ],
      [
        "Ġrain",
        -11.52088025812633
      ],
      [
        "piece",
        -11.520980585295124
      ],
      [
        "smallest",
        -11.52129000021476
      ],
      [
        "merge",
        -11.522710742121602
      ],
      [
        "Ġgift",
        -11.523160163218082
      ],
      [
        "Ġlucky",
        -11.523252309130887
      ],
      [
        "Ġalloy",
        -11.523458578477534
      ],
      [
        "qualit",
        -11.524839863568456
      ],
      [
        "like",
        -11.525367281416681
      ],
      [
        "mail",
        -11.52647090738498
      ],
      [
        "Ġboundar",
        -11.527788360638706
      ],
      [
        "Ġpasse",
        -11.528502242016547
      ],
      [
        "Ġrespect",
        -11.530258830334896
      ],
      [
        "ĠTurn",
        -11.53026934909608
      ],
      [
        "Child",
        -11.530269349164492
      ],
      [
        "Ġreconstruct",
        -11.530270290927874
      ],
      [
        "Interval",
        -11.530271230718103
      ],
      [
        "Ġskyline",
        -11.530650782403868
      ],
      [
        "Ġsession",
        -11.530800351514067
      ],
      [
        "Ġdid",
        -11.5311821065699
      ],
      [
        "zi",
        -11.532157416053607
      ],
      [
        "cab",
        -11.533410668713435
      ],
      [
        "Ġenvelope",
        -11.533733030794767
      ],
      [
        "Ġsoldier",
        -11.53373887535505
      ],
      [
        "Ġdomain",
        -11.53384953698808
      ],
      [
        "Ġtail",
        -11.534063607777446
      ],
      [
        "SC",
        -11.536030434511808
      ],
      [
        "Ġsett",
        -11.53712672734867
      ],
      [
        "box",
        -11.5398376659491
      ],
      [
        "ĠSubstring",
        -11.540373953295866
      ],
      [
        "nch",
        -11.540499464892594
      ],
      [
        "Ġrepetition",
        -11.546004493756271
      ],
      [
        "Ġ99",
        -11.546052588709154
      ],
      [
        "Handle",
        -11.546445127636801
      ],
      [
        "]|",
        -11.546491049399602
      ],
      [
        "Ġoranges",
        -11.547881584853169
      ],
      [
        "Z",
        -11.548402137835335
      ],
      [
        "Water",
        -11.550841867841774
      ],
      [
        "State",
        -11.55434172467395
      ],
      [
        "Ġphrase",
        -11.554606392176904
      ],
      [
        "form",
        -11.555340199096822
      ],
      [
        "Str",
        -11.556180753855303
      ],
      [
        "66",
        -11.55697428628292
      ],
      [
        "ory",
        -11.557036678068812
      ],
      [
        "Ġstarti",
        -11.560186169925052
      ],
      [
        "Change",
        -11.56175279333796
      ],
      [
        "Ġadher",
        -11.561900660573368
      ],
      [
        "abcabc",
        -11.56214578979869
      ],
      [
        "Union",
        -11.562536529392807
      ],
      [
        "five",
        -11.562783014714226
      ],
      [
        "student",
        -11.562965535783917
      ],
      [
        "closest",
        -11.563077303799034
      ],
      [
        "perm",
        -11.563243774857508
      ],
      [
        "Ġcreat",
        -11.563429811361946
      ],
      [
        "Ġwrap",
        -11.563507809452124
      ],
      [
        "Ġidentifie",
        -11.564148941053631
      ],
      [
        "Corner",
        -11.565983629783416
      ],
      [
        "Ġfocus",
        -11.565983631039984
      ],
      [
        "Ġtruck",
        -11.565984887552624
      ],
      [
        "Ġcontribution",
        -11.565984983583908
      ],
      [
        "Ġdivisibility",
        -11.565991757886689
      ],
      [
        "Ġlap",
        -11.566074659202076
      ],
      [
        "Ġmaximal",
        -11.566124218608858
      ],
      [
        "Bar",
        -11.566264684726315
      ],
      [
        "pile",
        -11.566903963270873
      ],
      [
        "Weight",
        -11.568570387629109
      ],
      [
        "Ġsnake",
        -11.569589823416498
      ],
      [
        "dth",
        -11.570186647181085
      ],
      [
        "Sliding",
        -11.570611088306672
      ],
      [
        "Swap",
        -11.570808625458804
      ],
      [
        "ĠtargetWord",
        -11.571709411679882
      ],
      [
        "Ġcat",
        -11.572845154463522
      ],
      [
        "repeat",
        -11.572919779161001
      ],
      [
        "ĠAssum",
        -11.573031191814232
      ],
      [
        "Ġinner",
        -11.573040697954266
      ],
      [
        "xyz",
        -11.574483368850737
      ],
      [
        "aabb",
        -11.5751749274774
      ],
      [
        "Move",
        -11.575377835104554
      ],
      [
        "Ġcorridor",
        -11.57584658073668
      ],
      [
        "Ġflow",
        -11.57612483221139
      ],
      [
        "Ġsix",
        -11.576433382692905
      ],
      [
        "bca",
        -11.580046169109584
      ],
      [
        "010",
        -11.580305726203145
      ],
      [
        "Ġ'|'",
        -11.580782343079147
      ],
      [
        "Ġmarks",
        -11.581880462032716
      ],
      [
        "ĠConstruct",
        -11.582086435172837
      ],
      [
        "subarrays",
        -11.583856026019502
      ],
      [
        "One",
        -11.584625863824117
      ],
      [
        "tail",
        -11.586508756646904
      ],
      [
        "ĠisPrefix",
        -11.587576308274786
      ],
      [
        "Ġfleet",
        -11.588816079195174
      ],
      [
        "Ġlet",
        -11.589629639073383
      ],
      [
        "US",
        -11.591287852638672
      ],
      [
        "ter",
        -11.591754706637762
      ],
      [
        "45",
        -11.592631627067487
      ],
      [
        "til",
        -11.595926140046073
      ],
      [
        "}\"",
        -11.597502981024695
      ],
      [
        "Ġcrosse",
        -11.599538869528839
      ],
      [
        "Ġvali",
        -11.602098686386856
      ],
      [
        "Ġrectang",
        -11.60244439787622
      ],
      [
        "hash",
        -11.602764290353136
      ],
      [
        "ercentage",
        -11.602799117243848
      ],
      [
        "Decrement",
        -11.603020664896736
      ],
      [
        "nature",
        -11.603024653190296
      ],
      [
        "Candies",
        -11.603025682526535
      ],
      [
        "Ġmanipulation",
        -11.603028875756726
      ],
      [
        "Ġbouquet",
        -11.603048419783807
      ],
      [
        "Arrow",
        -11.603207054630461
      ],
      [
        "Ġtank",
        -11.60368886777118
      ],
      [
        "ational",
        -11.604754394963027
      ],
      [
        "Ġdoor",
        -11.605250566682107
      ],
      [
        "GCD",
        -11.605749095346146
      ],
      [
        "ababa",
        -11.605962280594493
      ],
      [
        "check",
        -11.606058510798086
      ],
      [
        "Start",
        -11.60626433622949
      ],
      [
        "blue",
        -11.606406491234141
      ],
      [
        "person",
        -11.606514721385402
      ],
      [
        "deque",
        -11.606715197632495
      ],
      [
        "Ġreversal",
        -11.60747615877445
      ],
      [
        "Ġdropp",
        -11.607967584094549
      ],
      [
        "Ġcalorie",
        -11.60881601295129
      ],
      [
        "ank",
        -11.609544484587135
      ],
      [
        "Ġcontained",
        -11.609915895053437
      ],
      [
        "Ġhighway",
        -11.611000959026631
      ],
      [
        "ful",
        -11.611179712586097
      ],
      [
        "Edge",
        -11.611746949532378
      ],
      [
        "Digits",
        -11.614109018379622
      ],
      [
        "Ġpar",
        -11.614577447318167
      ],
      [
        "Ġslope",
        -11.615549983528767
      ],
      [
        "paths",
        -11.615613104417836
      ],
      [
        "Ġnumeric",
        -11.617650322313374
      ],
      [
        "Ġfinishe",
        -11.618149999816286
      ],
      [
        "ĠSkip",
        -11.61859771719988
      ],
      [
        "Ġhill",
        -11.619757033781498
      ],
      [
        "Use",
        -11.620511490900874
      ],
      [
        "Ġmirror",
        -11.621126477775762
      ],
      [
        "Ġidl",
        -11.621393279736953
      ],
      [
        "Ġtopping",
        -11.626403709113175
      ],
      [
        "Ġrelations",
        -11.627801007198153
      ],
      [
        "vil",
        -11.628518506685094
      ],
      [
        "Ġcombin",
        -11.629259613030785
      ],
      [
        "Ġideal",
        -11.631433833785525
      ],
      [
        "Possible",
        -11.633503836539365
      ],
      [
        "Ġreal",
        -11.63388211122201
      ],
      [
        "ough",
        -11.633886737699036
      ],
      [
        "Triplet",
        -11.635097691559073
      ],
      [
        "Ġrotat",
        -11.635452729041356
      ],
      [
        "Ġmultiplier",
        -11.635711573585967
      ],
      [
        "Subsequence",
        -11.637459510894354
      ],
      [
        "88",
        -11.637894562222112
      ],
      [
        "Ġexclude",
        -11.638301388570486
      ],
      [
        "Ġcur",
        -11.639297253354478
      ],
      [
        "Ġclean",
        -11.640773870976838
      ],
      [
        "Ġrelationship",
        -11.641485266182798
      ],
      [
        "Ġengineer",
        -11.641486684413906
      ],
      [
        "subdir",
        -11.641546789440682
      ],
      [
        "Ġcatch",
        -11.6415769581305
      ],
      [
        "Ġvirus",
        -11.64167423891923
      ],
      [
        "Character",
        -11.641958235243461
      ],
      [
        "abcdef",
        -11.642952928073242
      ],
      [
        "Ġplacement",
        -11.644486244934415
      ],
      [
        "Identif",
        -11.645084063998635
      ],
      [
        "cba",
        -11.645288751427525
      ],
      [
        "Ġfutur",
        -11.645363584866079
      ],
      [
        "Ġtriangular",
        -11.64536688700152
      ],
      [
        "Ġstronge",
        -11.645657520454803
      ],
      [
        "Ġmentor",
        -11.646233264864522
      ],
      [
        "later",
        -11.647264375747623
      ],
      [
        "ĠStor",
        -11.647542766575574
      ],
      [
        "bbb",
        -11.648199964649248
      ],
      [
        "Ways",
        -11.648497062022008
      ],
      [
        "mouse",
        -11.648562119842435
      ],
      [
        "Ġ\"-",
        -11.649844071994604
      ],
      [
        "default",
        -11.651281560967
      ],
      [
        "tag",
        -11.651588967584312
      ],
      [
        "ĠCat",
        -11.651590717636635
      ],
      [
        "IP",
        -11.651618879576247
      ],
      [
        "Ġride",
        -11.652073479801272
      ],
      [
        "Ġreveal",
        -11.654475216593237
      ],
      [
        "flower",
        -11.65507067506468
      ],
      [
        "Position",
        -11.65778880525669
      ],
      [
        "Row",
        -11.658095548133833
      ],
      [
        "off",
        -11.661538522728794
      ],
      [
        "CP",
        -11.664907221469617
      ],
      [
        "Ġtrainer",
        -11.666503399812978
      ],
      [
        "Groups",
        -11.673412022199685
      ],
      [
        "ceil",
        -11.675611448283565
      ],
      [
        "Gene",
        -11.676260688711718
      ],
      [
        "Ġlocal",
        -11.679378971780357
      ],
      [
        "Ġperformance",
        -11.68092375312226
      ],
      [
        "Order",
        -11.681307923331305
      ],
      [
        "Ġdepend",
        -11.681481787430666
      ],
      [
        "Ġindividual",
        -11.6814822032899
      ],
      [
        "Ġwizard",
        -11.681489071037728
      ],
      [
        "Ġrevisit",
        -11.681495659339594
      ],
      [
        "Cnt",
        -11.681876596449332
      ],
      [
        "expr",
        -11.683334066426253
      ],
      [
        "Ġtour",
        -11.684972793094769
      ],
      [
        "Ġconcatenate",
        -11.685020481412923
      ],
      [
        "Test",
        -11.685158301015193
      ],
      [
        "Ġreflect",
        -11.68543953433936
      ],
      [
        "Ġ29",
        -11.686001458258847
      ],
      [
        "goo",
        -11.686970663547758
      ],
      [
        "Ġwors",
        -11.688385705256092
      ],
      [
        "Ġouter",
        -11.689416848314748
      ],
      [
        "Track",
        -11.689450233450575
      ],
      [
        "Ġxor",
        -11.690811886874815
      ],
      [
        "baba",
        -11.691593834986133
      ],
      [
        "Ġsignal",
        -11.692307030814405
      ],
      [
        "Ġhamster",
        -11.69258416607314
      ],
      [
        "girl",
        -11.69377316769796
      ],
      [
        "Ġproper",
        -11.69549773205295
      ],
      [
        "chair",
        -11.69719052132362
      ],
      [
        "TA",
        -11.697356748196443
      ],
      [
        "numberOf",
        -11.69752375270232
      ],
      [
        "info",
        -11.698020924602814
      ],
      [
        "Remove",
        -11.698714102239062
      ],
      [
        "Ġexecute",
        -11.699033091579222
      ],
      [
        "customer",
        -11.699273050102661
      ],
      [
        "meeting",
        -11.699301546444785
      ],
      [
        "frequency",
        -11.699327251838396
      ],
      [
        "\",\".\",\".\",\"",
        -11.69958541980429
      ],
      [
        "pick",
        -11.699971980253322
      ],
      [
        "seats",
        -11.701003588116262
      ],
      [
        "kth",
        -11.701412188190304
      ],
      [
        "ĠAnd",
        -11.701615751266967
      ],
      [
        "gle",
        -11.702182417124906
      ],
      [
        "Ġnormalize",
        -11.703096251667278
      ],
      [
        "ĠGroup",
        -11.70326004121326
      ],
      [
        "Ġgreat",
        -11.70550638562655
      ],
      [
        "Processing",
        -11.709798756903838
      ],
      [
        "Ġfair",
        -11.709989668139155
      ],
      [
        "ĠColumn",
        -11.710216546729953
      ],
      [
        "Ġqueen",
        -11.71116412777109
      ],
      [
        "cross",
        -11.711699863509192
      ],
      [
        "Ġsalar",
        -11.714635852180177
      ],
      [
        "Strings",
        -11.716166724304305
      ],
      [
        "ĠGo",
        -11.71879824911472
      ],
      [
        "we",
        -11.720393007263329
      ],
      [
        "Amount",
        -11.72314886999405
      ],
      [
        "Ġkeypress",
        -11.723149120980015
      ],
      [
        "Ġsupport",
        -11.723149130544456
      ],
      [
        "Mouse",
        -11.723150338622723
      ],
      [
        "Ġinvite",
        -11.723153751058273
      ],
      [
        "Ġjug",
        -11.723154436929457
      ],
      [
        "ĠBut",
        -11.723154935884303
      ],
      [
        "monitor",
        -11.723156596602008
      ],
      [
        "Ġsimplify",
        -11.723169560990847
      ],
      [
        "Ġparticular",
        -11.723173599975626
      ],
      [
        "Ġmy",
        -11.723211284484114
      ],
      [
        "Ġrock",
        -11.723233898655176
      ],
      [
        "Ġstrea",
        -11.72326150807584
      ],
      [
        "Heap",
        -11.723944843176108
      ],
      [
        "numeric",
        -11.72406927822632
      ],
      [
        "Ġrelease",
        -11.727362710673603
      ],
      [
        "Ġlogarithmic",
        -11.727899938923237
      ],
      [
        "Ġmemoize",
        -11.728035196624713
      ],
      [
        "xchange",
        -11.730210599333958
      ],
      [
        "ĠnumE",
        -11.731346980750313
      ],
      [
        "AA",
        -11.734195314230066
      ],
      [
        "Ġmutation",
        -11.735214988764382
      ],
      [
        "âĢĭâĢĭâĢĭâĢĭâĢĭ",
        -11.735694261501719
      ],
      [
        "Ġasteroid",
        -11.737047964334215
      ],
      [
        "Ġpill",
        -11.737568144630503
      ],
      [
        "Ġpassing",
        -11.738041067809018
      ],
      [
        "Ġstatus",
        -11.739507025968134
      ],
      [
        "ĠTh",
        -11.740221854482389
      ],
      [
        "ĠWith",
        -11.740779816941929
      ],
      [
        "http",
        -11.741837221519704
      ],
      [
        "ĠPop",
        -11.742695416444741
      ],
      [
        "action",
        -11.744277045323946
      ],
      [
        "mirror",
        -11.746240676794493
      ],
      [
        "Ġadvance",
        -11.74720045307346
      ],
      [
        "For",
        -11.747535956988653
      ],
      [
        "Note",
        -11.748542872954367
      ],
      [
        "deletion",
        -11.74888646761028
      ],
      [
        "Initial",
        -11.749108671376174
      ],
      [
        "multiple",
        -11.74918666702677
      ],
      [
        "energy",
        -11.749189422846335
      ],
      [
        "adjacent",
        -11.74934482839811
      ],
      [
        "increment",
        -11.749538853226378
      ],
      [
        "average",
        -11.749612272735051
      ],
      [
        "Update",
        -11.751299278733075
      ],
      [
        "Ġtwin",
        -11.752477418696214
      ],
      [
        "([[",
        -11.756086776009644
      ],
      [
        "ĠMin",
        -11.758159202408336
      ],
      [
        "\"))",
        -11.75925741231996
      ],
      [
        "1111",
        -11.760205888766794
      ],
      [
        "ĠRepeat",
        -11.762790419417044
      ],
      [
        "Substring",
        -11.763268561157044
      ],
      [
        "59",
        -11.763671251086642
      ],
      [
        "dice",
        -11.765232102533261
      ],
      [
        "255",
        -11.766579350909348
      ],
      [
        "Ġcombinatori",
        -11.766627130999838
      ],
      [
        "Ġshrink",
        -11.76662713137369
      ],
      [
        "Ġmathematic",
        -11.766627131442396
      ],
      [
        "Bottles",
        -11.766627145392286
      ],
      [
        "Ġcoefficient",
        -11.766630195858228
      ],
      [
        "ĠBuy",
        -11.76663079388481
      ],
      [
        "Ġconcept",
        -11.766631137991368
      ],
      [
        "Container",
        -11.766633229856929
      ],
      [
        "Ġrefill",
        -11.766633865812626
      ],
      [
        "Code",
        -11.766652729660972
      ],
      [
        "igned",
        -11.766659175706877
      ],
      [
        "cake",
        -11.766740168360297
      ],
      [
        "unge",
        -11.767308196928642
      ],
      [
        "lps",
        -11.769652906620422
      ],
      [
        "Ġoppo",
        -11.770901655125986
      ],
      [
        "Ġdetail",
        -11.771032462858214
      ],
      [
        "Ġresponse",
        -11.771133388496782
      ],
      [
        "Ġpref",
        -11.77130223621096
      ],
      [
        "Concatenate",
        -11.771450412540604
      ],
      [
        "Ġsubgrid",
        -11.772172966129064
      ],
      [
        "Ġfeed",
        -11.773820755341726
      ],
      [
        "Ġpartial",
        -11.77895198078571
      ],
      [
        "afeness",
        -11.779731885533073
      ],
      [
        "Room",
        -11.781753130231063
      ],
      [
        "Ġrelation",
        -11.782360288015173
      ],
      [
        "Ġfac",
        -11.78310212047256
      ],
      [
        "alpha",
        -11.783656285802905
      ],
      [
        "ffer",
        -11.784593348102039
      ],
      [
        "ME",
        -11.786477920793077
      ],
      [
        "ard",
        -11.786622010065477
      ],
      [
        "Ġ64",
        -11.787321489248834
      ],
      [
        "Map",
        -11.788112988876273
      ],
      [
        "be",
        -11.789550406008633
      ],
      [
        "With",
        -11.792913352362197
      ],
      [
        "Ġalphabetical",
        -11.794485354758635
      ],
      [
        "Ġcon",
        -11.79463610792066
      ],
      [
        "Ġentrance",
        -11.79480260141299
      ],
      [
        "Ġeval",
        -11.794858614664143
      ],
      [
        "Ġbarcode",
        -11.794882730942154
      ],
      [
        "Ġsender",
        -11.794917236457945
      ],
      [
        "75",
        -11.796957080760878
      ],
      [
        "itive",
        -11.79946536155488
      ],
      [
        "copy",
        -11.800496115131109
      ],
      [
        "gain",
        -11.800523347242716
      ],
      [
        "priorit",
        -11.801126759781072
      ],
      [
        "Set",
        -11.801750680315196
      ],
      [
        "insert",
        -11.801908960063905
      ],
      [
        "subtree",
        -11.801981535282025
      ],
      [
        "robot",
        -11.802112070432365
      ],
      [
        "cial",
        -11.802429881266914
      ],
      [
        "Ġcream",
        -11.802931368811986
      ],
      [
        "Ġsemester",
        -11.80297682877956
      ],
      [
        "cut",
        -11.8031450764482
      ],
      [
        "missing",
        -11.803502013285865
      ],
      [
        "flow",
        -11.805040029365392
      ],
      [
        "compatibilit",
        -11.805984367016876
      ],
      [
        "uppose",
        -11.807477475243521
      ],
      [
        "Visit",
        -11.81019977711332
      ],
      [
        "eople",
        -11.81061554960162
      ],
      [
        "Ġsufficient",
        -11.81123626211397
      ],
      [
        "LIS",
        -11.812074967870238
      ],
      [
        "Ġschedule",
        -11.812081676297193
      ],
      [
        "Ġsample",
        -11.812083061215052
      ],
      [
        "ATL",
        -11.81209688346781
      ],
      [
        "Ġentr",
        -11.812121667276664
      ],
      [
        "Ġcreator",
        -11.812477924179689
      ],
      [
        "land",
        -11.812623888380982
      ],
      [
        "Ġcharge",
        -11.812939530837543
      ],
      [
        "ubstitution",
        -11.81296469022331
      ],
      [
        "97",
        -11.813227918383621
      ],
      [
        "Ġmetal",
        -11.81376639681318
      ],
      [
        "iter",
        -11.814382858401427
      ],
      [
        "Ġtax",
        -11.814382940546702
      ],
      [
        "Initialize",
        -11.814916189430182
      ],
      [
        "colored",
        -11.816181620367566
      ],
      [
        "Ġpaper",
        -11.816702247627546
      ],
      [
        "Ġdownward",
        -11.816777509846153
      ],
      [
        "Ġdeliver",
        -11.81685293630544
      ],
      [
        "Ġ49",
        -11.818481531019193
      ],
      [
        "Ġrecipe",
        -11.819576292698073
      ],
      [
        "Ġgate",
        -11.820169118067898
      ],
      [
        "player",
        -11.82045244424641
      ],
      [
        "Ġdeepest",
        -11.82105347985786
      ],
      [
        "peak",
        -11.821564096560685
      ],
      [
        "Ġreorder",
        -11.821997876676441
      ],
      [
        "Second",
        -11.82238938238893
      ],
      [
        "Ġdescen",
        -11.822694476813414
      ],
      [
        "rmor",
        -11.824020078608896
      ],
      [
        "Ġquotient",
        -11.824782491519006
      ],
      [
        "Ġwinning",
        -11.825163683129475
      ],
      [
        "Ġgray",
        -11.8253679249346
      ],
      [
        "car",
        -11.826194198118118
      ],
      [
        "Ġinvers",
        -11.826456072958663
      ],
      [
        "friend",
        -11.82692332918077
      ],
      [
        "Ġinterest",
        -11.827392459198759
      ],
      [
        "Ġseri",
        -11.82842110906169
      ],
      [
        "Ġhandl",
        -11.828517197538584
      ],
      [
        "ma",
        -11.829266063887333
      ],
      [
        "Ġselling",
        -11.831294143442506
      ],
      [
        "Ġcomput",
        -11.833278978190261
      ],
      [
        "Paths",
        -11.833662135103793
      ],
      [
        "ace",
        -11.835840286328084
      ],
      [
        "Product",
        -11.83701371810011
      ],
      [
        "Ġask",
        -11.837649207405644
      ],
      [
        "Ġlive",
        -11.83885350724876
      ],
      [
        "Ġflavor",
        -11.841600531411984
      ],
      [
        "Ġcrystal",
        -11.841602128086585
      ],
      [
        "ĠStack",
        -11.841624065672239
      ],
      [
        "ĠQueue",
        -11.841651946935666
      ],
      [
        "rings",
        -11.84176918052879
      ],
      [
        "0100",
        -11.842386481571065
      ],
      [
        "Ġformatt",
        -11.845028578142736
      ],
      [
        "Ġ\"$",
        -11.845162872956758
      ],
      [
        "layers",
        -11.846489699896606
      ],
      [
        "Ġdry",
        -11.847191960020023
      ],
      [
        "possible",
        -11.848660170465191
      ],
      [
        "shape",
        -11.849785496259399
      ],
      [
        "After",
        -11.849985522481479
      ],
      [
        "bar",
        -11.85031186359678
      ],
      [
        "Unique",
        -11.850656470052174
      ],
      [
        "Ġignore",
        -11.8517823120452
      ],
      [
        "indicat",
        -11.85244586371541
      ],
      [
        "cal",
        -11.85328814986189
      ],
      [
        "Ġcategori",
        -11.853657863576862
      ],
      [
        "mentor",
        -11.854030461747312
      ],
      [
        "feed",
        -11.854931625250863
      ],
      [
        "Pick",
        -11.855751291660646
      ],
      [
        "month",
        -11.856339061571564
      ],
      [
        "Final",
        -11.85676759398526
      ],
      [
        "Ġinterpret",
        -11.856835124133912
      ],
      [
        "except",
        -11.85710689606784
      ],
      [
        "capacity",
        -11.857492410902644
      ],
      [
        "plane",
        -11.857596711066229
      ],
      [
        "water",
        -11.857774971976383
      ],
      [
        "Width",
        -11.857935562327365
      ],
      [
        "Level",
        -11.858701314227384
      ],
      [
        "Ġrevision",
        -11.858844527564024
      ],
      [
        "Ġlicense",
        -11.859700983421684
      ],
      [
        "ĠRearrang",
        -11.859701091760467
      ],
      [
        "Url",
        -11.85970708969672
      ],
      [
        "Ġrhombus",
        -11.859707886667323
      ],
      [
        "Name",
        -11.859722594095695
      ],
      [
        "ewels",
        -11.859724387084064
      ],
      [
        "ĠRom",
        -11.859726643005875
      ],
      [
        "Ġflatten",
        -11.859726974036098
      ],
      [
        "Ġwarm",
        -11.859728658185471
      ],
      [
        "Ġclimb",
        -11.859738996297695
      ],
      [
        "ĠCall",
        -11.859805429403465
      ],
      [
        "data",
        -11.859869525848861
      ],
      [
        "Ġuncommon",
        -11.859885888432961
      ],
      [
        "Ġnarrow",
        -11.860241101408231
      ],
      [
        "Ġsong",
        -11.860597941741382
      ],
      [
        "email",
        -11.860724671864006
      ],
      [
        "contains",
        -11.86091200185826
      ],
      [
        "gal",
        -11.862032626318598
      ],
      [
        "Ġnut",
        -11.86207423681691
      ],
      [
        "Ġcompetiti",
        -11.862109561419027
      ],
      [
        "Ġintermedia",
        -11.862565210645045
      ],
      [
        "Ġconflicting",
        -11.86309926006391
      ],
      [
        "Permutation",
        -11.863320754511495
      ],
      [
        "Ġhir",
        -11.864252543023756
      ],
      [
        "kad",
        -11.86426742222234
      ],
      [
        "Ġsoup",
        -11.864499168823047
      ],
      [
        "ĠHamming",
        -11.864500772266407
      ],
      [
        "ĠSolv",
        -11.864565714189347
      ],
      [
        "Ġunlock",
        -11.864574809253396
      ],
      [
        "Ġtrust",
        -11.864582959352909
      ],
      [
        "ĠrepeatLimit",
        -11.864642407884997
      ],
      [
        "900",
        -11.866278426137523
      ],
      [
        "Ġ120",
        -11.86648579934048
      ],
      [
        "Ġeliminate",
        -11.866684958736327
      ],
      [
        "Ġchess",
        -11.866833167282433
      ],
      [
        "rive",
        -11.86696856346421
      ],
      [
        "Ġskipp",
        -11.867577002951064
      ],
      [
        "loses",
        -11.869952427782463
      ],
      [
        "Ġsay",
        -11.87033862570313
      ],
      [
        "ĠWorker",
        -11.873082495323025
      ],
      [
        "}{",
        -11.873221116243505
      ],
      [
        "011",
        -11.87391899756629
      ],
      [
        ".\",\".\",\".\",\".\",\"",
        -11.87420557026745
      ],
      [
        "Ġprocessor",
        -11.875704274155423
      ],
      [
        "Ġcap",
        -11.876094254750157
      ],
      [
        "Ġheater",
        -11.876507838305695
      ],
      [
        "Ġfiles",
        -11.876650097541193
      ],
      [
        "Ġwon",
        -11.87713044552874
      ],
      [
        "xj",
        -11.879675806284315
      ],
      [
        "tate",
        -11.87981532803833
      ],
      [
        "book",
        -11.87988150467478
      ],
      [
        "Ġbook",
        -11.879925435403168
      ],
      [
        "region",
        -11.881005609932057
      ],
      [
        "Ġincremovable",
        -11.88182576764723
      ],
      [
        "Ġnumeral",
        -11.881846606798486
      ],
      [
        "Ġdisappear",
        -11.883007474096903
      ],
      [
        "pati",
        -11.883546319824994
      ],
      [
        "Ġallocate",
        -11.884575636334851
      ],
      [
        "Ġ255",
        -11.886005442088237
      ],
      [
        "idi",
        -11.888026418122196
      ],
      [
        "Ġabbr",
        -11.88927654379018
      ],
      [
        "Ġscope",
        -11.890722001849998
      ],
      [
        "Ġassignment",
        -11.890845448296588
      ],
      [
        "ĠRe",
        -11.89224603841455
      ],
      [
        "baab",
        -11.892635481638774
      ],
      [
        "ĠStudent",
        -11.893153190698987
      ],
      [
        "Ġsimple",
        -11.893411122034598
      ],
      [
        "using",
        -11.896353168351034
      ],
      [
        "Ġpairing",
        -11.89649377807787
      ],
      [
        "Ġ180",
        -11.898574435628108
      ],
      [
        "ĠImplement",
        -11.89975238687142
      ],
      [
        "late",
        -11.899794614105303
      ],
      [
        "Compa",
        -11.901757835235001
      ],
      [
        "Ġupgrade",
        -11.902867678176701
      ],
      [
        "LC",
        -11.903369509642044
      ],
      [
        "Ġenclose",
        -11.90475360962579
      ],
      [
        "Ġrecalculat",
        -11.905747009902566
      ],
      [
        "Energ",
        -11.907152963466999
      ],
      [
        "Ġexam",
        -11.907183711270363
      ],
      [
        "mong",
        -11.908857216165858
      ],
      [
        "lot",
        -11.909106308461546
      ],
      [
        "Ġhistogram",
        -11.909700724025498
      ],
      [
        "Reduce",
        -11.909700732742609
      ],
      [
        "alware",
        -11.909701359313349
      ],
      [
        "Ġwonderful",
        -11.909702113588903
      ],
      [
        "Ġwebsite",
        -11.909704789421149
      ],
      [
        "Ġdepart",
        -11.909710523611174
      ],
      [
        "ĠonesCol",
        -11.909712763396406
      ],
      [
        "ĠzerosCol",
        -11.909720731928411
      ],
      [
        "Ġvalley",
        -11.909745188235377
      ],
      [
        "ĠonesRow",
        -11.909788133807176
      ],
      [
        "ĠzerosRow",
        -11.909845991191178
      ],
      [
        "HH",
        -11.909891209205004
      ],
      [
        "Ġrec",
        -11.90989844769365
      ],
      [
        "Ġmechanic",
        -11.909916698490402
      ],
      [
        "Ġsubgraph",
        -11.910003300279524
      ],
      [
        "cdot",
        -11.910134451644906
      ],
      [
        "Populat",
        -11.910163734685806
      ],
      [
        "streak",
        -11.910216679899555
      ],
      [
        "Ġswitch",
        -11.910704875763678
      ],
      [
        "though",
        -11.910713301607654
      ],
      [
        "Ġindirect",
        -11.911562266676853
      ],
      [
        "Ġmidpoint",
        -11.912362058904574
      ],
      [
        "Ġwaste",
        -11.91299080830776
      ],
      [
        "Ġmag",
        -11.913683648317816
      ],
      [
        "dden",
        -11.914079580482845
      ],
      [
        "pid",
        -11.914751650031029
      ],
      [
        "Ġpothole",
        -11.914805201545226
      ],
      [
        "discount",
        -11.914822574864
      ],
      [
        "77",
        -11.914931747681761
      ],
      [
        "Ġ37",
        -11.915174173151057
      ],
      [
        "Ġextroverts",
        -11.915184129990468
      ],
      [
        "ĠTravers",
        -11.915470223437602
      ],
      [
        "Ġshifting",
        -11.916022036268467
      ],
      [
        "circle",
        -11.916176819897817
      ],
      [
        "horizontal",
        -11.916183157580697
      ],
      [
        "floor",
        -11.916214370777507
      ],
      [
        "best",
        -11.916909064286392
      ],
      [
        "duration",
        -11.917390205653614
      ],
      [
        "seq",
        -11.91753192541099
      ],
      [
        "ĠTask",
        -11.917716656692317
      ],
      [
        "eleva",
        -11.918139341859437
      ],
      [
        "Ġfaci",
        -11.918984519409708
      ],
      [
        "Edges",
        -11.920114343792001
      ],
      [
        "ĠPlayer",
        -11.920580172666888
      ],
      [
        "Ġhex",
        -11.922504415532545
      ],
      [
        "Ġbu",
        -11.923343557073919
      ],
      [
        "eating",
        -11.923613847741148
      ],
      [
        "Ġrepresentative",
        -11.92412427924179
      ],
      [
        "its",
        -11.92537877505095
      ],
      [
        "Ġfalling",
        -11.925699600311939
      ],
      [
        "ure",
        -11.927523392184938
      ],
      [
        "ccc",
        -11.93043409946845
      ],
      [
        "Ġmile",
        -11.93125029428489
      ],
      [
        "ward",
        -11.931695087540398
      ],
      [
        "Ġdefense",
        -11.93298999450962
      ],
      [
        "distan",
        -11.93334121254862
      ],
      [
        "Ġgene",
        -11.933713257808181
      ],
      [
        "300",
        -11.934834059405233
      ],
      [
        "Ġoverlapp",
        -11.936106796445733
      ],
      [
        "Ġche",
        -11.938911244577326
      ],
      [
        "Ġdeviation",
        -11.942393584856823
      ],
      [
        "ĠÂłĠĠĠĠĠĠĠĠĠĠĠĠĠ",
        -11.943215232011616
      ],
      [
        "96",
        -11.943246095329464
      ],
      [
        "Common",
        -11.943362391569998
      ],
      [
        "ctive",
        -11.943563080549282
      ],
      [
        "Available",
        -11.945307732087956
      ],
      [
        "Ġgirl",
        -11.946286353023286
      ],
      [
        "atched",
        -11.946972408134371
      ],
      [
        "ĠFriend",
        -11.948401390294025
      ],
      [
        "mor",
        -11.948807817213389
      ],
      [
        "Cycle",
        -11.949978606459247
      ],
      [
        "Ġbusy",
        -11.951167926291715
      ],
      [
        "ves",
        -11.953103116175019
      ],
      [
        "Valid",
        -11.953451062149426
      ],
      [
        "ĠRemov",
        -11.95375883434576
      ],
      [
        "Player",
        -11.953924273503013
      ],
      [
        "]\\)",
        -11.95400123111093
      ],
      [
        "ĠSlid",
        -11.95549402814298
      ],
      [
        "Ġexpla",
        -11.95564208525009
      ],
      [
        "Ġdiv",
        -11.95606623156961
      ],
      [
        "Ġchr",
        -11.956782117577255
      ],
      [
        "Game",
        -11.956902273751359
      ],
      [
        "76",
        -11.95784629594645
      ],
      [
        "ĠPa",
        -11.958744932540888
      ],
      [
        "Ġproce",
        -11.959132731531
      ],
      [
        "NA",
        -11.961597822111619
      ],
      [
        "ifficult",
        -11.961938418156901
      ],
      [
        "ield",
        -11.961968469136792
      ],
      [
        "Ġvo",
        -11.96209171375535
      ],
      [
        "ĠAmerica",
        -11.962332302940306
      ],
      [
        "Ġcousin",
        -11.962332419693837
      ],
      [
        "Ġburst",
        -11.962349724220848
      ],
      [
        "Ġrevert",
        -11.96234998036412
      ],
      [
        "Next",
        -11.962389557961158
      ],
      [
        "Ġfinger",
        -11.962392849889282
      ],
      [
        "Ġsupersequence",
        -11.962418934167491
      ],
      [
        "Ġocean",
        -11.962440928019324
      ],
      [
        "Bitmask",
        -11.962444581892404
      ],
      [
        "Ġdash",
        -11.962460754234423
      ],
      [
        "JF",
        -11.962464629973093
      ],
      [
        "Ġjudge",
        -11.96248208089601
      ],
      [
        "Ġpreced",
        -11.962718393402032
      ],
      [
        "ĠgroupSize",
        -11.962734099418734
      ],
      [
        "Ġsimplified",
        -11.962851664874522
      ],
      [
        "Ġintroverts",
        -11.963392154472759
      ],
      [
        "Ġstrobogrammatic",
        -11.963861968968533
      ],
      [
        "ĠminSize",
        -11.964443613585075
      ],
      [
        "Ġ{'",
        -11.965472130937762
      ],
      [
        "ĠveganFriendly",
        -11.967726027060095
      ],
      [
        "ĠminCost",
        -11.967763812843861
      ],
      [
        "Ġbri",
        -11.96782263968942
      ],
      [
        "acklog",
        -11.969101205549467
      ],
      [
        "removable",
        -11.969751899582743
      ],
      [
        "Ġinvent",
        -11.971316976338839
      ],
      [
        "slow",
        -11.97249625424152
      ],
      [
        "Ġforest",
        -11.973419486657008
      ],
      [
        "dge",
        -11.975185790776973
      ],
      [
        "PS",
        -11.975503116323653
      ],
      [
        "glass",
        -11.97639365997215
      ],
      [
        "gold",
        -11.97653341260349
      ],
      [
        "ĠCompar",
        -11.976802840102419
      ],
      [
        "hens",
        -11.97680907805558
      ],
      [
        "coprime",
        -11.976969377879076
      ],
      [
        "Ġunderstand",
        -11.977183244616151
      ],
      [
        "Ġmatchstick",
        -11.97724334201436
      ],
      [
        "Determine",
        -11.977921443226577
      ],
      [
        "Help",
        -11.977937524417419
      ],
      [
        "Step",
        -11.97795874906953
      ],
      [
        "health",
        -11.978679711177918
      ],
      [
        "boundary",
        -11.978764849937285
      ],
      [
        "median",
        -11.978811717118823
      ],
      [
        "center",
        -11.978835680134626
      ],
      [
        "Ġlogout",
        -11.978930203061068
      ],
      [
        "than",
        -11.979974069391684
      ],
      [
        "rat",
        -11.984762488872207
      ],
      [
        "Bit",
        -11.984926337957216
      ],
      [
        "Pair",
        -11.988255641356686
      ],
      [
        "Ġhalve",
        -11.98933412076376
      ],
      [
        "Ġphone",
        -11.98935270946524
      ],
      [
        "Ġavg",
        -11.990981200789648
      ],
      [
        "Ġtrimm",
        -11.991492638026672
      ],
      [
        "\",\".\",\".\",\".\",\"",
        -11.993515894519557
      ],
      [
        "50000",
        -11.995374293431741
      ],
      [
        "Ġtoll",
        -11.996346275121056
      ],
      [
        "ĠRotate",
        -11.996395256855296
      ],
      [
        "ĠTransform",
        -11.997104439446503
      ],
      [
        "enetic",
        -11.999281462853812
      ],
      [
        "know",
        -11.999592395184937
      ],
      [
        "bac",
        -12.000150671711896
      ],
      [
        "abb",
        -12.000152501826129
      ],
      [
        "Ġsolv",
        -12.00131865204995
      ],
      [
        "rootV",
        -12.001634954556302
      ],
      [
        "1010",
        -12.003031303688665
      ],
      [
        "abac",
        -12.004007041150663
      ],
      [
        "Ġappeal",
        -12.007001761772145
      ],
      [
        "lmost",
        -12.008347950470334
      ],
      [
        "sets",
        -12.009321477446758
      ],
      [
        "ĠmaxMove",
        -12.01110971944619
      ],
      [
        "106",
        -12.011936926268909
      ],
      [
        "Special",
        -12.014055722585484
      ],
      [
        "No",
        -12.014264469196691
      ],
      [
        "losing",
        -12.014687673353537
      ],
      [
        "ello",
        -12.016116249748862
      ],
      [
        "Ġprogram",
        -12.01644982645471
      ],
      [
        "Profit",
        -12.017012641735889
      ],
      [
        "ĠCombine",
        -12.017153401129901
      ],
      [
        "ĠCharacter",
        -12.017194888792288
      ],
      [
        "Ġthough",
        -12.017238441204796
      ],
      [
        "resh",
        -12.017864855220656
      ],
      [
        "Ġchampagne",
        -12.017887858413957
      ],
      [
        "Ġdetonate",
        -12.017887860154465
      ],
      [
        "Ġautomat",
        -12.017887872581635
      ],
      [
        "Ġmodification",
        -12.01788788494163
      ],
      [
        "Double",
        -12.017887910569335
      ],
      [
        "Minute",
        -12.017888402721788
      ],
      [
        "Ġcouple",
        -12.017889481357532
      ],
      [
        "Ġeffect",
        -12.017894605790257
      ],
      [
        "Ġconsistent",
        -12.01789473798232
      ],
      [
        "Ġfriendship",
        -12.01790424090261
      ],
      [
        "ffort",
        -12.017906763591679
      ],
      [
        "ĠURL",
        -12.01791486669487
      ],
      [
        "cean",
        -12.017939589491672
      ],
      [
        "Ġrearrangement",
        -12.017957751803138
      ],
      [
        "Leetcode",
        -12.017989740509483
      ],
      [
        "uck",
        -12.018000567575857
      ],
      [
        "Target",
        -12.018164426305425
      ],
      [
        "Ġdecorat",
        -12.018537637325897
      ],
      [
        "Ġaward",
        -12.019015021869375
      ],
      [
        "Subtree",
        -12.019984275424312
      ],
      [
        "table",
        -12.020289045501897
      ],
      [
        "alan",
        -12.021015928713979
      ],
      [
        "Ġwatering",
        -12.021847298201322
      ],
      [
        "Ġspend",
        -12.021901502469824
      ],
      [
        "Ġlogin",
        -12.022296434633589
      ],
      [
        "Infect",
        -12.023379331800117
      ],
      [
        "Ġtap",
        -12.023485883263973
      ],
      [
        "Ġpipe",
        -12.023571572653921
      ],
      [
        "Ġflag",
        -12.02359201413512
      ],
      [
        "Ġvariant",
        -12.023605831580845
      ],
      [
        "Largest",
        -12.024413515352954
      ],
      [
        "Ġunm",
        -12.028003009815546
      ],
      [
        "subsets",
        -12.028457333867348
      ],
      [
        "Range",
        -12.030997323196077
      ],
      [
        "Ġdelay",
        -12.031344638997597
      ],
      [
        "stop",
        -12.031533483986546
      ],
      [
        "89",
        -12.031853141823214
      ],
      [
        "Ġexecuti",
        -12.031927043521275
      ],
      [
        "Ġpour",
        -12.03322509646146
      ],
      [
        "Ġbipartite",
        -12.03360750118101
      ],
      [
        "Ġfactorial",
        -12.033760610710647
      ],
      [
        "Ġweake",
        -12.033940058035826
      ],
      [
        "ĠnextCourse",
        -12.034432508237531
      ],
      [
        "ĠMemoiz",
        -12.036325584313312
      ],
      [
        "Ġtrim",
        -12.036382065367526
      ],
      [
        "neg",
        -12.036454690782303
      ],
      [
        "ĠChoos",
        -12.037072179790941
      ],
      [
        "stick",
        -12.037625248881582
      ],
      [
        "Root",
        -12.038258029838794
      ],
      [
        "Transform",
        -12.039615890729985
      ],
      [
        "Ġfew",
        -12.040049359779502
      ],
      [
        "eight",
        -12.040116054883253
      ],
      [
        "Ġordering",
        -12.040328105778245
      ],
      [
        "Ġsend",
        -12.040841788780195
      ],
      [
        "Ġ400",
        -12.041493393840106
      ],
      [
        "great",
        -12.041654854419573
      ],
      [
        "compressed",
        -12.042433810240679
      ],
      [
        "abbr",
        -12.043057101694883
      ],
      [
        "Square",
        -12.043267648615416
      ],
      [
        "Push",
        -12.043589697871688
      ],
      [
        "Ġelapse",
        -12.04396160727711
      ],
      [
        "bloom",
        -12.043994100908392
      ],
      [
        "ĠsideLength",
        -12.044325972217981
      ],
      [
        "tast",
        -12.044623227852433
      ],
      [
        "expression",
        -12.045330694035911
      ],
      [
        "obstacle",
        -12.045382118963285
      ],
      [
        "request",
        -12.045441275868095
      ],
      [
        "palindromic",
        -12.045504585589482
      ],
      [
        "segment",
        -12.04555362456962
      ],
      [
        "label",
        -12.046967572727993
      ],
      [
        "Fill",
        -12.047175953907551
      ],
      [
        "SE",
        -12.047659742427633
      ],
      [
        "Ġorange",
        -12.047914304856508
      ],
      [
        "Ġquiet",
        -12.049540283109314
      ],
      [
        "Subset",
        -12.050663026160885
      ],
      [
        "ĠEdge",
        -12.050953545662674
      ],
      [
        "thi",
        -12.053084177820416
      ],
      [
        "Ġcyclic",
        -12.053138471918023
      ],
      [
        "Ġerror",
        -12.054496079243433
      ],
      [
        "ĠShift",
        -12.054561412240139
      ],
      [
        "Ġmoment",
        -12.05456208673009
      ],
      [
        "thre",
        -12.055493640992438
      ],
      [
        "Ġold",
        -12.055871312404381
      ],
      [
        "Ġgrade",
        -12.056871189557782
      ],
      [
        "bool",
        -12.058628769687012
      ],
      [
        "infect",
        -12.058649326036246
      ],
      [
        "Ġprepar",
        -12.059814070156252
      ],
      [
        "veral",
        -12.062537343742767
      ],
      [
        "night",
        -12.063018119976471
      ],
      [
        "Ġtruncate",
        -12.06312639053576
      ],
      [
        "ĠMST",
        -12.06521680864864
      ],
      [
        "Ġsatisf",
        -12.066817233351525
      ],
      [
        "Longest",
        -12.067340866193387
      ],
      [
        "aaaaa",
        -12.069130297108684
      ],
      [
        "Ġtravers",
        -12.06991929186771
      ],
      [
        ")`)",
        -12.073773896390048
      ],
      [
        "Distinct",
        -12.073818757688397
      ],
      [
        "isjoint",
        -12.073934688373502
      ],
      [
        "Ġenem",
        -12.074176840543313
      ],
      [
        "Ġwood",
        -12.076054710260578
      ],
      [
        "âĢ",
        -12.076709569320988
      ],
      [
        "ĠStructure",
        -12.076711387814136
      ],
      [
        "Ġwiggle",
        -12.07671139911921
      ],
      [
        "xpensive",
        -12.076711407893804
      ],
      [
        "Ġverify",
        -12.076712399313921
      ],
      [
        "Ġboat",
        -12.076714555551334
      ],
      [
        "Ġreference",
        -12.07673025838897
      ],
      [
        "Ġprinciple",
        -12.076758234613262
      ],
      [
        "Point",
        -12.076774989930039
      ],
      [
        "Ġchip",
        -12.076785770322436
      ],
      [
        "knowledg",
        -12.076815799576126
      ],
      [
        "Ġsector",
        -12.076859752236508
      ],
      [
        "Efficien",
        -12.076928124376273
      ],
      [
        "456",
        -12.07705082898781
      ],
      [
        "Ġearlie",
        -12.07746799438318
      ],
      [
        "Ġtalle",
        -12.077621810680164
      ],
      [
        "Ġclone",
        -12.077763888321599
      ],
      [
        "}\\)",
        -12.077854168680938
      ],
      [
        "reach",
        -12.07797053852481
      ],
      [
        "aster",
        -12.078352968872354
      ],
      [
        "phone",
        -12.078490122731708
      ],
      [
        "slot",
        -12.078722611877726
      ],
      [
        "substr",
        -12.078965008318509
      ],
      [
        "bin",
        -12.079091616872407
      ],
      [
        "Ġincorrect",
        -12.079748876137053
      ],
      [
        "offe",
        -12.08003139791213
      ],
      [
        "Ġdefinition",
        -12.08107919669404
      ],
      [
        "Ġriche",
        -12.08249829456446
      ],
      [
        "Ġregard",
        -12.082769374344586
      ],
      [
        "Ġchampion",
        -12.08277975767394
      ],
      [
        "queen",
        -12.082822850333258
      ],
      [
        "ille",
        -12.083108908750322
      ],
      [
        "Ġsummon",
        -12.084123528420903
      ],
      [
        "ĠminimumCost",
        -12.0848575631763
      ],
      [
        "10101",
        -12.085129116875391
      ],
      [
        "Dat",
        -12.086026359237257
      ],
      [
        "pu",
        -12.08676886392789
      ],
      [
        "Ġbatch",
        -12.087050970480185
      ],
      [
        "ĠWhat",
        -12.087154080191521
      ],
      [
        "Ġassum",
        -12.089956637077561
      ],
      [
        "hours",
        -12.091077795124622
      ],
      [
        "ĠRow",
        -12.093087806357047
      ],
      [
        "Ġsynonym",
        -12.093429329226424
      ],
      [
        "ĠmaxJump",
        -12.095664137285787
      ],
      [
        "Ġbright",
        -12.0961186679307
      ],
      [
        "ĠmaxScore",
        -12.097379210946526
      ],
      [
        "you",
        -12.100368910220878
      ],
      [
        "ca",
        -12.100875202144346
      ],
      [
        "Ġhop",
        -12.101301533478006
      ],
      [
        "var",
        -12.101912439902664
      ],
      [
        "Adjust",
        -12.102716548016383
      ],
      [
        "Ġdie",
        -12.104408875181296
      ],
      [
        "ĠGain",
        -12.104414927041557
      ],
      [
        "lease",
        -12.106171241550378
      ],
      [
        "âĢĭâĢĭ",
        -12.107237801829868
      ],
      [
        "Choos",
        -12.110198494022452
      ],
      [
        "Split",
[...]
